#version: 0.2
a n
n g
e u
a r
a l
Ġ k
Ã ©
i n
Ġ d
a t
Ġ s
an g
Ġ t
a s
e r
Ġ p
Ġ m
Ġ b
a h
a k
Ġ n
a m
eu n
e n
o n
Ġ S
u r
i t
i s
i k
Ġ P
u n
o r
a d
Ġ A
Ġd i
Ġ l
i ng
e s
Ġ j
Ġ K
a y
Ġ M
Ġ B
a b
u s
Ġ h
Ġ ng
a p
a g
Ġ T
Ġ an
i l
t a
u m
in a
u l
n a
u ng
Ġ c
a w
Ġ C
e l
r o
Ġ D
Ġ g
i r
u k
e m
Ġ 2
e t
o s
u t
â Ģ
e ng
i m
o l
e d
Ġ 1
an a
i d
a c
Ġ r
Ġ N
o t
Ġ J
o m
Ġ (
k eun
eu ng
Ġ w
Ġ L
Ġ I
a j
u p
an d
Ġ R
Ġn u
e p
0 0
Ġk a
Ġn y
i c
Ã© n
Ġ G
Ġan u
o b
o g
0 1
. .
Ġ -
en t
Ġj eung
Ġ H
i h
Ġt i
Ġs ar
o k
i a
u h
ay a
ar a
u d
an t
Ġd ina
ik eun
Ġ f
i g
e k
Ġ F
o ng
i on
Ġ in
Ġ i
i an
Ã© h
Ġ W
j eun
as a
e b
Ġ2 01
Ġk u
i p
t r
ar an
Ġ U
ang g
Ġ a
e c
ar i
Ġp ikeun
y a
e h
Ġ at
Ġ |
t er
eu r
Ġ E
o d
i j
o w
Ġ âĢ
ah a
ang k
e g
as i
am p
s i
h e
Ġ as
o p
Ġ O
u b
ad i
Ġi eu
Ġt eu
i b
Ã© k
Ġ y
Ġ 3
u g
r e
Ġk al
un d
ar t
am b
Ã© ta
eu s
Ġ "
aw a
ĠI n
er s
ij i
ĠA n
Ġan jeun
ang an
A N
l e
o h
em b
Ã© r
a an
ur ang
in o
Ġn a
Ġ o
a i
at an
r i
Ġp an
Ġsar eng
âĢ Ŀ
e w
is a
t i
al an
ah an
Ġm ah
Ã© s
Ġ 0
Ġ aya
Ġt ina
as ino
ap i
it i
Ġs al
Ġ v
Ġ 4
c h
Ġ al
e x
Ġ urang
Ġ /
Ġny a
Ġp er
al i
ar e
Ġ on
r a
Ġb isa
Ġ V
t Ã©
Ġsar ta
is t
ak eun
Ġ 5
ad a
.. .
at a
eu p
em p
ro id
Ġdi p
l o
u c
Ġj adi
Ġs ab
u an
in e
Ġo f
ĠA l
Ġ :
m a
Ġp ro
en d
u j
Ġh iji
Ġs ak
am an
Ġl at
Ġp ang
am a
e ta
es s
Ġ #
am i
Ġm ang
Ġm an
s a
Ġg eus
ar g
al a
Ġt Ã©h
Ġ Â
um b
Ġ Y
Ġm as
eu t
Ã© t
Ġb ak
tÃ© roid
Ġ og
on us
um p
i al
in t
an c
o c
s t
Ġt o
Ġm ak
Ġk ana
Ġan d
eu l
Ġat awa
ur ing
u a
in d
eu w
at ur
o ta
it a
Ġd eu
ung an
v e
Ġt he
on t
ac k
Ġp ar
Ġt a
und a
at ion
Ã© m
Ġd is
A R
u ar
Ġ 6
Ġk as
r up
aw an
l an
00 0
ik a
Ã© b
es t
Ġs a
i f
Ġ1 9
h ot
ĠIn d
ĠK asino
Ġ Ã©ta
l ow
an j
Ġd it
Ġp am
Ġk ar
Ã© d
j ob
Ġbak al
eu h
u al
2 0
Ġ 8
e en
Ġng al
ĠâĢ ľ
l ine
un t
Ġas tÃ©roid
a in
it u
Ġ ,
Ġ 7
ĠC h
Ġk eur
Ġp r
Ġh and
al l
is an
Ġ Ã
ar ta
ay an
ak u
Ġnya Ã©ta
or t
eng k
is i
Ġk ab
o v
Ġog Ã©
A T
Ġ or
Ġt er
Ġp as
Ã© ng
ĠâĢ ĵ
u y
ĠAn jeun
ĠA p
ak t
Ġt h
Ġ &
it as
Ã© l
Ġb ar
2 01
Ġk at
ak an
i w
Ġng ar
l ah
1 0
ar d
ing g
ĠA s
ĠS t
Ġd e
I N
ĠA m
Ġdeu i
ĠA r
âĢ ¦
Ġt eh
arg a
eu k
ĠP ro
un a
Ġ 9
ĠP r
l i
Ġsab ab
o ur
Ġs t
ih an
Ġmang rup
E R
er t
d i
Ġ ro
A L
Ġt ur
an s
os t
ĠS are
om p
Ġm a
k s
Ġ ...
an y
ĠN g
Ġk uring
or m
am un
ung g
Ġ ay
ĠD i
Ġk ap
at e
ĠM al
e j
Ġ ag
q u
uk an
ay s
at i
Ġd ep
ĠU n
y ar
e v
o y
1 9
c om
Ġng ag
Ġ1 0
ĠS unda
ig h
l y
Ġ Ċ
Ġ2 0
Ġl euw
ĠP er
Ġta un
Ġ2 00
ak s
og a
Ġk ac
Ġk ud
ur an
ik an
1 2
Ġs ap
) .
Ġ eta
it h
as t
ak Ã©
en c
im b
ag a
w a
Ġdi b
ul a
t ar
Ġ ad
Ġm in
e a
âĢ Ļ
A S
5 0
or d
p in
ak arta
Ġng ab
Ġb ig
us t
um aha
e y
e f
ap an
i eun
Ġ aw
os it
ec t
on s
Ġ >
ic e
ent eu
ow n
ĠN o
Ġ â
Ġt api
Ġdi l
angk a
and ung
aw as
Ġm ar
uh an
Ġleuw ih
Ġng aj
al ah
ð Ł
il l
Ġf or
on d
Ġ ab
i es
in an
eun a
ar aha
) ,
ob a
eb ut
a a
eu m
id e
âĢ ľ
Ġj al
Ġd an
ĠT he
Ġ is
i v
ul an
Ã©h na
ion al
Ġb onus
o u
Ġkud u
d uk
ung k
Ġd a
and a
ĠÃ ī
t h
Ġh ar
ing k
Ġ iti
angk ung
Ġti asa
ĠS ar
Ġlat ina
Ġb ag
ĠÂ »
Ġk ad
re e
Ġt een
ĠB ar
t ur
Ġ im
ter n
ur ah
ĠS h
Ġ ap
e e
E N
Ġ ac
aj a
1 1
p a
Ġin d
aj u
Ġh enteu
ay ang
a v
as h
G G
en er
a os
U N
ep i
as an
Ġ $
Ġb er
e ar
or a
Ġy Ã©n
ir up
j a
an i
Ġw a
Ġlat in
Ġng ah
ays ia
as ar
" :
Ġ ak
Ġk am
Ġdep osit
eun ang
Ġng ad
Ġm aran
C C
Ġs ex
Ġc um
it y
Ĥ ¬
ak a
ing an
Ġp isan
Ġb o
Ġ [
3 0
ĠK ab
A M
Ġon line
Ġt r
Ġb ad
ĠM ar
Ġ1 2
O N
" ,
Ġs i
U R
Ġp al
ang s
Ġs ah
a f
Ġk itu
angg o
ĠI eu
Ġc h
ak eup
ang un
Ù İ
Ġl angkung
en s
at u
as il
Ġmangrup a
emp at
1 5
Ġs ad
ĠB onus
i o
ĠJ alan
er ing
od e
am at
ob il
Ġs p
o Ã©
Ġm il
m an
om e
Ġng an
Ġb ab
Ġb low
ĠM a
or e
uk eun
lo ad
Ġb oga
ĠT r
Ġb al
Ġk en
eun aan
ĠS al
AN G
ant en
eng an
or n
igh t
uh ur
am e
ak e
ang t
ag e
ĠInd on
Ã ¨
1 8
ol a
Ġng a
Ġsabab araha
Ġb i
Ġhand job
d a
er i
Ġ =
uk a
Ġw akt
1 4
an ana
ĠM an
Ġk asino
Ġb asa
Ġ1 8
own load
.. ..
Ã©m b
u w
Ġ201 7
Ġ201 9
l ot
k an
g r
Ġl amun
ĠO n
Ġs at
ĠMal aysia
Ġn ag
Ġ '
ĠT er
ĠA c
1 6
ob s
Ġk ah
A H
er v
_ _
Ġ um
1 3
on e
us aha
Ġjal ma
Ġng eunaan
Ġkal awan
Ġm en
Ġkal uar
Ġk om
Ġt an
ĠP l
Ġ201 8
A s
ir a
Ġm un
i z
Ġ ul
ĠA d
ĠK ar
emb er
n ya
Ġn epi
it s
ĠI s
ac a
Ġm eunang
Ġh al
Ġp at
im p
Ġ ar
Ġm od
ig n
ic s
ĠM as
ro s
2 5
in i
Ġs ag
A C
Ġr es
Ġ am
ro m
1 7
h a
ol l
an k
ar keun
Ġl oba
f f
Ġd un
ĠP as
h er
il a
l ik
us na
Ġc ar
ak i
Ø §
ol og
Ġna on
Ġg ed
Ġ un
i ew
ĠB l
ir i
Ġ .
2 2
r u
ĠK u
d o
Ġl al
ĠP ar
Ġsal ah
O R
Ġin ter
m ent
t o
Ġay euna
p r
I S
Ġ up
Ġy ang
Ã© w
us an
Ġ Z
A n
o al
4 0
p ort
A G
Ġ X
ĠA g
Ġd u
ĠS ab
aj ar
Ã©n t
Ġb a
uc k
on a
I n
ag u
uk ur
ĠK al
in k
im a
ĠSare es
Ġm ana
ud ak
ĠD ina
c t
Ġw ith
Ġ1 5
es ia
o ut
ung t
in al
om b
aj ump
im it
Ġd ik
Ġdi g
ol d
Ġm at
Ġk ul
eu b
r at
E S
i x
r ac
Ġd ua
Ġp ara
uk u
ut er
ir l
Ã© j
Ġng aw
j ang
ok o
el l
amp u
at ang
r y
Ġ x
Ġan t
Ġl a
Ġdi j
an api
o e
el as
s hot
us i
Ġdi m
Ã© p
Ġd ag
N g
im al
as s
t or
ag i
b ah
ap a
k a
ong an
Ġat anapi
Ġk ami
Ġs ur
Ġl uhur
ĠSare e
ant os
Ġs h
id a
ur u
6 0
ĠK ota
Ġdi c
ĠS a
Ġb y
ro p
Ã© na
ĠB andung
c ap
ar ang
Ġb ari
Ġm er
ic al
Ġpro duk
m b
Ġan yar
Ġl i
Ù Ħ
ta i
on om
o f
ug e
Ġj alan
Ġ1 4
al am
ĠJ akarta
ĠF ree
Ġdi r
Ġ ut
up a
um i
Ġp lan
it e
n y
m i
Ã ¡
Ã «
a z
ay u
. âĢĿ
o ok
A K
ĠD es
f orm
O S
Ġc ara
Ġ1 1
ap tar
Ġt ul
Ġcum shot
. [
2 4
c e
ir an
hot os
Ġp ag
Ã© a
Ġ1 7
Ġ2 4
r ang
Ġan ak
is h
eut ik
oc k
ĠM in
Ġsal aku
aya an
Ġt empat
a il
ĠOn line
Ġ ob
umb er
3 5
ul i
ung a
ĠA b
Ġn i
Ġmak eup
an u
ĠP an
r il
A B
Ġ op
at s
ut an
Ġ Q
ajump ers
Ġh irup
Ġ1 6
en a
ide o
ĠS p
at ing
amb ar
Ġk et
Ġp l
Ġlatin as
Ġh uge
im e
ĠMa x
Ġplan Ã©t
Ġt at
Ġk on
us a
is tr
Ġb ah
C T
Ġog e
ed ah
Ġs ok
Ġmin angka
Ġsah iji
Ġ201 6
cap ada
er o
- -
Ġâ Ĥ¬
ul t
Ġn o
ang keun
et an
ud i
Ġmar capada
il u
2 3
Ġn Ã©b
i e
Ġs ed
I T
eng ah
Ġ201 3
A D
U S
Ġ1 3
ic k
ĠnÃ©b ula
it an
ĠB r
Ġs an
ĠL at
ĠA y
Ã© an
Ġk aw
er y
Ġ ah
Ġd es
s p
o od
us e
ad e
at or
rac ial
2 8
tr a
ĠÂ ·
ungg al
h ar
2 7
jeun na
ali w
l a
ĠP ang
ĠS il
at eg
angs ung
ac ara
ĠS el
at keun
ul inan
Ġs or
ak na
Ġny ieun
Ġp il
Ã©h anana
Ġk umaha
E L
Ã©b as
Ġm us
up at
H ome
ung si
Ġanjeun na
ab r
u e
ar na
Ġwakt u
2 6
h i
ĠIndon esia
ĠIn tern
Ġkal ayan
Ġ ur
ent uk
u ang
umb u
Ġ +
Ġas s
Ġblow job
Ġab di
d e
4 5
m in
t on
ur a
Ġ3 0
us tr
2 1
9 9
ĠA t
un an
Ġ0 8
2 00
ation al
ĠA ri
el s
Ġs up
Ġb l
uk ang
ig a
er ti
8 0
ĠC o
in c
I R
eng keun
ĠS ur
k er
uk up
Ġinter racial
Ġh ot
at er
ent er
Ġbad ag
euw euh
ex t
Ġm al
or y
Ġl ain
angg eus
eur eun
Ġdun ya
Ġdis ebut
A l
Ġn al
As tÃ©roid
Ġs tr
uc t
or i
al s
Ġm ag
ĠJ awa
Ġg irl
Ġp us
k i
usaha an
Ġs ub
ir t
Ġ201 5
Ġ aran
Ġs Ã©j
es in
e et
ĠT h
ob er
y p
Ġ euweuh
ĠB er
Ġs am
Ġ201 2
k eut
Ġng aran
ï ¿
Ġnag ara
Ġ art
Ġmaran Ã©hanana
ï¿ ½
Ġb u
ĠT api
Ġb Ã©bas
un j
ir im
a ir
v er
c o
b ar
ra f
Ġp ol
Ä ±
pin s
um na
ĠsÃ©j Ã©n
ĠL ampu
Ġp orn
Ġ201 4
E D
k u
ak at
im iti
ing ali
ĠS ak
ĠS M
Ġd o
Ġsag ala
l am
ro l
, âĢĿ
ĠK a
angg ih
ĠC ar
ah na
ing ering
A Y
Ġpan on
b it
l and
Ð °
Ġhand ap
5 5
at es
ĠN y
Ã© f
eng g
ah keun
r es
angg a
Ã© g
ĠAp ril
2 9
ĠM akeup
Ġp ad
ag s
eh na
n is
Ġp ul
ec ap
Ġp ak
uj ukan
Ġc om
ac h
p ar
Ġm oal
Ġm urah
Ġ Ù
Ã ´
3 7
ana j
Ġman Ã©hna
ĠN ew
in ta
Ġn ar
Ã Ń
Ġka os
et t
Ġm ib
ul is
Ġf ingering
or k
Ġ us
en y
Ġm obil
ab le
Ġc ukup
in s
ĠAl lah
ol lo
al na
as up
I L
um lah
as e
Ġny ang
ur n
ar is
un akeun
iw ari
! !
Ġ unt
at na
ĠAp ollo
ĠA ng
imit ian
ant i
ĠE x
Ġp in
Ġpang al
Ġb uk
a u
Ġl ap
m u
eul a
Ġsor angan
erv ice
Ġka ulinan
it us
c i
Ġ20 20
3 3
m p
ah ar
ab i
il ih
Ġdip akÃ©
Ġf rom
angk an
am el
Ġ id
b u
er n
ed ia
Ġs aw
Ġr upa
emp o
Ġ2 1
ul l
s h
as ional
Ġb r
Ġ z
Ġk er
Ġs amp
Ġj am
Ġ *
ab ab
Ġnya eta
aliw atan
Ġng am
Ġhandjob s
Ġk ol
d r
Ġk awas
Ġaran jeunna
s y
and ar
Ã©n s
Ġh art
Ġ en
Ġt et
Ġ ex
Ġp ik
Ġ ik
us us
Ġb ulan
O L
olog i
ĠJ un
ah o
Ġ angg
ac e
em a
ĠR es
Ġdeu keut
amb ahan
? âĢĿ
Ġt el
Ġp eng
9 0
Ġc an
Ġ2 5
tr ess
Ġj anten
Ġc o
Ġ ðŁ
Ġ201 1
Ġd atang
3 6
ros ir
ĠE n
Ġ> >
Ġk edah
Ġteen s
Ġk ur
Ġd ari
an an
E M
um ah
Ã©d it
Ġs lot
ĠS up
h one
Ġk anggo
ĠK aos
Ġp a
7 0
Ġm et
E T
Ġt it
int en
Ġ Ø
Ġm ut
Ġk omp
N a
â Ĩ
aa aa
ĠAn d
Ġ e
Ġs er
Ġn ak
Ġl ok
ro w
Ġp ent
D ina
e al
Ġh ayang
p l
Ġro bah
Ġng ora
c l
Ġt angg
Ġg ad
m as
ĠKab upat
Ġc ai
ĠT i
Ġ2 2
ĠB ah
Ġm imiti
P ro
i y
Ġ2 3
e ad
ĠS er
iv ers
d it
Ã ī
Ġ unggal
anc ang
A P
8 8
Ġk ak
es b
Ð ¾
ec h
ĠC l
anj ang
l d
p er
ong keun
as ana
Ġsar ee
or s
o j
Ġ1 00
d uct
ĠN u
Ġp ut
ĠA S
Ġc l
Ġb et
Ã©d a
ĠO r
Ġ ukur
C h
k t
il an
en i
anc e
ĠC enter
Ġdil do
" .
ang sa
ĠM P
Ġs ing
A ri
Ġk ota
R ujukan
Ġ em
Ġs as
Ġ ol
R E
â Ĥ¬
ep t
ĠAr t
ĠN a
ĠS uk
Ġl eung
eub eul
anaj an
ot o
ĠS i
Ġpal ing
Ġp ant
ĠD r
ĠK ur
ak ukeun
ĠÂ £
Ġant ara
o ol
ek s
7 5
ĠBar at
amp ang
6 5
Ġc he
Ġh arga
or an
ĠJ oh
emb ang
ĠS y
Ġmas ih
er es
Ġk el
Ġd in
Ġsed engkeun
A r
ĠAm or
ĠU S
T he
it ud
' s
U M
ect ion
UN G
um an
Ġdag iti
em ent
es e
w ar
Ġp ay
Ġs unda
Ġs acara
Ġ el
ĠD a
9 5
ik asi
j u
Ġ ari
b a
R I
ĠIntern ational
l u
ĠT eu
ub ungan
Ġc oc
ĠAl l
O T
O M
ĠS em
ar y
r am
at o
Ġp ada
un ung
__ __
ĠK am
an ya
u f
U T
ic h
3 4
ef ir
rat is
ĠMas ker
Ġ Ð
Ġim ah
n o
ĠP ol
Ġunt uk
Ġm ay
Ġt im
Ġdi eu
as ota
Ġat uh
ar k
ĠK efir
er a
0 5
Ã©n tr
ap at
7 7
en tai
f r
ing s
Ġ eu
0 4
Ġsak ab
3 8
aw Ã©
ur e
Ġh asil
Ġsak umna
m at
Ġpar antos
ĠB low
at ed
in y
Ġnal ika
ĠB i
Ġb eur
Ġ it
r ek
ĠT im
ĠSar asota
Ù Ĳ
! âĢĿ
A d
en ah
Ġc euk
Ġor al
Ġk it
ðŁ Ĵ
ĠM obil
ĠS w
Ġt angt
Ġpar ajumpers
", "
at et
c r
Ġbag Ã©an
on an
U L
esb ian
ab a
Ġng aliwatan
engk on
Ġj akarta
Ġdi d
ul ar
ant aran
Ġk ons
Ġw h
P os
Ġb udak
Ġk h
ay at
ist em
Ġp oÃ©
0 8
Ġaw ak
ĠH ot
ĠU p
ew engkon
Ġc on
Ġw e
Ġs umber
Ġw ar
Ġs ej
Ġk aj
Ġsad aya
ĠP al
S M
am Ã©n
ĠS um
Ġt ukang
Ġgirl s
Ġt ar
il e
Ġc ont
ĠB al
Ġpan y
Ġk ecap
aw ang
Ġob j
p oÃ©
ĠP lan
Ġ ot
Ġv ideo
Ġma Ã©n
ev iew
Ġb aju
Ġ u
Ġk i
Ġbag ian
ay ana
o id
G T
ĠM at
Ġ ang
Ġal us
Ġmag n
D i
ik el
Ġj a
Ġs uck
Ġb as
Ġdi ri
gr am
ĠA w
ï ¸
Ġ5 0
ar ah
Ġbo obs
ï¸ ı
Ġdi w
ĠF or
3 9
Ġp en
Ġdip ik
ĠP ikeun
Ġal at
ĠSil k
Ġh ad
I K
Ġka asup
Ġt its
g an
ac am
r ist
Ġb el
ingg i
am ana
Ã©mb er
ĠTr ans
Ġs aj
T ut
âĢ¦ âĢ¦
Ġp m
Ġd ata
Ã©r Ã©
4 4
Ġd ay
io us
and ak
ĠK uring
, "
Ġka ayaan
Ġdi h
ug i
ti v
r an
D aptar
ĠâĢ ¢
Ġw eb
ĠE ur
ĠT aman
ðŁĴ µ
Ġp os
im ah
ĠD I
h y
Ġ il
ĠP am
Ġl esbian
ĠÃī ks
Ġbal ik
Ġm ant
Ã©d ia
Ð µ
Ġd ownload
Ġter us
Ġsar ua
Ġm ot
Ġt ah
ag er
ep ang
Ġlal aki
ĠP et
Ġb Ã©da
Ã ĥ
* *
ut h
k ake
ingk at
ĠðŁ ĳ
l es
Ġd engan
Ġh id
Ġs angkan
aw ab
Ġr Ã©k
Ġpr im
ep on
Ġman usa
ĠI ng
Ġpent ing
it al
U n
ĠW ith
Ġsar e
ost ed
Ġpanon poÃ©
Ġs el
Ġngag unakeun
Ġpam akÃ©
Ù Ĩ
l or
e an
Ġo ut
Ġwa e
ĠB ig
0 3
IN G
l et
en ang
aj eng
Ġj asa
I D
p ro
os e
ic a
of t
is m
Ã ¢
Ã©n d
Ġl eutik
ab aya
Ġb atur
ĠG o
, ,
k ah
ĠA M
lik asi
er ang
ĠP a
Ġm ul
S t
ģ ï¸ı
ĠðŁĳ ģï¸ı
e i
8 5
o o
ĠP art
ur i
n Ã©
ĠP hotos
ĠPl ay
atur e
? ?
K awas
Ġs em
Ġt ilu
Ã©s ia
o und
Ġli ang
uh u
ĠT a
Ġb oh
Ġs anggeus
Ġ aj
Ġbo ot
Ġg e
U K
Ġj u
al e
ac an
ĠB asa
as ion
Ġr ek
) )
is nis
ti f
Ġg Ã©
Ġteu ing
I M
e ed
Ġb ul
201 4
Ġp ap
Ġb e
Ġged Ã©na
ik i
à ¤
tr onom
ĠU s
ĠM us
ĠU t
Ġl eb
c a
Ġk Ã©n
engk ep
K aos
Ġobj Ã©k
w ay
r ak
ĠBlow job
Ġ201 0
ĠN ov
Ù Ĵ
Ġl uar
ingg al
Ġpas ar
irup an
ik at
uj uan
Ġl um
0 9
ĠUn ion
p li
Ġpan jang
ung keun
Ġt ek
Ġ2 6
Ġkac atet
ĠE l
v el
Ġb ur
ad ian
Ġh entai
Ġp el
h an
ĠKabupat Ã©n
Ġng anj
Ġd um
aj an
ip s
0 6
Ã©f Ã©r
n e
Ġkab entuk
r ap
ĠC ina
Ġy en
er an
Ġkal i
d ing
en si
3 2
Ġw ewengkon
ĠK as
Ġor bit
re v
Ġp es
uh un
Ġtangg al
ĠD ownload
Ġl agu
ent ukan
ĠM urah
Ġmut l
ĠP ak
n ess
Ġgad uh
Ġas ian
Tut umbu
Ġcumshot s
ĠPlan et
ud a
Ġb ut
t ion
Ġtet ep
Ġj ob
ĠP ut
B eb
eu Ã«
ong k
Ġbar is
Ġboot y
ant or
Ġmas alah
Ġ2 8
Ġm el
Ù ħ
ĠA ya
Ġmaran Ã©hna
Ġ uk
Ã ¶
eu g
anu ari
ter oid
Ġ 01
itud o
is itas
Ġnganj rek
Ġp un
ĠK ap
h at
6 6
ĠA k
o us
Ġl angsung
Ġdij ieun
ĠK ang
bar u
i um
Ġbuk kake
Ġs il
ĠâĢ ĺ
Ġs ol
ĠAs tronom
al itas
Ã©ns ina
I C
Ġs ang
Ñ ģ
S h
m ad
ĠA ir
ĠW il
ĠM et
ĠS tr
Ġr Ã©fÃ©r
ĠMin or
Ġtan pa
Ġg ambar
Ġs itus
ĠIndon Ã©sia
kt ober
ur na
0 7
ed a
Ġas teroid
Ġmak Ã©
Ġb eubeul
ĠC om
Ġbeubeul ahan
ad u
ord ial
Ð ¸
4 8
Ġs um
ĠAstronom ical
Ġb ahan
Ġprim ordial
ĠIs lam
Ġmagn itudo
Ġth at
Ã©ntr isitas
ĠT el
h un
y r
al t
Ġblowjob s
is s
ĠrÃ©fÃ©r Ã©nsina
ĠB el
Ġmutl akna
is imal
Beb entukan
ĠÃīks Ã©ntrisitas
ĠplanÃ©t isimal
at if
Ġj ero
0 2
er e
ud aya
ut keun
ir e
er ah
Ġum um
en is
T A
Ġ2 7
ar ian
ru ari
al ik
Ġl emb
x x
4 7
al on
amp ung
Ġti p
oy ong
Ġj ack
l im
ĠD ep
y an
our ce
ama Ã©n
ĠC ont
ĠMP O
angg ihan
ĠP eng
Ġb at
ðŁ İ
3 1
Ġp op
Ġk e
Ġul ah
abr ik
Ġ @
Ġbar ang
eu eur
Ġin tern
P r
ĠK om
Ñ Ĥ
ap keun
um a
eu d
ĠS u
Ġp ost
. "
Ġsap erti
ĠH arga
ea ut
s e
Ġs im
Ġp end
or ies
Ġm eng
4 9
og or
g e
ĠB u
Ġdu it
G A
ĠR ep
Ġt ab
Ġj ar
P S
ðŁİ ģ
Ġm Ã©n
ag iti
ingg u
Ġtr ans
o on
ĠS et
Ġn aw
ad ah
Ġb ub
Â ł
Ġg ampang
Ġp ok
âĢ ĥ
âĨ ĳ
ĠC on
er c
ĠS an
ug h
Ġs et
ĠB o
ĠJ uli
ĠD ec
angk al
aw at
ĠA N
ĠM en
ĠB unga
ok ot
c k
i ve
Ġl ian
Ġmang sa
ĠG r
ĠB at
Ġkac a
ĠI N
b an
Ġm em
ar s
form asi
ar akat
Ġwakt os
ĠD o
asa an
Ã ¼
ug a
ear ch
ĠI m
id ang
Ġ Ã©
ĠO ktober
Ġs u
e at
ĠS am
ĠB ag
ĠT op
ĠJ anuari
er l
gr is
ĠPro duk
Ġwa Ã©
il ang
T C
eg a
4 6
angk at
uk s
is asi
Ä ģ
ĠI t
al ia
us h
ĠR o
Ø§ ÙĦ
or ld
D A
al u
Ġf re
aks an
il ah
Ġy ou
er m
ĠM od
Ġm p
In d
Ġal am
ar ita
Ñ Ģ
ent ar
Ġn ingali
1 00
Ġf ree
Ġm ap
us ti
Ġmas arakat
angun an
ĠK er
ay ah
ĠH al
rup a
ĠK A
Ġj obs
ĠInd ian
em an
Ġbi asa
Ã©n si
Ġp ers
ĠU rang
ept ember
euk i
ar Ã©nt
ert os
Ġj umlah
Ã©k s
Ġp angg
Ġ2 9
eb on
og le
em en
Ġn aha
Ġ are
ĠUn ivers
re en
Ġk or
es ep
Ġm ik
ar ik
n ologi
ĠS pins
Ġk iwari
Ġk ag
og raf
aj aran
Ġsak umaha
Ġk ang
ĠM ang
Ġj ual
Ã ª
ĠL amun
ad ang
Ġmangrup akeun
Ġs eb
Ġn as
t s
er b
Ġin i
amb ah
Ġk ont
Ġsare es
ĠJ am
Ġt os
w al
Ġc ap
ĠR p
ĠK ul
Ù Ĭ
ust us
ĠK at
p ang
Ġt ut
on j
Ã©r ika
Ġkul aw
uk um
enc e
ĠJ eung
Ġs istem
Ġmak e
at is
Ġk r
Ġk ungsi
ĠT een
adi akeun
ĠF ac
ĠD Ã©s
Ġny an
b ating
Ġtangt u
an n
ĠD is
Ġb ener
Ġf il
I I
. ,
Ġ ya
ĠP at
Ġtul uy
ĠMar et
w are
Ġh usus
iw at
Ġth ro
ig inal
ĠPr int
Ġ ing
un c
ĠLat ina
Ġs aha
Ġr asa
Ġku alitas
is ata
Ġ Ã©l
m m
Ġsej en
id ul
uth or
f o
Ġpro s
es i
ok a
Ġres ep
d er
à ¸
Ġb eb
Ġut ama
ĠâĢ Ķ
ol ah
ag es
s u
ungk in
Ġg ancang
Ġn Ã©
it ik
ab umi
z e
ĠT ur
Ã §
Ġm i
Ġ usaha
Ġsak ola
ĠL ed
Ġmib anda
Ġs ek
ing pin
Ġ qu
aj i
Ġh ack
7 8
r ah
am in
ul o
Ġas up
Ġny ebut
es an
Ġi p
l ang
ur keun
Ġt um
E x
ĠJoh or
ĠIng gris
atur an
ĠM p
g a
angg iri
Ġof f
Ġpangal usna
l at
ĠF r
ett e
ant ung
Ġb uku
Ġja uh
ĠM un
P osted
ĠP ost
ĠAm Ã©rika
Ġm esin
Ð º
Ġâ Ĩ
Ġmat ak
Ġt ambahan
ĠS ervice
Ġ )
ĠW al
Ġpus sy
er g
Ã©w Ã©
Ġm ungg
Ø ±
.... ....
5 6
ĠS ang
ib ut
ajar ah
ent ang
Ġp emb
Ġd inten
Ġik lan
rev ious
at aan
s ur
Ġn atur
Ġba Ã©
ĠP M
w an
Ġk l
os ial
ay o
Ġ amp
Ġl antaran
j i
ĠG ar
ĠC ash
aj aan
aksan akeun
à ®
ung na
u is
Ġ ub
ag ara
I P
Ġkah irupan
âĢĿ ,
en an
am il
Ġd r
Ġkit una
er ita
Ġcar ita
Ġ ada
ĠP us
ĠM ad
Ù ı
ĠB ali
Ġtur n
Ġj aman
Ġs y
Ġnu de
Ġl engkep
S al
Ġs eueur
Ġp amaÃ©n
ĠS ing
ĠT an
ens ion
os a
ak it
Ġ0 7
Ġr ep
Ġb re
ay ar
ĠF il
and i
Ġm anggihan
Ġpro f
ustr i
ind ing
as ta
ĠJ an
ong s
ĠW ik
on y
d ul
Ġl o
k et
Ġny aho
Ġp hotos
b o
ĠAll oh
ĠAs s
ĠN O
Ġ und
eut ing
Ġpan as
Ġman ehna
Ġsam Ã©m
Ġh eula
Ġb od
Ġsap ertos
ed it
Ġg et
os an
G C
m o
y ak
Ġ4 0
Ġr e
Ġd ar
ĠP T
Ġch ip
Ġac ara
p ing
ĠJ epang
h o
ĠJun i
ĠL a
Ġr ada
n i
at os
Ġngal akukeun
Ġs in
Ġsad ayana
ĠT V
d ay
it t
Ġg l
ĠK ami
ul u
us abab
ĠA h
ĠS eptember
ĠP in
ĠAg ustus
Ð ½
S ource
ab u
Ġs ump
Ġj el
Ġnu hun
Ġ200 9
I A
un ya
b l
á ĥ
Ġh at
ma il
Ã ³
Ġs ora
Ġl ila
E P
Â »
par ajumpers
Ġ ir
ot al
ut e
am aha
uar y
and ing
st an
Ġb euki
Ġup ami
Ġb andung
eul i
om ong
om er
umb ai
Ġmangrup ikeun
Ġng anggo
ĠU m
es us
Ġs ir
ĠJ ual
ĠS lot
Ġ19 9
Ġp art
om en
ĠSuk abumi
e o
ayan an
Ġb isnis
ĠMobil e
u at
ag an
Ġ {
ĠÃī ta
Ġbar udak
ĠS at
Ġm ur
it ur
Ġt oko
O K
Ġmil ih
Ġhar eup
l ing
aw i
ab il
ĠâĢ ¦
n ik
ĠJ l
angg ap
ĠInd ia
ĠI k
is wa
Ġhar ita
ĠB uk
ĠDes ign
y Ã©k
Ġp et
ĠP el
ing al
Ġper t
ĠG al
-- --
Ġm ad
Ġh oyong
Ġkar Ã©ta
Ġw al
os i
ĠP il
Ġper c
er oll
ĠC omp
Ġg el
ow er
ĠâĢ İ
Ġb ang
' ,
d im
Ġd alam
r al
A W
ĠAn t
Ġfre eroll
Ġt in
m akeup
Ġt u
ĠK on
âĢ ĵ
Ġpil ihan
Ã©k a
ĠJ asa
m er
Ġal atan
Ġp ot
5 7
asil keun
Ġleung eun
EN G
201 9
ig ana
AN D
ond ok
Ġs ep
Ġh a
Ġr el
ĠT our
Ġti ang
Ä °
Ġsex y
ut up
P ang
Ġl og
ograf i
Ã Ĥ
eb ook
ĠO ff
ĠG ame
Ġi b
Ġm alah
Ġd Ã©
A A
RE E
Ġkad agiti
Ġg ar
Ġmak s
aw al
al ungt
Ġt ak
Ġ !
R O
Ġs us
Ġpro gram
ir ang
im um
ĠâĨ Ĵ
Ġt al
ad ikeun
Ġm is
Ġmungg aran
ĠGo ogle
Ġc a
Ġ200 8
ĠS ub
Ġbi asana
ĠK acam
ĠM ot
aw ak
Ġr ing
E ur
Ġg ag
yp e
Ġdum asar
N u
Ù Ī
Ġm ind
Ġw an
K U
Ġmib oga
ĠkÃ©n Ã©h
c m
Ġv ers
Ġpas ti
Ġs pins
6 8
5 8
A J
Ġhart ina
Ġkac ida
Ġm Ã©
ĠB ogor
am ah
Ġp oh
Ġan al
ed ang
ĠK ad
aw e
Ġturn amÃ©n
il i
eun t
ac tur
r on
us ia
Ġken eh
Ġt e
ny an
ion s
ant ara
ĠC asino
l in
p o
ar asi
Ġs ip
Ġn amp
ĠPas anggiri
Ġsan Ã©s
ĠT ra
uw uh
art i
ĠP en
is e
ĠB aju
Ġche ats
u z
ic t
ro pa
ĠP ant
Ġc omp
D ip
ĠAn ak
N o
ĠCh ina
m al
ej a
Ġpr ib
am es
5 9
Ġki eu
Ġs anajan
as in
as ik
el a
ri v
Ġan tar
ir na
Ġs c
Ġt inggi
in as
ang i
Ġny andak
amp ak
4 2
ation s
Ġn angt
Ġ asa
ĠO ct
anc is
o ung
Ġs isi
Ġm aca
ĠG usti
Ġkulaw arga
ud io
ĠF REE
Ġ end
T T
ĠK h
ĠB an
us keun
Ġmod els
ta in
Ġn ur
R p
eg an
Ġdi ajar
ĠD ip
or g
Ġs hot
j o
or o
Ġs k
Ġm Ã©rÃ©
Ġn ew
Ġeu si
4 3
Ġs e
Ġan Ã©
ub l
ĠM esin
amb a
Ġsump ing
ug as
Ã©t an
ĠT ah
4 1
Ġ 00
ĠJ aya
Ġ ?
ĠN eg
6 9
Ġkol ot
Ġk art
irim an
ĠS k
am is
aj ah
ĠTim ur
ont al
unj uk
ĠD ir
ot ton
Ġ0 9
ĠP i
l us
ĠT oko
ek si
Ġkap anggih
aaaa aaaa
ĠM ay
onom i
g al
ac t
Ġsakab Ã©h
ĠS AR
ol or
Ġ0 3
ĠM ah
et s
U P
Ġt id
al ma
Ġde ep
ĠC oll
ec k
Ġng ur
Ġkar ya
ĠB ab
ak ar
ĠS D
es ar
Ġper k
t u
ĠK i
S I
Ã© si
ĠAnjeun na
ĠKu ala
Ġp em
ir ing
Ġ ent
Ġkaj adian
ag ar
Ġl ah
i i
ak si
Ġuk uran
Ġter as
Ġs w
Ġb Ã©
Ġap likasi
ar engan
ed ding
Ã©b ruari
ay akeun
ĠC ir
ast s
uf actur
ip t
y e
Ġn ot
Ġt op
ĠB lo
Ġb unga
at h
dim ension
n u
en ing
7 9
Ã´ n
ĠD e
ĠTrans port
ari os
Ġn ap
Ġg a
Ù ĩ
Ġn ik
ĠM ak
Ġdim ana
Ġkah iji
O P
ol es
ad o
ĠDÃ©s Ã©mber
E K
ĠBl ack
ingk ungan
Ġin formasi
y s
E C
Ġk o
ud ah
Ġay ana
t ikeun
ĠT ar
ingg a
Ġsa eutik
K umaha
ĠC an
el an
Ġtr ad
Ġh as
uj eng
Ġter ang
ĠAc tress
Ġ ist
á ®
Ã©s a
Ġaw Ã©wÃ©
K al
ĠWik ip
Ã©r ah
Ġbah asa
ew e
ĠNo Source
Ġb udaya
Ġbad e
ĠH ar
as ang
id s
ĠW ager
ov er
er asi
Ġth is
Ġr ar
og rap
Ġd asar
Ġpangal aman
Ġk urang
st em
S ak
T i
Ġkac am
j alan
ĠS ol
p on
ĠS ad
Ġbl og
Ġl em
Ġc r
Ġ0 2
Ġd ok
if e
awan oh
Ġw il
Ġd ugi
I eu
et er
ĠSh op
201 5
Ġr ah
Ġba e
ĠL ED
N y
ag o
ĠO ut
Ġk ode
) ;
m s
Ġy our
ĠH igh
Ġl an
f i
ĠR aya
ar esep
Ġthro at
ĠU l
Ġg ratis
Ġp abrik
Ð »
imp en
H arga
ik o
Ġk any
ĠAn u
Ġlum angsung
Ġjel ema
ek a
s ite
ungk ul
Ġg or
n ah
h am
t e
Ġm awa
Ġnyebut keun
Ġn e
Ġtat to
ĠM aj
Ġmod el
Ġs osial
og aan
K u
ĠBah asa
Ġt ingkat
Ġny adiakeun
Ġpan ag
Ġor gan
201 8
ug u
s tr
iti es
Ã©r a
Ġ Ø§ÙĦ
a x
ĠC at
N ext
Ġt ungt
ĠM el
al ang
Ġ et
Ġ3 1
Ġk m
o ot
Ġmant uan
ĠK or
ang erang
aks es
al in
Å Ł
Ġt ujuan
Ġt aya
om i
Ġh ubungan
k o
Ġn ang
Ġw arna
ĠE ng
ĠL agu
er d
Ġr eview
T ags
ĠNov ember
r is
Ġ itu
od a
er al
ul ung
c ar
Ġlian na
im an
ĠB ro
' '
b i
ĠB ur
Ġw as
S el
Ġl ang
Ġp ih
Ġm end
ĠA fr
ud ul
AN T
ta ct
Ġop at
Ġas alna
av a
ir st
ĠS m
Ġpin uh
Ġangg ota
ad uhan
ĠN ya
5 4
Ġku at
aku atan
istr ik
eu j
ir u
Ġs qu
eb r
Ġmas tur
ĠG unung
O ut
Ġn ep
ĠU k
S a
ĠI S
Ù ĳ
Ġhad Ã©
Ġ6 0
Ġk agi
Ġbre asts
ĠB ad
Ġdiw angun
f a
emp etan
ĠNew s
om an
Ġngar asa
uj i
un Ã©
b r
Ġc enah
ĠC ode
ĠW eb
oh an
Ġm ed
ĠG rosir
z a
O D
w i
Ġk in
ĠN abi
si b
ĠQ u
ĠS un
ĠK el
Ġh e
Ġf ac
b er
g er
n ing
Ġb umi
uk na
oft ware
ĠR aja
Ġj ang
Î ±
amb ung
ab an
P revious
ĠP os
Ġy ak
Ġb atu
ĠS T
arÃ©nt ah
hot o
c c
Ġp u
6 7
Ġr umah
Ġt ra
8 9
uc i
Ġb an
Ġng andung
M al
Ġnatur als
at us
aman an
Ġb eung
k al
s um
it ar
Ġk eu
____ ____
Ġk elas
ĠB est
n d
Ġged Ã©
ĠM uh
Ġkad ua
Ġged e
Ġsal ila
ĠR M
rop Ã©a
ut o
ĠS ek
ĠM ed
k ar
ĠO p
ĠK ec
ĠV ideo
Ġnu ju
pli er
Ġdic ks
Ġh ak
Ġin t
Ġdin ya
ec ial
ĠAr ab
ĠU K
Ġngab ogaan
ur at
ĠB ul
Ġl ima
t op
ent al
Ġg r
qu e
Ġut amana
Ġn emb
Ġay am
Ġdep uis
B l
un un
et ik
ĠK an
L E
Ġs ik
Ġt ap
Ġ api
ĠK un
ment s
S p
l er
u i
pr ess
Ġ3 5
Ġmobil e
ĠD j
Ġngag aduhan
id angkeun
B onus
M akeup
ĠD ar
ĠCh ip
s us
Ġ0 6
m ar
ah aya
ul uy
tr on
âĢ¦ .
Ġ aman
Ġr ec
ĠM ic
Ġg al
ĠNg an
Ġkas empetan
ang or
Ġt un
ag g
ump ur
Ġ q
": "
Ġum ur
ĠP end
EN T
Ġ Ã©k
P R
ĠAs ia
Ġleung it
Ġol eh
ĠC ard
Ġb angsa
ĠT o
ĠUn t
Ġr aja
U D
U AL
ĠSur abaya
ĠY ou
Ġ= >
b y
ĠSel atan
Ġk an
Ġsan Ã©
Ġl aju
D ownload
arg i
Ġf orm
Ġg ener
Ġman eh
d us
Ġtel epon
ĠP h
ĠB e
el ah
ug uh
ĠR em
Ġpop ul
ĠR ah
ic ing
Ġs amb
ĠH D
engk u
Ġj ur
Ġs ign
Ġf r
Ġp euting
ĠA T
Ġid i
ĠH ack
Ġpat ali
v is
Ġprib adi
le y
Ġc ock
Ġpan alungt
eul is
r aga
Ġt engah
Ġc inta
uan ana
out h
Ġmastur bating
ĠM ix
ĠSem alt
Ġ angk
p h
Ġ200 7
Ġac an
Ġng omong
ĠG ratis
! "
aj ak
ĠAl amat
M eta
il ai
y ah
ab at
ro up
ĠG u
ĠTer baru
ĠWith dr
euÃ« ng
ĠP ur
h ir
Ġper lu
Ġmas ihan
ĠM ag
on o
od i
it er
Ġd ahar
ĠA L
N A
Ġny ata
amb ang
ul keun
Ġm o
Ġh ukum
ĠA uthor
ep an
Ġs iga
Ġ0 4
Ġg uru
Na on
ĠOct ober
5 2
ak et
Ġm eureun
Ġny ar
Ġdim imitian
Ġp o
ĠMan ufactur
at ch
J ual
K a
Ġbub uk
Ġg er
Ġind ustri
Ġg rosir
ĠS c
âĢ Ķ
A t
ob ah
ĠD istr
er as
ĠC ity
Ġproduk si
Ġpros Ã©s
Ġkom un
ĠWithdr awal
K ab
ĠSab ab
ĠPus at
and ang
ĠM B
A ya
em i
af on
Ġsqu irt
p ot
Ġl Ã©
ĠT ok
Ġsa urang
ok an
in n
v en
Ġl e
apan ese
Ġg um
S tr
at ar
Ġn ulis
Ġm emb
T eu
ĠH and
Ġkat uhu
ul ang
ĠT engah
ob i
k uring
alan keun
Ã¨ h
P er
Ä ĥ
AS A
m en
j ing
6 2
ĠB us
Ġtul isan
ĠW e
ĠK iwari
Ġc art
ĠC al
ur r
Ġn eg
ĠS ap
5 3
ĠB h
ub e
Ġkom ik
s on
Ġr i
Ġla ut
og i
Ġj awab
ob aan
e el
at eur
Ġ8 0
Ġ ev
ent s
P N
un i
Ġ Ã©dit
in ing
Ġp up
Ġl ingkungan
Ġag ama
eta il
] ]
ub lik
201 7
ĠL umpur
Ġngaw angun
ĠB en
ĠA C
on al
ĠS E
c ess
l ess
os s
ĠÃī ropa
om ot
os na
Ġju ta
ĠKul on
ro g
Ġind ian
ĠK ah
iw a
unt en
ayan ing
eu eh
Ġl iwat
ud ang
Ġb in
ĠG l
Ġkul it
ik sa
up i
id ikan
ĠPro f
K ar
Ġs Ã©l
iew s
Ġngal awan
M ar
Ġal l
Ġn ana
ĠS as
om or
ĠG e
ĠE UR
ĠK omp
Ġg ame
Ġsa Ã©
Ġ5 5
ek tor
Ġk ep
AR A
ĠIk lan
Ġper usahaan
aj ikan
Ġ0 5
ĠâĢ º
} }
Ġn empo
l ak
ĠIn st
as y
Ġd ad
Ġdes ign
ap e
all ery
ĠJ adi
Ġt ong
Ġs ami
ik e
ĠP ad
ĠL ight
k aos
Ġ aks
ĠAl at
Ø ¨
Ġl ong
ĠM o
Ġt angkal
y ang
Ġsa ukur
7 6
Ġl ow
Ġlemb ur
eb et
ek el
ï ¼
ĠAs ian
ĠD it
ara an
T r
ĠI r
w ord
Ġg unung
Ã© i
ee z
C A
Ġtit ik
Ġt Ã©k
ist ance
v id
ek ar
Ġli ve
ĠO f
Ġlok a
aw ar
Ġ Ã©n
Ġmeunang keun
ant ik
ĠB uy
w ood
Ġkam ar
Ġ uj
Â ¢
ĠG old
Ġp ip
uk ul
ĠY amaha
ag am
ĠBl og
un ter
em Ã©n
Ġk akuatan
b um
ĠR eg
Ġkagi atan
Ġs ajarah
le x
ill a
op i
Ġm Ã©m
eu y
ĠR ob
ĠP and
Ġ ef
Ġngar onj
Ġngah asilkeun
Ġm inggu
or ong
K uring
Ġny okot
b ul
Ġdi anggap
ro k
Ġr um
S T
y o
ĠsamÃ©m Ã©h
" )
re at
ow s
enc ana
ĠSa int
us s
Ġres mi
inggal keun
âĢĿ ,âĢĿ
Ġ engk
ol e
ĠAnd roid
Ġ es
Ġstr eet
ob ana
awas na
ĠD an
am mad
âĢ İ
Ġ amb
5 00
iz e
ĠF lor
it ch
Ġkas us
Ġs uku
ak al
all y
ug an
ĠW h
uk tur
Ġb ers
ah l
Ġs eni
n ana
ĠK r
ul uh
Ġdes ain
Ġ eng
ĠJ er
ĠS ex
U B
Ġcoc ks
ĠUs aha
Ar t
in is
ek an
Ġm u
ep keun
ĠB ank
Ġngab al
ab el
at al
ĠBar u
Ġl ampu
ener na
Ġk ayaning
Ġr am
ic es
um Ã©n
ĠC ara
ĠH iji
s b
ĠStr eet
yr ics
Ġk ira
Ġtan euh
ul ur
ĠPar k
ĠP ort
ĠB ay
in ya
Ġah li
id i
Ġart ikel
Ġc al
ĠN AB
âĢĿ .
om a
Ġngad eg
Ġmang a
Ġ }
Ġad min
Ġtatto o
ub ai
J alan
ap p
ĠCo up
Ġdi ropÃ©a
Ġkart u
? "
Ġj enis
eur a
5 1
8 6
Ġp enc
ob al
Ġg en
es h
ĠH id
D ic
Ġng on
Ġk antor
Ġt ea
r et
uy u
I ON
eup an
it ung
Ø ¯
c ent
E UN
at in
C H
at ara
A c
k ira
ĠK ep
Ġbah eula
Ġsur at
T h
t d
ay am
ĠP ot
ĠC ik
ew a
ibut or
af e
on esia
Ġg ol
os et
Ġm y
ĠNa on
D es
M a
ĠSel angor
Ġ uc
t oy
ab ar
ateg ories
Ġ5 00
er usna
ĠsÃ©jÃ©n na
ungt ungan
am s
ump ulan
Ġp i
ec e
eaut y
n ey
uli ah
Ġmus ik
ard s
o ve
Ã©mb ongkeun
Ġb apa
Ġlesbian s
E G
ĠH P
Ġm ab
CC T
olog y
Ġbod as
ur uan
ak ter
Ġkacam ata
L amun
y le
ot h
asin os
A b
Ġm on
ob rol
Ã©r i
uc u
ĠIn t
l l
ON G
Ġdir ina
Ġm ungkin
ed i
An jeun
Ġtur un
Ġaw ewe
ĠW an
Ġl eres
Ġk ot
ĠC or
A I
ĠI I
ill s
Ġcar ana
eur keun
r as
ĠR eview
Ġm aj
Ġsat erusna
ĠB as
ĠR ed
v a
ĠM il
ak as
8 7
ĠD u
Ġn er
imp i
Ġth ongs
Ġs ilih
om atis
ĠCash Out
Ġin v
U rang
am u
ajeng na
end a
Ġm e
ĠL ap
ĠE d
Ġ200 6
/ /
m y
Ġak un
s o
Ġm uka
ak k
Ġpanalungt ikan
p ap
ĠC ib
ag ian
ar uh
ĠPro duct
k r
l on
Ġda un
ar at
Ġsakab eh
aj ib
yar at
ĠPer ancis
Ġp oe
ĠSum edang
Ġ4 5
Ã ł
ĠK em
ĠN aha
f er
ĠT angerang
Ġhid eung
ĠI b
j ur
Ġk un
Ġmind eng
b on
er uh
E UR
ĠAy am
Ġin s
IN A
Ġngah ontal
our s
ant u
ĠM on
Ġb uy
ul ette
Ġind it
S are
Ġpro yÃ©k
ĠAng g
al er
j ect
ar o
Ã º
ĠB et
Ġl ul
ĠAm ateur
Ġantar ana
adi o
Ġma ot
eung it
ĠJ ack
eb at
iv es
Ġs es
us ing
ek asi
eu si
Ġ ek
ab ah
e am
Ġt ara
Ã©k u
anj ung
d ate
ĠR ec
Ġan ime
AY A
t ina
ĠWikip Ã©dia
ĠU r
A ng
ĠS ch
el i
id Ã©n
Ġkomp uter
6 4
al ing
Ġlat ino
A p
ant uan
7 4
ĠA ug
Ġw idang
imit ed
T el
Æ Ĵ
ĠS o
ism e
C l
l ight
Ġm ata
Ġsal e
ĠS en
Ġbab es
Ġb entuk
w een
ĠP any
Ġl eg
ĠP ap
K ami
Ġdag ang
Ġkom o
Ġper ang
Ãī dit
P an
Ġ eks
Ġtan ah
Ġjar ingan
al ika
Ġr em
Ø ª
ĠA z
Ġmil f
Ġt ik
ari w
Ġbeur at
Ġas al
Ġaw al
Ġk em
Ġk usabab
ĠD ig
I t
er si
ĠP anjang
Ġlok al
R ec
U p
Ð¾ Ð
ter s
ĠD inding
ĠM umbai
Ġw aw
as na
ap ak
Ġg eun
ĠI P
ĠS anajan
Ġg aris
ib er
ĠP em
Ġngaw engku
) :
ash ion
ar am
ac ing
Ġamp ir
E U
Ġngaj adikeun
Ġm ac
ĠG reen
umb s
Ġlap ak
I G
ab ung
ĠTa un
ĠK rist
ĠW ar
eul ah
ĠJ esus
n ak
Ġem as
ud u
Ġjal ur
ĠK it
Ġtid ak
ã ĥ
ĠS ri
Ġto ur
ĠAr ch
Ġh ana
tr i
Ġkon tr
Ġtum uwuh
ĠE r
Ġbab arengan
ĠKacam atan
and ingan
p or
ĠSw asta
b al
l ish
ĠA ustr
if ul
Ġsap rak
R A
Ġw angun
ir us
s al
á »
Ġm ont
eu acan
Ġ aku
Ġt Ã©
ab ot
Ġro h
Ġt eg
yp sum
Ġw ates
b ang
ingk atkeun
9 8
O B
Ġn unjuk
ĠP ers
Ġj elas
Ġk im
Ġp ondok
ĠC r
ic le
ve y
ĠL uk
ĠIn ter
Ġhart i
ur us
Ġm am
j am
S A
ĠD ubai
ĠR am
it ra
Ġpih ak
ĠL e
Ġ emb
ĠF ak
ĠAy euna
ad an
eur i
in Ã©
ĠR os
Ġkat ut
c ang
as akeun
Ã©ng s
Ġat au
uj u
ir d
ay ak
c s
aw ah
ast ik
in asi
ĠK ampung
Ġsal awasna
Ġm Ã©dia
Ġbu ah
Ġl istrik
Ġng ant
uj uh
orm al
00 00
Ġp ukul
I F
Ġh ate
ĠD ew
Ġda Ã©rah
ĠUt ara
Ġc u
ĠC otton
m et
Ġshot s
Ġb ung
ind ah
Ġsak uliah
ĠBl ue
in es
il ik
Ġg eulis
ĠAm er
ir ah
tur e
imb ang
Ġbet ween
K om
ĠWal anda
mb er
el d
Ġpang l
ad or
eaut iful
I V
ĠS im
Ġ3 3
Ġnana on
Ġsak ali
ĠPr abu
ĠB ang
og ikeun
M an
Ã©h atan
b at
Ġmot or
m ah
Ġmaran ehna
amb ahkeun
ĠSab ah
lus if
ĠKA OS
Ġ est
Ġngaj aga
Ġs aan
Ġb lo
Ġw Ã©
Ġcoc og
ĠJan uary
ĠV al
m e
is is
Ġput ra
Ġs ec
Ġk os
7 3
Ġb ed
Ġdi anggo
ĠA P
m h
ĠUnivers itas
eup as
Ġbeur eum
Ġor ang
ov a
Ġsur abaya
k at
ĠNeg eri
p ut
Ġ ungg
Ġ ud
dr ess
ab ang
ur ahan
y at
pa at
Ġm ature
Ġf irst
Ä Ľ
Ġt ok
ĠG ed
al ahan
Ã©n Ã©
I B
Ġngaj alankeun
8 4
ud eureun
ĠS ah
ĠSal war
M A
b ab
Ġpam ajikan
eun d
i or
Å ¡
ĠAg en
ant an
ĠC i
ist ik
Ch ina
oh or
Ġp id
ik ut
Ġngal aman
T ER
az a
ĠU N
Ġ î
ĠS ep
en na
n et
Ã©ng ing
Ġmay ar
Ġ3 6
ateg ori
uj ud
Ġk ec
ĠN asional
Ġla uk
s k
in ter
ĠK idul
atur al
Ġkas ebut
ak w
Ġus um
Ġtun ai
Ġb us
P ikeun
ĠK umaha
es ter
Ġ[ [
uar keun
Ġc at
Ġbab aturan
o x
ĠB a
Ġw ungkul
an Ã©
Ġp aj
Ġol ah
e z
ĠC ip
Ġb ear
uw uhan
ail y
Ġab ad
Ġn on
Dip idangkeun
m art
ĠT ags
Ġsab enerna
Ġj udi
end er
Ġpro m
An u
Ġdip ake
at ih
] .
Ġp ati
Ġb ik
Ġf itur
Ġl ajeng
empat keun
ĠB atu
B al
Ġd et
Ġb uka
O r
Ġh i
ij ina
k as
Ġs o
Ġper nah
Ġb ob
Ã©b at
j id
Ġpas ang
or is
eb ar
ĠK ol
Ġap al
ist im
abr ic
ĠN av
ĠR umah
s ub
Ġp ur
Â °
l op
Ġt adi
C ont
I H
Ġas li
Ġcont o
em at
ĠB and
pin si
Ġpik iran
L ain
ĠP asar
at form
Ġc icing
i ar
Ġl amp
agg ed
Ġc ust
Ġin st
Ġb and
Ġngaran na
at angan
Ġi bu
Ã©s idÃ©n
Ġap a
ag ai
Ġc ons
Ġt aw
aks ud
ĠM er
ĠM ur
201 6
ĠÙ Ī
ang a
Ġv ar
U H
A g
n er
Ġmil u
Ġny arios
6 3
9 7
ĠC H
do or
Ġg awÃ©
Ġha ve
Ġsub a
Ġs ib
ol low
ĠW all
Ġd uanana
ĠAn al
r asi
ol ly
ĠJ u
Ġac tress
p os
euk eut
Ġal amat
om at
Ġdig ital
oj ong
Ġbl ack
res na
ad ing
ĠN et
i et
Ã© e
m ir
ĠD ua
Ġd aptar
Ġdipik awanoh
Ġng obrol
ĠSak ola
o use
ĠP ink
o or
AN A
ist an
8 3
l oka
{ "
P as
8 2
Ind ian
il ing
Ġngam imitian
Ġpa usahaan
akt or
ti ve
Ġm aw
eum an
Ġm angka
Ġd j
antos an
d in
Ġb Ã©r
Ġmas ter
Ġk um
ct ion
Ġhat Ã©
Ġs ay
l ay
uj an
Ġs ervice
az y
Ġsab udeureun
N aha
ĠF ull
Ġk and
ĠP R
ok s
arg et
ĠS Ã©p
Ø ¹
tur es
Ġget ih
Ġkur si
Ġf uck
enc y
co in
akt ip
O G
Ġw ani
ĠH ome
t y
d is
h s
us un
al usna
orm at
ak sa
ĠMuh ammad
ud e
Ġt anda
Ġs ia
Ġdil akukeun
aks ana
en j
Ġl am
usi ve
ĠR ad
as ih
ĠC ent
c ul
Ġy oung
Ġngal aksanakeun
al keun
Ġb it
ĠP ert
Ġsal am
un s
l eng
ĠP Ã©bruari
Ã© y
ĠSt asion
Ġay at
un e
T api
p s
Ġub ar
ĠBuk it
Ġad alah
p an
y ana
AL AN
o ja
ĠT ech
m urah
Ġintern asional
Ġ9 0
Ġnak ed
Ġg aya
S unda
ĠC am
Ġkal ah
Ġnaw arkeun
Ġsar i
Ġ akan
Ļ Ł
AR I
S KU
Ġpan ungtungan
Ġk ut
T ag
ar ana
el low
Ġbar eng
l uk
Ã©s t
ĠBar ang
Â º
Ġ ~
jalan an
Ġat uran
ing a
ĠD ay
ĠP ay
uk arkeun
Ġî ĻŁ
ĠEur o
ĠB anj
ĠC il
re y
Ġt ep
Ã ±
P hone
Ġag o
p ack
ag ang
Ġf ungsi
id ed
ant o
Ġp eny
ĠAn yar
Ġp angan
t ing
ert as
Ãĥ ÆĴ
Mal aysia
r id
Â £
ĠAb di
ĠD J
ag ering
Ġc amp
Ġn ilai
it akeun
ĠK antor
Ġc m
tÃ© mber
ers ey
Ġr unt
ĠD il
Î± Ï
art os
E B
l as
Ġind ung
w e
Pro duct
Ġa ir
is ional
Ġl ol
amat loka
Ġtah un
9 1
C on
v i
Ġin f
als e
Ġdip erl
ĠM e
ĠPas ang
cl usive
v ent
ib uran
ual itas
Ġist ilah
ik s
Ġp ink
Ġ ia
Ġg o
j adi
Ġs l
Ġt Ã©a
Ġtip s
z on
Ġur euÃ«ng
ĠJ ul
Ġk il
ĠR e
Ġm euli
ĠG ambar
Ġk embang
Ġpang aw
Ġsan es
C S
ĠC art
Ġw omen
ĠGar ut
ek er
Ġn et
or ial
Ġmas tikeun
Ġngar obah
Ġ3 2
ĠK et
ĠAfr ika
Ġkab eh
ĠS erv
ip e
ati ve
ak wa
ag ram
stan bul
ĠCir ebon
or ang
Ġat i
Ġ \
Ġp uguh
ateg ory
row n
ĠUS D
Ġnar ima
b ack
ĠP u
ĠR usia
ĠSh ow
Ġpang h
ad os
ĠC ap
ajump er
Ġj udul
uh keun
ĠL og
Ġm ore
el y
Ġm angga
Ġn ut
ĠS P
m un
Ø ³
ĠMan Ã©hna
Ġn an
Ġd os
ĠG eus
und i
Ġd ong
ĠPr ice
Ġmana j
od o
Ġw arga
ĠnÃ© angan
ĠS ari
af tar
amb arkeun
Ã©nt en
ak on
Ġab out
p at
Ġf l
Y A
ĠK aj
it ed
Ġkar asa
g o
ĠC ol
ĠM ent
O H
ĠM es
Ã©k Ã©
anc i
ĠP emb
m on
ĠD aily
in um
n am
en e
in ess
ĠB andar
ĠT emb
p as
ï »
Ġmay sa
it akan
k ara
ĠP AS
ĠP ER
unt ungan
Ġmen it
S ar
ist s
G CC
el u
ĠSM P
Ġx xx
Ġ1 50
ĠFac ebook
Ġr Ã©
ĠDi akses
ed ik
Ġ4 4
Ġsad ia
c he
ĠS ong
Ġg ata
Ġdis tr
Ġg eura
ĠâĢ Ŀ
ĠpamakÃ© an
ĠK ayu
Ġk es
Ġm und
ĠB ulan
âĢ¦âĢ¦ âĢ¦âĢ¦
Ġs aya
er ed
Ġw ork
ĠK ac
ay aran
ang na
Ġc er
K ode
Ġr Ã©s
ĠOr iginal
Ñ ĥ
r ag
u u
ĠAl am
ĠB ib
7 1
ĠB apa
Ġg rup
ĠColl ection
D a
ari b
c el
Ġb ank
Ġs eg
Ġc oll
Ġpag aw
Ġkar ajaan
as iswa
ĠUp ami
Ġsal ajengna
Ġngabal ukarkeun
ĠR aj
it is
Ġh awa
c on
Ġsup aya
6 1
B N
uk i
Ġa ing
Ġs oftware
t im
Ġngaronj atkeun
Ġk n
Ġm ov
ĠJoh n
emb angkeun
ä ¸
Ġs ieun
c b
Ùİ Ùĳ
odi ak
is keun
ĠP ag
Ġh er
Ġp aka
E W
Ġcom ics
Ġen ya
al aman
Ġh ur
Ġ Ã©ng
C ar
ĠM Ã©i
est asi
ev el
ĠM ul
Ġk ita
Ġdo or
Ġdiperl ukeun
ĠK aw
7 2
c al
eum pang
ap ur
ir keun
Ġleuw eung
F or
ĠPrint ing
ĠT ag
Ġ7 0
ual ity
ĠAc eh
ĠS ed
Ã ¬
Ġr eg
ah u
it ion
amel an
T er
ĠM y
SM K
ĠRep ly
l it
S ub
Ġd al
ĠD en
ĠB isa
Ġj ih
ĠL td
ĠN ext
Ġar ah
ic o
ian jur
Ġjack et
B asa
K I
c u
ĠSar awak
Ġt Ã©r
Ġd ew
int ang
art ment
Ġpam arÃ©ntah
ang e
Ġt using
ĠW ear
ĠSÃ©p tÃ©mber
al at
Ġs uk
Ġsil k
Ġs igana
Ġp ic
ia omi
âĢ ¢
Ġr amatloka
Ġsh op
ĠE ta
ide os
S i
Ġkany ataan
A y
is ta
9 6
K A
ĠP ul
ĠLat in
Ġn asional
ĠMal ang
Ġk idul
Ġsa id
ĠAir port
is ir
Ġal esan
ipt akeun
ro e
Ġlat ihan
ĠComp any
ĠP aj
inc in
iz ed
Ġot omatis
ist ro
ĠN ur
f ir
is as
ib u
ĠT urn
ĠU ng
ĠS anggeus
Ġb eda
um en
X L
f ikasi
Ġk ir
Ġdit ulis
ul asi
Ġs imb
Ġng irim
EM B
il le
ed ness
ro lan
un keun
Ġbeb as
N ew
ok ep
Ġkon ci
G CT
ĠR ail
Ġtungt ung
as er
Ġsamp urna
ib ak
o ul
Ġh Ã©bat
Ġv ari
y ek
um utkeun
Ġngah ubungan
Ġter baru
ĠSup plier
L at
S S
Ġv Ã©k
ĠBlo use
Ġm and
Ġpang aruh
Ġah ir
c ast
Ġkah ayang
ip an
ĠE ks
am ik
ek arkeun
Ġd om
Ġn ingkatkeun
ĠD ur
unt y
Ġcom ment
Ġbur sa
ih ar
AC T
Ġb angk
Ġ6 5
Ġny arita
Ġtab uh
Ġpoh ara
Ġsas tra
Ġw angunan
Ġo ver
ĠSy stem
en ta
adi ah
. )
ĠJ al
ĠG uru
ĠKabupat en
ĠC inta
re am
K C
ĠP ower
IS T
ro und
ĠHot el
Str ict
D is
ĠM art
re w
Ġbas ajan
Ġpus eur
Ġolah raga
ĠI D
elas keun
ĠMar ch
ĠAb dul
ĠE s
ob ahan
Ġ200 5
Ġl ir
Ġsat o
ĠP hone
k en
Ġw at
Ġyak in
b ur
ro ng
is ik
arg e
is ah
p le
ĠF eb
ĠK in
ĠI l
ĠKam eez
eg ah
Ġs ering
Ã©r si
ĠK art
up an
Ġmer e
olly wood
akt u
P T
Ġng ak
Ã©ng Ã©
ur uh
ĠL ine
ai ib
ap or
ĠKur si
g y
id en
um e
Ġ3 4
Ġk ed
ĠH ind
Ġv is
ot t
Ġt entang
ess ional
Ġsaw atara
Ġngad amel
Ġnunjuk keun
ak onan
og oh
ind ows
ĠDr ess
AH A
Ġka amanan
i eu
Ã©k an
âĢ ļ
Ġpr es
Ġp ed
Ġ ..
ĠH e
angg al
9 4
hot ograp
ĠN op
T otal
Ġk amp
Ġpar usahaan
aj o
Ġf ull
R M
Ġc ik
eg as
any ol
ot na
d u
ĠE m
ĠT ina
l ar
Ġt aman
ag ad
Un pack
ĠP OL
Meta Sel
8 1
ek t
Unpack edness
p al
ĠN as
Î ¹
ak er
ad eg
umb ang
ĠB uku
ab ana
ac i
Ġt ub
ĠB ekasi
ĠR om
Ġsi ap
M as
Ġsat euacan
Ġngur angan
ĠNy i
Strict ness
Ġw arta
ĠE mb
Ġt il
Ġpus at
ubl ic
Ã©ngs Ã©
ĠC as
Ġk ata
if t
Ġt ugas
ad wal
Ġj uga
Ġkab Ã©h
ul ungan
L azy
ak aan
Ġh an
aaaaaaaa aaaaaaaa
à ¯
ĠTah un
ĠDi os
ult an
ĠW agering
ĠA j
euw ih
un ia
ih at
ut usan
tiv itas
orm asi
ap t
Ġngar ah
Ġem ail
ided Lazy
ĠM ac
ĠMax imum
Ġ3 00
Ã©r an
Ġl ayanan
Ġpos isi
ok ol
ï¿½ ï¿½
ung s
am ar
Ġday toy
anding keun
aj at
l imited
S P
Ġorgan isasi
Ġny al
Ġnamp i
T V
ĠJ a
à ¥
ĠPer ang
ĠÃ© y
ĠK aca
int as
Ġr ed
ĠPart y
ĠDep osit
Ġdil aksanakeun
Ġd em
Ġgum antung
Ġj er
em s
og y
ord s
Ġpl atform
Ġche at
ĠM i
C D
Ġpro dus
pli ers
ĠT amb
ĠT ime
h al
ant un
ar m
Al amat
Ġd aya
Ġj sb
imb angan
Ã©t o
ata un
m ina
ic an
ungk as
n an
al ian
ĠNoSource Unpackedness
ĠD el
eus ina
as aran
b all
ĠW orld
Ġs uks
ah aran
x i
Ġt unggal
ĠK itu
ay on
ang ing
Ġw isata
ĠNoSource Strictness
âĨ Ĳ
Ġkam amp
ĠIn s
Ã©k tur
ini um
r en
C om
Ġg eup
ent ara
Ġc ur
pl ay
und eur
Ġang in
ĠA ut
Ġkas ampak
Ġlang it
ij ab
th er
ĠI bu
ra z
ĠS H
ĠP es
ig ir
ap u
ap ana
A GG
il d
Ġd ulur
ĠTur ki
er at
---- ----
ĠDec idedLazy
9 3
am ina
Ġsol usi
z h
ungkin keun
Ġp h
eur eum
b us
Ġm ung
c ara
ĠÃ ł
á º
Ġop erasi
ĠR atu
Ġd adi
ut i
ĠEn d
Ñ Į
Ġs en
Ġp e
J l
Ġsab araha
abab keun
Ġd el
Ġmin yak
Ġweb site
id o
ap ura
anc a
Ġ awan
ond a
ĠM ap
ol i
Ġpas angan
ef er
Ġc iri
ĠArch ives
ĠN i
ib a
Ġst andar
ĠK od
Ġb ack
ĠH ard
á ¹
à ¦
us usna
ba ik
ĠC he
ig ur
amp ilan
ĠFil ip
p asar
Ġd eung
Ġdip asang
ĠWil ujeng
ĠSup er
ĠAng k
Ġpan c
er ies
d ana
Ġn anya
ump ulkeun
Ġkap al
Ġ- -
Ġl ag
Ġd at
Ġm uter
aw atan
Ġag eung
Ġn inggalkeun
ik iran
Ġmen y
Ġbar at
am atan
ĠUnivers ity
Ġgeun ing
Ġ Î
ik min
Ġm enc
Ġc ek
r ad
ĠE mas
ĠDesign er
Ġman i
ĠP ara
im pin
od y
ĠP o
ĠV iew
p ir
AR T
id er
ĠS ec
ĠT inggi
Pang alusna
Ġ Å
Ġh ade
Ġf ile
s et
it ut
Ð° Ð
ĠB it
eh e
Ġkh eueh
ĠAustr alia
ĠC O
Ġn ibak
ic ial
x y
ĠK os
Ġfil m
am o
Ġpol os
M un
lo or
en ian
pr ice
Ġs erv
Ġh eubeul
ĠC ianjur
uk si
ĠSal aku
Dic omot
Ġkak aw
f t
ĠC amp
Ġv ersi
m ana
ĠD unya
imb aran
Ġp and
ĠF l
ĠUm um
Ġt emp
ro t
Ġp ac
Ġpany akit
it am
ĠÂ «
lot h
v in
Ġim p
Ġkomun ikasi
ĠA B
P am
ĠP uter
Ġl anc
Ġl ega
Ġtrad isional
Ġ er
ĠJ uan
Ã©h keun
201 3
Ġing et
ar uhan
Ġ2 000
und an
ort h
ĠDes a
Ġm aju
ĠAug ust
ĠS ung
are ta
Ġm es
Ã©s Ã©
ic ks
c es
Ġk eb
is ter
ĠB L
Ġr a
ĠH enteu
Ġj iga
Ġk odiak
ĠL ive
ĠJ UAL
ĠS e
j alma
= =
eng e
tiv al
Ã ¤
ump ang
ĠIs land
Ġlah ir
Ã©n an
Ġ3 8
int on
c ont
el ang
Ã©nt ang
ar ing
ĠS itus
Ġj uj
angg an
amb aran
ĠBi ografi
Ġj iwa
n t
ĠB ahan
her e
Ġj apanese
anj i
al ana
ĠR as
angt u
Ġs ch
ow ongan
M od
Ġmak a
Ġm ir
g et
Ġn el
il lah
Ġp ab
ig awÃ©
ĠMal ah
ĠP ok
S ab
et keun
re f
Ġdip erc
E H
Ġk irang
eg al
emb angan
ĠT ut
ĠN atural
Ġla eng
K at
ĠBlowjob s
Ġjur usan
Ġr eal
Ġ eureun
Ġb ol
Ġc ahaya
Ġwil ayah
amp ahan
ĠManufactur er
Ġr aj
tor y
Ġp ep
ĠAl i
Ġp oto
Ġc erita
ã Ģ
ob at
Ġa f
Ġin di
Ä Ĺ
em on
ot e
Ġsak itu
H D
ĠPl afon
ĠC and
Ġk ayu
Ġpant ies
ect or
Ù ĥ
ĠU jang
Ġtat o
Â ¬
ub an
ar ak
omb ol
ĠSt ar
th umbs
Ã©j o
qu et
ĠSM A
H ot
k in
ĠS af
ĠI stanbul
ik lop
Ġperc aya
w in
ĠL eb
as ia
ĠH a
Ġ3 9
ĠEl ec
y t
Ġnaw iskeun
m inal
p ad
omp ok
Ġdok ter
yar na
Ġl ink
Ġn empatkeun
Ġg ypsum
co unt
Ġk Ã©nging
Ġw and
oh ong
C art
Ġkad aharan
N ya
ĠM edia
Ġ3 7
har eupan
Ø ©
ĠI sa
d y
m ark
Ġc or
ĠDig ital
Ġd am
ĠO t
Ġkar akter
Ġka i
ĠSt ory
Ġs ataun
ĠSar ah
Ġnur utkeun
ĠP L
Ġper jalanan
oles cent
w orld
Ġd en
Ġn omer
ul e
Ġb or
ĠD im
Ġne angan
ĠT I
eun eu
s el
Ġmur id
i ang
Ġlo ans
on i
Ġhandap eun
Ġd ek
ĠD av
C o
Ġsejen na
arÃ©nt ahan
ek al
S AR
am as
al em
Ġan ti
Ġpro p
Ġnik ah
Ã©d i
ĠI T
Ã©s Ã©r
Ġd apat
12 8
ĠB ut
........ ........
k Ã©
Ġsat engah
Ġl ayar
id it
ĠTan ah
K ur
ord an
Ġs angg
Ġpar abot
u x
Ġk eun
20 20
dit ional
s it
v ert
Ġdi a
ĠT asik
al og
Ġd ang
Ġm ic
Ġu ing
Ġw ill
Ġng atur
Ã £
Ġdeu ih
Ø Ń
ĠK eb
Ġ... ]
Lain na
g i
Â «
id ad
Ġbr and
ĠK L
eb u
ĠDes ain
ond on
ĠÙ ħ
ĠT ek
ent i
Ġd ob
Ġg un
Ġa v
ĠT ER
ing o
Ġto ol
Ġber k
Ġcan ada
Ġt ujuh
Ġdit er
O C
ĠS outh
ĠK l
Ġ uang
ĠÃ©l mu
Ġh ujan
ep as
o i
Ġ om
Ã©s ional
ab ut
Ġdi ro
ĠM ore
it o
Ġpul uh
ĠG er
Ġf un
omb a
Ġp indah
ĠC are
n s
Â Ń
il and
ag at
ay ogikeun
ul Ã©
an jeunna
ev er
Ġk antos
O W
Ġsi aran
ar ia
Ġk op
ĠM em
Ġkul on
t an
ĠD Ã©w
Ġr ak
Ġr as
Ġnangt ukeun
v es
UR AH
ĠB y
Ġsir ah
ĠK en
9 2
p is
ĠS aj
B r
Ġ/ /
Ġkat ilu
ĠW edding
ĠSE O
201 2
t eu
Ġm eun
Ġpik aresep
ng Ã©
in j
ĠT ul
w ard
T op
p t
ĠTech n
Ġb en
Ġbeung eut
Ġmas ing
14 0
3 00
ĠSar eng
Ġun ik
Ġmaster bating
Ġb atan
Ġ apan
Ġk ey
Ġl ant
Ġr ib
ĠG a
ĠIs ra
w angunan
ĠM ei
!! !
ĠRem ix
on es
ANG K
mb ol
Ġh ard
ĠTra vel
it ter
ĠJun e
Ġad da
Ġperk ara
Ġsign up
Ġs iswa
as ari
ĠM aha
AS I
Ġ4 8
Ġmaks ud
ak uan
ĠKal urahan
ĠMus lim
ĠB ook
Ġis u
s er
ĠP apan
ĠsamÃ©m Ã©hna
um inium
ol ak
Ġm it
Ã©ng k
Ġl eumpang
Ġmik ir
y l
Ġl ab
ĠP C
ĠB esar
g Ã©
r ik
Ġt angan
ES S
Ġc ash
U G
ad ar
ro h
ĠCh rist
an na
Ġm asa
Ġc ac
Ġgor Ã©ng
iti f
Ġkas alahan
j aan
A h
ad ak
ĠA ma
Ġd osa
d es
Ġdi ng
Ġmad thumbs
ĠL ib
Ù ģ
Ġn omor
ĠP op
Ġsaj abana
am ak
itt le
Ġti is
ĠPro gram
Ġ08 12
ĠKacam ata
ĠAs li
Ġti b
ub le
ĠDec ember
Ġngar ojong
Ġnas kah
ad ia
ĠK eur
Ġat ikan
ĠJ ang
Ġ4 00
A CC
Ġmang paat
oc i
ent ah
in ar
Ġpr ice
ĠS amp
Ġag en
p ons
Ġ2 50
ic ation
Ħ ¢
Ġng ir
Sare es
Ġb isi
or it
ĠT um
Ġand roid
imb al
ĠV ol
ĠS aw
Ġdib uka
Ġsad ar
Ġkh usus
i er
aj ang
n ame
r Ã©
z z
ĠF S
Ġpangaw eruh
Ġs id
it le
ĠIN D
Sak ola
ĠT anjung
imit ina
J umlah
M ang
AN GG
Ġco up
ĠK ong
akÃ© an
pro duct
ob nyan
ib usi
Ġl uyu
Ġk ek
ĠS ize
eng i
k on
Ñ ĭ
Ġl aw
raf t
H iji
ĠT emp
Ġper y
ol usi
ĠKar ajaan
ĠA Y
Ġka untungan
ok lat
ies ta
Ġsp ank
uy an
Ġstr ateg
ĠNop Ã©mber
ali f
d ina
s s
Ġbar u
cr ip
A F
Ġman Ã©h
ĠInd ah
ĠC um
ĠTurn amÃ©n
Ġpr int
en no
Ġm ol
Ġtit ans
ĠT empat
Ġindi vid
Ġb est
Ġc am
ri end
j ong
Ä į
ĠB ola
il is
ĠN G
p hone
ĠA R
I X
Ġas ih
ĠFak ta
Ġpar obahan
Ġpant o
ĠCon tact
ĠAngg ota
amb ut
Ġr ata
f il
Ġr un
Ġs atu
Ġs imp
Ġib adah
ub ah
Ġda erah
ĠG irl
Ġny at
Ġkat ingal
Ġny eb
uar d
ĠJ obs
ak il
Ġ ey
Ġst ories
Ġim ages
ĠAg ung
is ion
ĠN ag
Ġngaj ak
h u
ah ang
Ġti ava
Ã©ng kah
angk alan
eng ing
Ġpl ay
Ġcoc ok
k e
p ormasi
am ing
ĠG ol
Ġdib awa
ĠBan arasi
y c
Ä Ł
Ġpil em
ĠUnt old
Ġal so
Ġdit angt
Ã© wa
P P
f or
re a
Ġeng ine
l ong
Ġman uk
s ex
Ġ7 5
ĠDes ember
ĠBah ru
ĠMen engah
Ġor iginal
Ġ4 2
Ġprof Ã©sional
Ġnangt ung
ì ķ
Ġk lik
um ahan
ĠC euk
Ġro b
Ġd amel
ĠC el
ĠM c
Ġng em
ĠW isata
Ġ: :
Ġngar asakeun
( "
Ã©p ublik
ot an
S D
Ä ĵ
Ġn Ã©mbongkeun
Ġon e
ĠJer man
Ġwal ungan
Ġm ult
ĠT L
Ġg allery
ad em
ĠB B
c aya
Ġn ip
un y
Ġt og
Ġv ia
unt u
ĠSabab araha
C ara
ĠBro ad
ent ot
ĠWan ita
ĠB umi
up ati
Ġlok asi
Ġn ami
m ac
Ġ os
ung i
Ġt ime
ĠG ames
ĠKab ayan
mal aya
Ġny eri
ĠB ud
Ġny iptakeun
Ġr ac
Ġ200 4
at on
ĠT its
ĠG R
Ġdit ar
Ġex p
ĠMot or
T umbu
os keun
c ore
v ers
Ġbul u
P L
Ġng arti
Ġporn o
Ġlap top
Ġpan ang
ĠY ork
c ing
Ġt w
Ġm om
Ġv s
ert y
I s
Ġny ump
Ã©l Ã©k
Ġp int
ig er
si ve
Ġ eur
Ġr ag
ĠT H
ĠR eal
ec ut
Ġhart osna
ip at
] [
i ah
Ġ( (
l ime
es tival
Ġob at
ĠÃ©k onomi
is na
Ġg ug
u ch
v al
Ġrah ayat
b e
as ina
angk ang
ĠNg ar
Å į
Ġh ours
ur id
ak ang
Ġ4 6
Ġad d
Ġsur f
Ġdisebut keun
P ar
si ze
Ġs m
Ġc asinos
Ġtek Ã©n
amp ura
ogy akarta
ĠD ong
ros s
ĠW est
ĠM ir
ĠN alika
ĠV egas
it em
Ġis uk
oc a
emb ar
ips um
Ġgen ep
ĠSM S
ell a
eh atan
uz u
C E
Ġs eri
re ad
Ġlengkep na
ĠR el
arik na
; &
ĠS W
G AG
Ġng embangkeun
w ork
at ihan
Ġsah ingga
er land
ĠT ha
ĠR oh
ind a
Ġsap op
er k
Ġdi ant
angg ung
T M
ap eung
ak hir
es na
ch ing
Ġsip at
Ġpangan yarna
Ġmer ek
ĠPend idikan
ĠDep ok
ĠJ L
Kom entar
ĠT w
Ġt ers
P A
Ġt ag
ĠS ud
Ġk Ã©
Ġr Ã©ngsÃ©
Ñģ Ðº
GG T
Ġn ing
ĠT un
l Ã©
Ġb il
Ġs yarat
Ġb ola
ĠCont ona
Ã© o
ĠA f
c ol
it or
Ġ- >
Ġ4 7
o Ã«
ĠRo ulette
ek ut
Ġum umna
erg i
er na
Ġt ol
ĠN ational
Ġj ah
e on
Ġtut uwuhan
K as
K aca
Ġ Ä°
P C
eg e
j ual
p ur
AT A
at ik
ri ve
in ah
Ġb h
ip ta
yar akat
Ġber b
h ana
ĠU lah
c an
ent ing
ĠPr ia
r ia
ĠS alah
ĠtÃ©k nologi
ĠP oÃ©
eh an
Ġ1 20
l ed
ĠG en
ant s
ĠK o
u ah
Ġk una
am m
or itas
Ġpery ogi
ĠT ips
Ġdiperc aya
EN D
alik na
ta w
Ġh igh
om as
rop ol
Ġpikaresep eun
ĠT al
id inan
l ag
ĠO per
ĠL al
Ġkas Ã©hatan
em ium
Ġ4 3
Ġsub lime
ĠO b
ĠDistr ibutor
ĠK es
Ġc ut
engk ap
istr asi
Ġsamp ing
Ã¨ n
D Ã©sa
ĠS and
Ġl oc
ed e
Ġny et
ĠProduct s
is ip
ĠM aran
Ġsa ur
A m
Ġt inggal
ĠMet al
Ġum at
Ġ ed
Ġ angka
s ar
Ġng aku
A pr
Ġh atur
ĠG or
Ġpr akt
ĠÃ©l Ã©k
amp a
Ġg as
Ã© ter
ĠL ot
B ig
Bal as
un u
Ġbad Ã©
abil ity
K ang
Ġp hoto
Ġ eusina
Ġp ah
ad ilan
w ah
Ġker ja
ĠCoup le
r or
em e
Ġdik irim
Ġpent ru
Ġp apan
ut ra
ĠY esus
h h
Ġpin ter
li en
ener an
Ġmod ern
Ä± n
201 0
Ñ ı
Ġd ur
ket ing
and ungan
eund eun
Ġw enno
Ġdag ing
ĠB anten
ã Ĥ
ĠD ata
id al
g g
ang u
k ur
Ġkat resna
eur an
4 00
Ġjack ing
Ġlog am
ĠM and
IL L
ok al
i as
Ġw Ã©b
oy s
Ġlal ampahan
ead ing
ĠUn d
Ġprom osi
r ib
Ġs enang
P ol
Ġun ivers
Ng am
Ġm angk
Ġr Ã©b
Ġday euh
Ã©l Ã©hkeun
Ġeu y
Ġpoh o
ĠPar is
Ġd og
Ġh Ã©sÃ©
ĠKa ulinan
ij akan
ud ayaan
Ac tress
angg u
ungk inan
Ġur ut
Ġng us
op edia
ĠSlot s
p i
ea f
as on
Ġn it
ep at
Ġ angkat
v an
ĠD ib
Ġy Ã©k
ĠIn fo
F F
201 1
Ġp ool
Ġgener ator
Ġt en
S E
Ġt otal
Ã´ h
n al
ĠL ain
uj a
Ġsak it
ĠPut ih
ag na
ĠLa ut
ĠPr Ã©sidÃ©n
Ġn at
ĠT angan
ĠL ist
Ġv ol
Ġind onesia
eus ian
ï» ¿
ĠT e
Ġsh ow
ĠK ons
um um
ĠN ar
AM P
Ġm m
Ġju ara
ĠS UN
uck y
Ġna v
ĠKun ingan
ĠL in
ĠP AN
Ġdi uk
ĠE dit
asi un
AT C
Ġm Ã©d
ĠI st
Ġx iaomi
Ġkont ak
b ig
h arga
ear s
ĠPaj ajaran
ĠJ ALAN
ust om
ĠC ur
Ã³ n
Ġn utup
ent euna
Ġbi aya
ih keun
Ġper hat
Ġn ambahan
ĠP ed
Ġi Phone
ection s
Ġ Ã©f
aw is
Ġout let
T ina
Â ·
eur euh
Ġwh ich
Ġc alon
Ġpik ir
Ġt imb
________ ________
Ġd ec
âĢ ĭ
Ġpas s
Ġsa atos
Ġaks Ã©s
Ġng ayakeun
i ro
r eg
ĠC afe
ĠG ener
omb ang
Ġtim ur
Ġpap anggih
ĠJ ay
Ġv al
ĠPil low
Ġdij ual
Ġgl obal
ĠP ulo
ĠSy mbol
Ġng ap
ĠMod el
ĠR ak
Ġent o
Ġkam ari
ĠSer ikat
ĠIt alia
and ap
ĠAt uh
Ġsab ung
Ġa ut
] ;
Ġb ing
c er
arg aan
ĠW indows
Ġngam ungkinkeun
I AN
ar osan
Ġc el
ìķ Ħ
Ġkons umÃ©n
il y
Ġsap anjang
ĠTemb ongkeun
Ġb ay
ta f
Ġhad ir
k y
Ġs aja
Ġb eulah
Ġstr uktur
m od
Ġngadeg keun
eh at
ĠAd min
r ay
ĠA ks
ĠS arta
Ġh ayu
Ġh ayam
ĠSer ies
E E
ĠS ul
Ġsp Ã©si
ĠMus ic
Ġ emp
ĠH ol
ad ina
Ġw orld
any ak
ĠP abrik
Ġun sur
Ġlap oran
j eung
Ġsy stem
Ġkom entar
PS N
Ġp Ã©r
ĠP orn
Ġ ep
Ġk ebon
ant e
Ġkal Ã©r
Ġef ek
f at
ĠE y
ĠSur at
Ù Ĥ
Ġt emb
Ġng el
iny al
Ġcart oon
D r
Ġ engg
Ġkl ub
f ul
d n
mas ing
Ġc urang
t ik
ĠH er
ĠNg aliwatan
ĠH ouse
Ġpang b
ĠC ategories
u el
amp il
engk a
Ġk enging
f e
id ent
eb o
asup keun
ĠSp anyol
A V
ang bang
ĠP D
ig i
Ġpul o
Ġkak ara
Ġk adi
ĠB ob
P a
ĠB AR
Ġcont ona
ĠS ag
S H
ap ore
Ġdit u
Ġf ant
ub a
ĠN PSN
s ervice
Ġ200 3
A mat
t is
Ġsimb ol
ig an
und und
R es
ĠS usan
ĠN agara
Ġdatang na
Ġdun unun
F il
Ġt epi
it ak
ant ri
ĠSab un
US D
at as
Ġir aha
ĠK e
ĠEx press
ì Ŀ
ĠC olor
Ġcl ick
eug ah
ĠSad aya
d an
ĠK ing
el ar
ib le
ĠPut ra
Ġpam ingpin
ĠLat est
Ġan y
ĠS earch
ĠP up
AR AN
Ġj inis
Ġngag ambarkeun
eu en
Ġmus lim
Ġv an
anj a
ash a
ĠDit ambah
B A
eun ah
ĠF alse
Ġbut uh
ĠJ isas
Ġv iews
j ack
ĠI p
ĠBroad cast
ĠM ov
form ation
Ġk uk
Ġsab an
ĠManufactur ers
pa atkeun
Ġpad amelan
ĠK awas
ĠW a
Ġund er
ĠN umber
ĠJ umlah
D istance
Ã©k si
uc e
arg er
al ina
ĠN ame
ĠIntern et
m ing
Ġp ort
ã ģ
ĠDo or
m l
ï¼ Į
id ing
Ã©k wa
ov en
ĠA v
ĠR oy
ĠS ay
y d
ĠR T
ĠF loor
if ikasi
erl uan
od ay
ap us
Ġm Ã©t
ect ory
Ġpok na
Ġk ertas
ĠTha iland
l ok
ĠWil d
AM AN
Bl og
Ġka ula
ĠSung ai
E X
Ġg uy
im at
* :
Ġg eut
ĠCard inal
Ġsim kuring
H al
an tai
arg ana
ĠP ET
Ġ9 9
lo ck
Ġ7 7
Ġcust omer
Ġb eg
eng h
Ġr adio
Ġk anu
ĠS ign
ĠAr anjeunna
T aman
Ġ Ã©ns
ag Ã©
Ġdig unakeun
Ġdib aca
Ġngaj awab
Ġber g
Ġin c
ĠKar angan
È Ľ
ip si
ĠA D
il ar
ĠN ak
Ġ6 6
Ġan jing
ul lah
Ġmod Ã©l
it na
Ġw el
ĠNg al
p m
Ġr Ã©a
j ana
as tr
Ġn ajan
Ġad at
Ġmot ong
ĠÃ©ns iklop
im on
Ġday ta
ĠP ic
amp i
Ġkar ir
Ġl akar
ĠT in
Ġh ow
Ġdip igawÃ©
E l
T a
ĠTh is
Ġs eks
Ġpro t
W A
r it
Ġ Ã©nd
tr ic
ore ad
amb u
ĠM ini
Ġmul ang
?? ??
Ġr at
Ġl ucu
Ġk lien
ĠK usabab
imal ayan
ĠY un
B ar
t he
ĠL yrics
ĠSal e
Ġs is
ER I
M S
ĠB ak
Ġas am
r aw
Ġl agi
Ġh adiah
Ġul in
ay asan
Ġw ad
Ġk end
Ġg u
S at
ad egan
ab ama
AM B
Ġel mu
ĠG ad
ĠIS BN
Ġ Ã©ks
eu e
ĠB udaya
Ġma ids
Ġb eut
ord er
ĠT or
Ġm edia
ĠT ak
ub uk
Ġf inal
ĠCom ments
Ġbab a
ĠLuk isan
ĠO N
Ġy o
if f
Ġag oread
ĠR acing
l ina
un aan
Ġpl afon
pap er
ĠY ang
b ol
Ã Ĩ
Ġl ib
T oko
ĠP hoto
ĠW Ã©tan
Ġdis impen
ĠOff ice
amb i
u ta
id d
Ġput ri
ĠPur w
aliw at
ĠUS A
ĠS eni
ĠG M
ea ve
T S
Ġsur vey
igir eun
og ja
ĠY ah
Ġip hone
v ing
Ġch at
ĠmÃ©n ta
ĠG roup
Ġst at
Ġn ormal
Ġpam il
Ġdij adikeun
Ġlol obana
T R
ĠB or
ĠE X
Ġc oba
Ngam imitian
ĠS l
Ġ ongk
mb a
e ve
Ġl ami
ot ong
Ġ ide
Ġk undi
or ks
Ġb apana
ut at
ĠN on
Ġop er
** *
Art ikel
Ġs euri
Ġb okep
Ġthro ugh
Ġk ampung
uh a
ĠRail way
B et
ĠM ont
ul um
ĠL ong
ĠF Ã©bruari
ĠCl ub
æ ľ
Ġkab el
Ġs end
crip tion
B er
Ġp ir
ĠA II
Ġjal mi
ĠA ki
ih i
sh ip
Ġkat elah
Ġsem u
ari o
Ġngal akonan
Ġroh angan
Ġkakaw asaan
ĠN U
ot es
Û Į
ĠS on
Ġd er
Ġw ant
ĠSal t
ĠPi ece
ol an
ert o
ropol itan
B ah
Ġb ot
ag on
Ġfil ter
It em
Ġb ec
Ġart icle
ĠTasik malaya
en ahna
om s
aj uan
B ab
ĠÃ©nsiklop Ã©di
l ad
Ġb aca
à °
ĠK ed
ĠI d
oc og
ĠTechn ology
G R
Y ou
os is
Ġw all
Ġny i
ĠPro pinsi
P ost
ĠDil do
M I
Ġpam uter
ĠF L
ins ip
Ã© tÃ©
any i
l og
ĠT id
Ġst asion
Ġkil om
ĠK im
GG C
ĠT ambahan
ĠEmb roid
Ġs udah
Ġdi di
od as
Ġt Ã©mb
Ġg awe
ĠS ok
Ġkaw in
Ġsaw ah
ulo an
Ġo ur
A k
S an
Ġt amb
Ġp ami
y u
ĠPer dana
ebr uary
n agar
aw uh
Ġmal ang
OT A
or es
imb a
Ġtu ah
h ad
ĠP ri
op le
ani z
ement s
ĠD em
adah al
oles ale
ord in
Ġpu asa
p ol
Ġpak as
Ġgel ar
ĠB AN
ĠPa ul
Ġp eta
Ġb ud
Ġd ating
ĠM URAH
iy ah
ĠmÃ© ter
P D
ĠD istance
ĠN ap
Amat eur
ĠPas ir
uct ion
ĠE U
ĠE v
ĠKal ung
s ik
ĠD unia
ĠCont oh
ek at
Ġput ih
ĠB isnis
Ġmut uskeun
ĠSub ang
ĠPh il
ĠC D
ĠNg aran
J A
umum keun
n es
ĠPr es
Ġis tri
Ġny impen
Ġna Ã©k
Ġak ang
Ġnut urkeun
A uthor
l ukeun
Ġ %
Ġhareup eun
Ġp ics
ĠW in
o ugh
Ġj angkung
ĠT O
ant ong
bo ard
Ġt ahan
ĠIn c
ĠAn da
ĠAp a
Ġin pormasi
Ġny ayogikeun
Ġteu ma
ĠGal uh
c am
k ap
ik lan
am Ã©m
Ġpar ajumper
K am
ĠIm ages
B e
Ġt ombol
Ġng Ã©lÃ©hkeun
Ġhasil na
eng se
S abab
ĠP EN
ĠG rup
Ġg aw
T ah
j ongan
Ġpun ika
ĠWe ight
k it
t emp
Ġw Ã©tan
Ġap p
Ġend ah
Ġwan oja
ĠP e
r ana
ĠKomp uter
al ig
Ġh il
Ġmun cul
!! !!
Ġintern et
1 50
ĠT ri
ĠBo x
B D
ĠT aya
ĠY us
Ġn ov
Ġrib s
Ġwan ita
.. ...
Ġf isik
Ġhal aman
Ġleb ah
j ian
ex e
ĠPi ala
ĠÃī l
Ġmah luk
O n
ĠC erita
b ag
Ã© c
ĠC ab
akt os
ĠJ ersey
Ġnyang hareupan
u es
Ġs euneu
Ġpam arÃ©ntahan
ell er
ĠSas tra
Ġh ij
Ġi wal
ĠtÃ©h nologi
Ġsamb ungan
Ġngal uarkeun
ff any
Ġs Ã©k
ta un
Ġ ec
Ġend og
ĠW ord
R ep
u atan
Ġdi ayakeun
ĠUk uran
ĠL emb
op e
Ġot her
ĠMot if
ang paatkeun
ĠP RO
Ġl ump
any aho
Ġm uk
ain s
ĠAh mad
r ina
ĠD eal
eng a
Ġdahar eun
ep h
K ad
S up
Ġw anci
Ġti ffany
ĠPer ak
Ġh ari
r ed
Ġd Ã©sa
as ti
ur es
âĢ¦ ..
Ġp ig
Ġak tivitas
Ġdr ess
B y
angk ungan
Ñģ ÑĤ
ĠSD N
N C
ĠO l
ĠD AN
S C
Ġs ung
d s
Ġj uru
Ġi f
asil itas
Ġaks ara
P and
Ġd Ã©w
Ġmer lukeun
ĠB ed
Ġb eunang
ĠJ ob
ern ur
Ġm ent
ĠÃ©f Ã©k
n ap
Ġm ig
i os
eur ik
K ap
Ġb ib
t t
Ġsp erm
ĠD ok
Ġ4 9
art emen
Ġal bum
unj ul
Ġd on
ol o
aran keun
Ġ Ã©m
Al l
ĠKor ea
inton keun
eu eus
Ġl ight
Ðµ Ð
Ġc ab
Ġcat etan
ĠHid eung
iw angi
Ġdipik aresep
Ġp ing
Ġny amp
AR D
Ġpagaw ean
Ġl ar
ap unten
ĠT et
J un
ĠR a
ĠH air
Ġind ungna
C ons
Ġkat ingali
ĠFS X
Ġw ay
Ġ200 2
ĠInst agram
Ġkal ebet
OR T
Ġtip e
f ic
Ġcl oset
Ġ aktip
eupas keun
ĠP ics
Ġg obi
ĠGe org
ar in
ig o
all eries
Ġaw akna
Ġp it
ĠL uh
ĠInd ustri
Ġluhur eun
Ġc ir
tr uksi
Ġkab ut
ĠM A
s up
Ø ¬
is ing
ĠR ock
Ġt as
Ġindivid u
S um
Ġh is
ĠPer usahaan
Ġpeng iriman
Ġdim aksud
Ġti ap
ĠBer ita
os earch
Ġtap no
il or
im asi
Ġb engk
ow ok
Ġul ang
Ġb ali
ĠM am
r ing
ĠAb u
Ġs ul
ĠBe ach
Ġny oe
Ġl il
Ġ(( :
any e
il bab
Ġny egah
Ġkam Ã©ra
Ġg ur
ir it
Ġgor eng
37 8
S em
Ġmil arian
M B
2 000
U C
V C
Ġs istim
ĠS und
ĠL ab
Ġur usan
Ġas ing
Ġkot ak
Ġp or
ag ement
ik um
uk ut
Ġdig awÃ©
ĠO s
b ay
ĠN epi
amil y
V iew
ĠL ondon
anc ara
ĠJ alma
aran cang
ali z
ĠSur ya
Ġb antuan
ĠP S
ĠUnt uk
9 00
r ut
ĠPak et
ĠT Ã©k
ta wa
l ia
ub ur
Ġpend idikan
M AN
Ġ Ï
eut eup
ect ed
v ari
Ġj aj
Ġw ayang
olog is
it es
Ã© ja
Ġdip ilih
Ex tra
Ġ uy
ok us
end ah
ĠD in
Ġh ususna
et e
ĠPut ri
ek aran
r ic
al engka
ang et
Ġmem ang
C ategories
Ġk Ã©to
Ġt or
Ġn ulungan
Ġm emp
ĠH ad
ĠS ultan
ĠCl oset
ĠTel epon
W h
â Ħ¢
Ġ1 000
og ohan
Ġmaks imal
ĠPOL OS
Ġ Ã©s
on ia
Ġh om
AK AR
Ġb all
ag n
Ġan j
ĠH aji
J eung
Ġj ip
ĠJ ac
z i
es a
ĠM angga
f iesta
Ġr ap
Ã©s an
Ġkas ohor
Ġup ama
ĠCan ada
F ree
Ġpink world
Ġkim ia
Ġh Ã©jo
ĠR ay
ĠKal Ã©r
engg anu
l ic
J ust
ĠP revious
Ġkat eg
Ġngaj elaskeun
at t
IT A
Ġkont rol
Ġfuck ing
ĠE st
Ġkat empo
200 9
imal is
ĠUt ama
ek na
Ġim an
Ġdic k
Ġc ry
Ġr encana
ĠN ama
Ġsar upa
uks ak
ĠRo ad
Ġngaj ual
ĠC ahaya
Ġg ay
Ġw is
ĠH asil
Ġs emp
ou quet
Ġangg er
ĠMet ro
b et
ĠS le
ĠB eauty
ej aan
Ġnar ik
k om
i asaan
ĠP H
ek i
ĠBag ian
Å £
ent ral
Ġngab antosan
ĠL oba
ĠI mp
Ð¸ Ð
ĠnÃ© ma
Ġj en
Ġny ababkeun
ĠK ir
ac hi
ok e
i ya
ĠS pr
ĠW ork
ĠL eg
Ġak i
ĠUng gal
ĠN ik
eunang keun
Ġblo use
y n
Ġkud a
p ool
Ġin fo
Ġdis adiakeun
Ġpakas aban
ĠAN D
AG C
Ġah irna
Ġs ens
Ġt Ã©ks
Ġpangg ed
Î ½
Ġs ugan
Ġc il
Ġat a
p ork
an o
kr ipsi
Ġn am
Ġkas enian
ĠD inas
ĠK ak
s ak
er angan
ĠU R
ĠAl abama
ĠJul y
Ġj ej
en al
d ip
Ġhar atis
Ġk re
at ak
Ġob rolan
ĠPang eran
{ {
ĠK elas
Ġcum fiesta
Ġbut ts
Ġlem es
B i
ĠA bah
Ġstrateg i
Ġt atan
s un
el keun
r ata
Ġs itu
iny ur
Ġpopul Ã©r
ĠMin yak
Ġco ins
M P
ĠK C
ind er
Ġil ahar
Ġseb agai
k onomi
Ġk ond
ĠS port
Ġpas ukan
IN E
ĠUn i
)) ))
er ta
Ġkir idit
Ã¡ n
T I
ap ter
Ġkal imah
ur s
Ġtok oh
Ġm ix
ĠJ at
Ġsurf ers
id es
J am
ar apkeun
Ġb alan
ut ang
Ã© v
Ġs ih
Ã©l a
Pro f
Ġlem ah
p am
Ġs un
Ã©n ta
p en
Ġk ay
Ġ5 6
Ġker amik
ihar ep
ĠDav id
ut in
AM A
ult s
alig us
f in
n ud
ĠT R
sp ir
Ġl in
ĠB ird
ĠJ eh
Ġul asan
Ġhirup na
ĠD og
Lat ina
ig asi
ĠM ahar
ĠM inggu
ost ing
Ġm Ã©sÃ©r
ĠD EP
ir ik
land ia
Ġb ukan
ĠC S
g t
Ġl yrics
ĠCh ar
end ing
inc i
ĠT amil
Â ¡
ĠL ove
Ġpat arosan
ab ad
ĠS ant
oot ball
G AT
ĠS I
oll ar
Ġn amb
ub aran
Ġ1 10
Ġd ana
Ġbu at
ap uk
Ġper an
Ġdit arikna
Ġmil ik
ic y
Ġ ;
Ġdib agi
ĠmaÃ©n keun
ĠBit coin
ĠK n
Ġsar at
ĠMes ir
Ġm andi
Ġmend akan
ur angan
ĠÂ ©
AL L
Ġad u
AJ U
s ir
uh na
Ġmah asiswa
Ġ6 00
Ġkomp on
Ġh anj
engkep an
ard en
s at
ĠP age
il s
ĠJ apan
p ada
ala ikat
old er
Ġwar agad
ĠSed engkeun
Ġt uang
ip ud
ib atkeun
ej arah
B B
o a
ĠF abric
qu ir
M ay
O V
Ġc ond
ju alan
Ġs ud
ĠN Y
T H
il es
Ġr aga
ers a
Ġ adi
is ar
emb leng
ĠPet aling
erc ayaan
Ġt acan
Ġb ert
Ġor ok
Ġleb ih
b ound
c ak
ĠG ipsum
ĠUS B
r d
Ã© ro
ĠC ai
ff ic
ĠWeb site
Ġr et
fa at
Ġd Ã©ku
ĠA ku
ĠCi amis
ĠK anggo
Ġat as
uhur na
ab ol
Ġd ada
Ġsp eed
h op
ĠPro m
ĠA st
us u
ĠG od
Ġal ami
Ġs api
Ġkaw entar
,, ,
Ġtin imbang
ot s
ĠFor ex
sib le
ĠY ogyakarta
Ġungg ul
Ġbaba en
G B
el e
if i
ĺ ħ
Ġn ama
as ter
uk ung
ĠF estival
P al
ĠK edah
Ġw ajib
Ġper i
j an
Ġperhat ian
ah al
Ġmis alna
Ġ' '
Ġm ain
ĠP enc
ĠP ref
D etail
I ng
p et
ob ian
Ġmas yarakat
Ġa udio
P M
ĠM anaj
ĠCar ita
ariw isata
adeg keun
P K
Ġmen ta
Ġshop ping
Ġt angga
ĠC a
Ġw edding
Ġcont oh
k un
ĠS oc
Ã¨ k
Ġpul sa
ĠG ood
u arga
S ap
ĠH i
ĠO gÃ©
Ġs uci
B aju
E ng
Ġ4 1
sp ecial
Ġtangg ung
Ġengk Ã©
ham dul
s ara
el um
AT AN
ĠPro ject
Pr ess
Ġgag asan
ent ingan
ĠBanj ar
Ġb een
Ġgl ory
Ġnemb ongkeun
ĠS ir
es ional
ĠBl ok
ĠArt ikel
ĠBlo ck
C ol
Ġpay un
ah as
amb at
Ġuc ing
ag ikeun
ungg ulan
d en
ĠP id
ult as
ĠBh d
Ñ ĩ
ĠD am
ĠTer minal
eng th
Ġst atus
ĠJ ur
ĠB udak
H ar
eb ah
Ġbuk ti
as ah
ur uk
ĠL i
ud ag
Ġpan n
Ġw engi
ĠF ood
Ã©r man
Ġbas isir
amb ungkeun
ch i
Ġtiang Ã©
Ġnyar itakeun
t ype
Ġs inyal
ĠSab ung
b uk
st al
ind ungan
ĠAp likasi
ater usna
Ġsep erti
l ac
Ġkam ungkinan
il ingan
Ã©d ah
ĠD upi
Ġthe ir
Ġdib Ã©rÃ©
ĠDa erah
ĠB ill
id ay
ĠG et
ĠÃ ĩ
K ategori
Ġ its
Ġlemb aga
Ġ od
Ġnep ikeun
Ġl is
ab et
Q u
ĠC A
edik si
Ġbel i
ĠI de
ĠTok opedia
eal th
à¯ į
d ag
k lusif
Ġy e
int aro
N ov
m umbai
iv er
Ġkal iwat
Ġmov ies
ta ur
Ġpam adegan
Ġsaj ak
Ã£ o
6 00
vis ual
S anggeus
v ia
t in
Ġpar ka
Ġngad aptar
J an
Ġng or
C omp
Ġg and
ind i
ĠR Ã©publik
ĠC up
ard i
ĠPol os
n ew
im ana
Ġdir ancang
c os
or ge
ad y
Ġl u
ĠÃ©ng gal
ĠS UK
is k
Ġg eu
ik ir
Ġng anc
ĠS pin
ĠS dn
Ġh enti
Ġpag un
ud y
Ġsal aki
ĠPl us
Ġur utan
v ar
un ction
âĢ ĺ
Ġpul itik
Ġdib ikeun
Ġtungt ungna
er ja
Ġp ener
el ek
ana os
ĠH atur
Ãī ta
ĠKom un
2 50
ĠAmer ika
ĠL o
Ġn and
un ing
ĠV i
PN S
ĠC ons
ĠV is
y m
id ik
Ġng idinan
ag al
Ng aran
ial is
ahl ian
ing ton
ĠT om
ĠM ature
T aya
X X
âĢ¦ âĢĿ
ĠTer engganu
Ġb ungk
ĠMet ropolitan
Ã© is
ahl awan
Ġdi Ã©dit
L a
ĠFac tory
U lah
Â ²
um ent
of a
Ġlamp ah
B S
ĠG un
ĠFor um
ĠJeh ova
T anggal
ĠKur sus
Ġs earch
to on
ĠL amp
ĠL ife
ĠE A
ĠCl ass
Ġkad ang
ĠDÃ©s a
Ġgar ing
Ġn ingal
ĠM or
ĠG allery
Ġdo ors
Ġm b
ĠM eng
op h
ĠKat un
Ã©h at
ight s
Ġsup er
Ġg ula
ĠOut door
Ã ľ
Ġkar angan
Ġg am
Ġgol ongan
ES T
Ġant ukna
u et
et her
Ġv irus
ĠKec amatan
ĠKrist us
ian o
if ic
Ġawak nyan
emp atan
Ġm eg
ĠSUN DA
f ect
Ġ Ä
Ġb eautiful
id ah
ij aya
Ġt iti
Ġg raf
Ġrar aga
ven ir
ĠBus iness
ĠS ip
ĠO rang
Ġro jongan
Ġt est
en n
ad d
Ġpat ut
Ġfac ial
P i
ĠY oung
Ġsap uluh
Ġtul ang
erb al
R el
ĠA uto
ĠT Ã©h
Ġy g
N S
ĠW ay
Ġdidi eu
ra in
Ġ200 1
Ù ī
Ġ amat
ĠS uci
Ġpang wangunan
Ġj ati
Ġn asi
Ġag u
ĠKom o
Ġlatin os
o ff
Pro duk
ĠSm art
Ġseri us
K on
ĠK us
a it
Ġt angk
Ġb esar
ĠP anc
ib at
IN D
ANG AN
Ġg anj
Ex clusive
Ġh arta
if y
Ø§ ÙĨ
Ġh d
ĠJ enis
Ġi ya
ê °
Ġb ac
ĠB rown
Ã©h an
Ġsamp un
ĠDu it
Ġl ittle
Ġnatur al
Î ¿
ĠJ os
ĠCom m
8 00
Ġt ingali
Ġ8 5
P AS
ur ung
ong g
Ġsag alana
Ġl awan
ĠD at
ok asi
Ġngah aja
Ġd ah
urn i
ĠK ategori
Ġg aj
eul eum
out ube
ish ed
s c
v ille
at ah
un ÈĽ
Ġh el
Ġc olor
Ġr ate
Ġpant y
apor keun
ĠØ ¨
im antan
ĠK AR
Ġwh o
Ġcoll ection
C ai
Ġt ih
ĠF ashion
ĠDew i
ĠS S
ĠL oss
T ype
ĠB AND
ĠD ate
aran an
ĠTr ad
amÃ©m Ã©hna
Ġcr edit
J asa
Ġd own
Ġpang ajaran
ĠEng lish
E n
Ġmund ur
ecut ive
Ġb ij
ĠM r
Ġsa at
ĠSt ills
Ġbah wa
at ra
ill us
Ġkap utusan
Ġbul eud
Ã¶ n
200 7
Ġs ama
P eng
Ġsi ze
ĠKar Ã©ta
alik ota
ĠK um
Ġn ame
ol ina
Ġmer enah
Ġub ak
G eus
d ong
Ġsch ool
Å ŀ
ou venir
Ġup acara
ENG AN
ĠKep ala
Ġt amu
ĠK ecap
Ġh unter
IV E
Ġl et
ĠM ill
ĠD KI
Ġkar ena
Â ®
Ġl and
im ini
Ġdic okot
b onus
Ġser at
ĠY our
Ġkap as
Ġbung ah
' t
ĠD aman
Ġfant asy
ĠS imp
ij a
g ar
Ġl ist
ĠDi y
Ay euna
in keun
Ġ8 8
ĠX L
ĠUl Ã´n
ĠS in
aw arkeun
Ġk opi
and er
Ġlal u
Ġaw i
Ġnag ri
Ġn umber
Ġlat est
Ġtur unan
ĠTamb ih
ĠF ort
Ġkap an
f ik
Ġn ad
Ġh iburan
ĠD aptar
Ġsak aligus
Ġbab i
Ġc oklat
Ġpro duct
Ġkap erluan
Ġidi ay
h ers
Ġsol at
K S
Ġt uk
ol at
itan ia
Ġmaw ulÃ©
ĠQ uality
ĠK m
V D
ĠSh irt
K ota
Ġpang sa
ĠFeb ruari
ud uk
Ad ditional
Eur o
ĠH art
ĠPost s
Ġma ip
ĠC re
ump ul
Ġpay day
ĠL as
ud ung
ĠFlor ida
Ġb Ã©ntang
n ot
Ġm asi
g rosir
k ab
Ġng umpulkeun
Ġpak akas
oth ing
ĠL euwih
ia an
Ġam in
EUR O
I m
J adi
Ġr ef
Ġr atu
Ã©r Ã©k
Ġek sp
ĠN ude
ĠF ir
ip p
Ġm iw
ĠK UR
ĠC ry
D ec
U A
Ġc ode
Ġmin uhan
bl og
ungg u
ungg uhan
eg et
engg ara
ĠØ ¹
Ġb angun
b asa
Ġdi atur
ĠAn kara
ateg or
W il
} ,
Ġbak u
Ġangk utan
n ic
ĠL oc
Ġny ak
Ã©s us
Ġngal angkungan
ĠEUR O
Ġn ia
ungk ulan
Ġwar ung
1 01
Ġg alleries
Ġd uk
ou ch
Ġun limited
Ġpak et
Ġn in
Ġj ani
ec es
Up ami
ag eur
ĠN ot
ĠH at
Ġj awa
bo x
ur ity
Ġ" $
Ġs unt
Ġs ide
Ġc ol
akt ur
Ġdi al
ĠU d
Ġsup l
ĠAl bum
m ud
ĠP eny
ĠÃ©lÃ©k tron
G AC
Ġm imitina
z an
Ġsal war
Ġc antik
Ġpam asaran
ĠSt ore
IN T
ort s
Ġkab upat
ett ing
ĠJack pot
ĠM ari
emp eng
ĠDes i
ĠDe ep
Ġny ambung
Ġsup ados
et i
Ġsal ira
l um
Ġbeur ang
Ġaj ak
ĠDo ors
iks imini
ĠØ £
h t
Ġm imitian
ep end
eg o
Ġp ola
ab ase
Ġper enahna
ĠM os
lah raga
ĠGr and
Ġdi antara
Ġc eurik
ik u
ay ungan
ĠB eng
Ġsak apeung
Ġtel ah
Ġbat ik
ĠFil m
mh cb
mhcb mh
Ġanak na
N G
Ġ ih
ar ya
ub ernur
Ġdib andingkeun
ent e
Ã©nt ah
ĠF in
Ġdih asilkeun
ĠJ udi
ĠS istem
Ġas p
anc y
Ġs uka
un tr
ĠV ir
Cont oh
k ul
ĠK W
tÃ© in
itud uh
Ġb on
ĠKer ja
ĠKh usus
Ġmas jid
Ġmak an
ĠA lex
ĠT uluy
S arah
Ġc angk
Ġc Ã©k
Ġbeut eung
C at
Ġn eng
Ġm or
uw an
Ġl ook
Ġmind ahkeun
ĠMent eri
ĠP ack
Ġj e
Ġny er
ĠF it
ĠIntern asional
oul d
ĠSW T
= "
ala xy
Sh ow
W eb
ĠJ ag
J awa
N ama
Ġ Ã©p
Ġkal apa
ĠHand job
Ġng anjang
on ing
ĠK ilang
ĠI II
art h
as ing
F I
Ġnu d
K EUN
ĠF ebruary
Ġw ater
Ġjar ak
ing et
Ġan unÈĽ
ul ation
Î º
Ġm oy
Ġcl ass
ĠM akan
ĠN us
ĠJ o
raz il
ew ek
Ġ12 5
ix I
Ġli ar
Meta Cons
i eld
C O
ĠPrint ed
ag ing
ĠPan as
Ġkontr ibusi
AKAR TA
ĠT ukang
Ġman ah
ĠP ondok
ed ar
am ad
ĠC asinos
ĠG obnyan
ĠNg ab
j p
Ġc ase
sh irt
j et
ĠSt and
Ġak tif
d et
Ã ¥
ĠSel ect
Ġdik al
Ġnamp a
Ġkab iasaan
Ġfac ebook
ent os
Ġtong g
arib asa
k m
s ip
Ġn en
ug ikeun
ut ion
riv ing
el it
Ġkabut uhan
Ġpint onan
b s
ĠC L
Ġna ek
Ġ8 00
ĠSal ian
Ġinv estasi
ĠPref ixI
ĠJ ati
Ġbak ar
Ġrep ly
f ord
sp ot
ĠÙ ģ
ä º
ust y
ng ah
Ġs ong
S ur
ah ah
Ġny ingk
ind o
Ġw ell
inc ess
engk ah
ĠPro p
Ġpes awat
Ġaf ter
d ut
Ġteu as
Ġpar am
ĠPin ang
ĠAr m
ĠShop ping
ĠH ow
Ġun it
Ġt ohan
ĠT ik
ĠKar ang
S ing
eu et
Ġk ilang
Ġp ri
ĠB ER
ĠOr gan
Ġsing le
Ġmanaj emÃ©n
Ġdew asa
H T
l aw
angg uan
Ġl angg
Ġsab alikna
ĠB ung
ass ar
any akeun
ĠK U
B C
ĠM imiti
Å «
Ġsuks Ã©s
P ad
ĠS ER
ĠB ir
ĠT ab
ĠN ajan
ĠW ah
200 8
ĠM oh
amp ah
Ġaw ay
N othing
y cl
ĠP hotograp
ĠB ingo
Ġng inum
Ġmang aruhan
ĠKal ayan
Ġbo ok
Ġmen jadi
ros oft
á Ģ
Ġlal ajo
ĠServ ices
A E
r ess
ĠM uk
od eu
ĠV iews
Ġtar ik
il akaan
ater a
ĠSing apore
ĠD on
st yle
s ab
ĠB ack
os en
Ġper m
ĠM uter
adi es
Ġbeung har
j ar
Ġs if
Ġl eupas
Ġsel atan
Ġt ambah
ol obaan
ĠJ Ã©rman
ĠJ el
Ġ ]
Ġ ok
Ġkap entingan
Ġn abi
si al
H A
1 000
Ġkomp et
Ġkor si
ç ļ
Ã© lan
Ã©mb a
f tar
it ure
ĠC ut
ian ak
P rop
l ink
ĠAn ti
eul eu
orm on
Ģ ì
Ġm Ã©ng
ĠS eb
ĠR S
ĠG el
ĠPro t
Ġw ear
ĠBel i
Ġs und
Ġb ro
Ġdi angkat
Ġj and
lak uan
ep ung
eg ara
ĠTer baik
ĠPan tai
Ġart is
Apr il
ĠC er
ĠL ink
An d
j ad
j ung
ĠMart in
ĠY Ã©sus
AG T
ĠSek olah
w ana
l ate
ĠOn e
tion s
Ġw eh
Ġka ahlian
ar u
Ġf ind
ĠProduk si
Ġd Ã©n
Ab di
O ct
ĠC R
ĠUn ited
eungit keun
euw as
Ġpr as
+ '
K L
T empo
ĠW ir
ĠSar ikat
ĠGold en
G ambar
s ch
Ġl ine
ev isi
** **
ĠYun ani
A w
Ġkel ompok
St asion
fi ed
S un
Ġp riv
Ġng iring
ĠW omen
ĠÃ©n ergi
Ġmaran eh
Ġwith out
k n
Ġk ari
eh i
ug ia
Ġsak ur
u ai
Ġsal ami
D aftar
Ġb anyak
Ġm anggih
o os
Ġp eg
ĠP adahal
Ġda Ã©k
sp lit
Ġlanc euk
Ġkateg ori
ĠB angk
Ġf at
P ot
ĠJ um
Ġw ong
ĠI da
ak ina
ay un
ĠY a
Ġjawab an
g en
s ter
ov asi
AM AHA
word s
ar eng
ĠJ ava
ĠSu its
b as
Ġl aku
ud ara
Ġnep ika
Ġsapop oÃ©
al angan
Ġsal uran
ont o
Ġmus uh
embleng na
Ġ ....
od es
uc ks
ĠF ru
Ġpang arang
Ġpros es
umb a
ĠSt eel
ĠPam arÃ©ntah
elu aran
Cart us
j ah
Ġd etik
Ġmont h
Ġr iw
Con tact
Ġd uka
Ġs ig
ĠK eny
ĠAk ang
ĠAma zon
acam ata
s ap
Ġp eur
Ġ5 8
anc ing
Ġpangl uhurna
R em
c ed
in fo
ĠC PNS
ĠJ ose
E A
Ġsp es
Ġf ace
Ġint eg
ĠanunÈĽ ul
Ä «
ĠG otna
Ġmod Ã©r
Ġ ÙĦ
Ġk asa
Ġt ind
Ġ5 4
Sal aku
OK O
Ġmaj alah
ĠM ana
Ġw ak
lo y
As s
Ġkul iah
la im
ates an
l is
ĠT ap
uk ota
em u
Ġca ang
0 21
Ġp angk
Ġtan aga
Ġgener asi
H atur
ob atan
K ah
v eksi
Ġ9 5
Ġhar epan
ĠK op
ĠAp p
Ġkep ada
ij ikeun
ahan an
ĠAr g
çļ Ħ
ĠA rea
up ing
ek ah
imb it
ĠS EL
Ġrunt uyan
Ġnel epon
it ional
Ġngah ar
OM P
Ġleb et
ĠJam es
ĠS AL
ĠT EL
Sh irt
ĠC it
ĠSil iwangi
urr ency
ĠI R
ĠR ent
cr ipt
in er
Ġt ali
Ġf t
ĠBer k
eunt as
z o
Ġdib ere
E Y
s d
Ġuj ian
ak keun
Ġr er
ÃĥÆĴ ÃĨ
r im
ĠRas ul
ĠB ari
uc ing
Ġlul us
Ġl as
ĠH an
Ġdet ektor
Ġkar uhun
Ġtar ot
ĠC g
ĠC ocog
ĠW arna
Ġsup pliers
euj eung
Ġjang ji
ĠM AL
Ġt eb
ĠK ode
Ġ6 4
ĠSt ock
ĠR ead
Ġ5 9
Ġb ouquet
ĠMas ter
ĠB on
Ġpang aj
Ġb ek
Ġs ug
Ġs Ã©s
ull oh
Ġnyat akeun
Ġf asilitas
l ist
anj ar
ĠÃ©nd ah
ip al
Ð° ÑĢ
iny ara
Ġpok er
Ġf ollow
ĠGl obal
") [
Ġd istro
hamdul illah
Ġs pin
ah ir
ĠS osial
Ġperc obaan
Ġb aja
E O
r uk
Ġon ly
Ġkolot na
Ġh amb
ula u
â ĸ
ist ory
ĠRob ert
âĢ ³
Ġin cl
Ġlap isan
Ġeks lusif
ĠUn it
Ġgag al
- ")[
ĠS aha
ik ulum
euh eung
Ġpost date
(" -")[
Ġg anda
ont on
Ġdesign er
ĠM ain
ĠâĢ ĭ
Ã©r Ã©s
ð Ŀ
ur ut
Ġng ul
em ahan
Ġf okus
Ġkomun itas
og an
Ġnyal ira
ĠH ayu
eh enga
Ġbu in
ro om
Ġr aya
ha el
n as
Ġ ear
Ġj antung
ĠM eureun
aktip keun
er ry
Ġal iran
U AN
ik al
um asar
AC A
ariw ang
g in
rom o
C L
t ah
ebet keun
CC C
ur y
Ġmi u
ĠsanÃ©s na
Ġt ump
n ang
Ġst ock
ĠRos ul
Ġng umumkeun
ĠT ipe
Ġc it
ĠD asar
id as
ĠJ on
om et
Ġh eur
Ġas lina
IN AL
ĠAw ards
Ġtib atan
Ġg imbal
ub ong
( '
ĠD h
m ak
er ial
ĠE mail
Ġ5 7
Ġner uskeun
ĠFilip ina
k ang
ĠG amb
SM P
Sare e
n w
ĠRes ort
. âĢĻ
Ġm argi
ĠJ anten
Ġpemb ekal
aaaaaaaaaaaaaaaa aaaaaaaaaaaaaaaa
ĠR i
Ġhid ep
Ġst abil
ĠNg ag
Ġkam u
Ã©ntr Ã©
ĠTum uwuh
z mir
Ġkos ong
ĠB eureum
Ġc le
ĠKor Ã©a
B P
n c
at awa
Ġf ak
Ġber es
Ġt ir
ĠH ip
ĠDen pasar
Ġpal su
ĠS us
ĠS av
Ġkon Ã©ng
Ġwh at
Ġreview s
ĠT AN
Ġak hir
Ġnyeb arkeun
ĠU lang
Ġser angan
ĠSaj aba
ac her
uma ah
eureun keun
Ġmont hs
Ġdiant arana
ĠC AS
ĠCent re
Ð° ÑĤ
Ġdal apan
Ġm ai
ĠS eri
Ġw ah
Ġdun ia
l ace
Ġdi am
temp le
el akan
Ġpol itik
Ġpeng el
Ã¼ r
ĠBul euen
eh ehe
ĠT ujuan
ĠD om
Ġmet ot
For ward
uru f
ĠK ot
a is
umb ar
Ġma en
ann el
Ġl ak
up on
ĠR et
Ġat ah
Ġtiti ang
ĠK ali
ĠN am
Ġgad is
ĠDa Ã©rah
ĠPort ug
ĠB R
Ġc otton
ĠH am
ant eu
Ġj angka
Ġan a
Ġny ekel
Ġkap ang
ĠKah irupan
eu i
is ma
el es
ĠInd ustr
Ġda ftar
Ġsum anget
i D
Ġform at
Ġh og
Ġ| |
Ġanjeun a
Ġngur us
a e
v d
emb ah
mi ah
rah im
alif orn
Ġkam ajuan
Ġt am
Ġim ahna
ĠspÃ©si Ã©s
ĠP adang
and ia
lo ud
à ¹
ut u
Ġsa e
ungg uan
": {"
ĠQ ur
âĢ º
Ġr ub
ĠL and
ĠR adio
Ġf oto
Ġs oal
ĠS unan
ĠT ir
ĠL oka
Ġdong eng
Ġ Ã©t
ond ay
Ġam al
Ġ{ {
ĠJ ar
k ir
Ġk umpulan
Ġg eg
T een
ar es
Ġg una
Ġr up
Ġ5 2
Ġs and
Ġg old
aw ara
ĠD aftar
00 1
urn iture
Ġt and
ab alu
Ġw in
ĠF ly
euh an
Ġac c
Ġh ip
ot her
ĠL ang
Ġkap ercayaan
C OM
Ġf ashion
fir m
Ġb Ã©n
ĠL ucky
awa i
ĠNya i
k es
AL A
ĠK amp
ĠK umpulan
Ġpam ungkas
1 20
id an
ĠH el
op er
Ġk ej
Ġc re
usi ah
ĠP riv
or asi
M et
Ġpr insip
B u
n xx
Â ©
uj ang
Ġongk os
P hotos
S anajan
Ġf ound
Ġin stan
M am
Ġj adwal
B uy
ĠJ es
Ġkab ag
Ġserv er
Ġn ini
}, {"
Ġng and
ĠD ari
Ġpad ahal
ĠM AN
anc es
ĠE pis
Ġkaw ijakan
d ownload
Or iginal
ĠF re
Ġdes a
oh o
m g
t en
Ã© al
ĠD ic
ĠH ung
awas an
Ġpant es
Ġs ome
amp ur
Ġta u
Ġl ike
Ġp re
ent es
ari f
ch es
ĠN or
Ġsar ung
Ġkud i
Ġkit ab
ig e
Ng ar
P ak
ĠWord Press
k ot
y on
ĠH ari
urr ent
Ġh untu
j eng
Ġsi ya
ah arna
ĠM ake
Ġdip ingpin
Ã©ng an
Ġap ril
Ġr ape
Ġrac er
ĠH y
ag ung
ĠT agged
il ity
ĠBr and
Ġs q
ĠD aya
Ġdiro bah
M at
ĠC antik
Î¹ Îº
S ajarah
w at
ĠS AW
ay ung
ent o
Ġh uk
Ġc ita
ĠDip ingpin
c ut
ĠC ock
Ġpend ek
pos al
Ġkompon Ã©n
S et
b el
Ġcon c
Ġng undeur
Ġs ina
Ġp is
Ġm ert
ro Ã«
Ġr ay
St ok
J akarta
k op
u angan
ĠM u
Ġbag i
tÃ© ng
Ġsab ada
Ġhur up
Ġthe y
UT C
Ġmul ih
Ġmemb uat
Ġdi adegkeun
ĠK ey
ĠL um
Ġwil ujeng
onal d
s ih
ĠY ellow
ark ali
Ġganj aran
ĠSem arang
eat her
Ġd ed
ĠM emb
Ġpos itif
N alika
g ing
ak ti
Ġpang iriman
Ġbur uan
ĠHal f
1 10
ab ungkeun
ĠPr ess
Ġt ata
ĠM ata
el is
ĠW A
ew ara
Ġba ik
Ġaran jeun
ĠKam ar
ĠBat ik
as keun
et y
Ġpl astik
UM B
Ġn ext
ala ikum
ĠPas undan
L I
uk aan
ac y
Ġkag ungan
G P
Ġpang p
V S
f l
Ġ à¤
os p
ek tur
unt ut
ĠÐ ²
ĠkÃ©n ca
b z
ĠRob ot
er hana
ĠH entai
Ġim age
Ġsah enteuna
ĠCh at
ĠTL P
eung eun
Ġw r
ĠD R
Ġsab ar
Ġngab ejaan
ĠB ot
Ġko in
pons e
r in
Ġn aan
ĠRoy al
c at
ik ator
Ġg ul
ĠO lahraga
ater ial
ĠIde as
Ġb eus
ĠD PR
Ġpu isi
it ana
ĠC ak
Ġbers ih
ĠSh ah
Ġmod al
Ġkin erja
ĠDeal er
Ġs iki
Ġng om
ĠMaj alengka
n ia
Ġsw asta
Ġsquirt ing
ĠDaman sara
c aiib
r Ã©s
ĠSt ation
Ġbo at
Ġlant as
Ġ ì
ĠT atar
d f
Ġm ati
uk tikeun
ĠWall paper
z ine
ĠN EG
end i
Ġpop ular
Ġnang ing
eun ana
Ġf aktor
Ġand a
ĠB engk
ĠC omb
Ġdis c
Ġz at
Ġbur ung
Å ĭ
ĠAP K
vari ant
it amin
ud in
Ġman y
Ã©g al
s ung
ĠT eh
ĠF iksimini
Ġpes an
Ġpot Ã©nsi
Kal ung
Ġger akan
aran si
Ġdis ney
ĠAss oci
ar as
Ġsar Ã©
amp uh
Ġper lakuan
Ã¨ ng
Ġul Ã´n
ĠB upati
32 140
Ġ0812 378
Ġ0812378 32140
ĠS AB
Ġpan umpang
Ġt empo
ĠH ukum
Ġkas akit
ĠElec tron
and o
Ġpan angan
ill ing
ĠSup pliers
ĠTan pa
Ġm ust
ac ak
ip a
Ġman ipud
ĠMan ager
ĠBr itania
Ġbing ung
B eauty
j aiib
Ã© ma
ti ed
ond ang
ĠAw ak
p ak
Ġn ab
ĠK ay
Ġbab agi
Ġmah al
uc ung
j ug
Ġp ituduh
it oy
Ġg ering
ĠH ij
Ġin str
anten keun
pl es
ĠSol ar
Ġn eu
Ġun inga
ĠLat inas
ĠCont rol
in ation
Ġb is
ĠSat in
ĠRad en
I k
og o
Ġto e
ur g
Ġj emp
Ġsar is
Ã©nd er
Ġngir ingan
Ġny angka
Th is
Ġb b
ĠT ype
G o
eun an
ĠB eat
Ġngar up
Ġpul isi
Ġ1 01
ĠG ot
ingg ih
eam ing
Ġpangged Ã©na
ag en
Ġ5 3
ĠAm an
Ad olescent
V ideo
Ġh ese
ĠI ran
ĠAt uran
m us
Ġ oks
as ok
Ġuc apan
Ġal tern
bit keun
Ġsib awa
urid ar
ĠWh ite
P art
S im
ĠG an
Ġbar aya
M in
P ER
Ġkal ungguhan
Ġpan j
har eup
ĠD alam
ĠV er
d ata
Ġt umb
G S
Ġm l
Ġr ent
ov ern
iw ir
Ġcust om
æ Ĺ
ĠT as
ĠKin abalu
m ang
ĠSil ver
an ak
ĠA tawa
Ġkur sus
aram id
ĠE th
ĠPro dus
y awan
ĠN anging
Ġf it
Tr ans
ac ana
Ġth an
E UNG
Ġt akt
Ġn ahan
op yr
Ġngal ih
SM A
T D
u aran
ev en
s m
Ġng anggap
ok er
Ġot ot
ĠKan ada
Î¿ Ï
Ġd apur
oh a
oh n
Ġsum ebar
ĠSex y
Ġl es
ĠE mp
Ġkab uka
ungk ur
Ġim port
Ġju alan
Ġtrad isi
w ang
Ġn angk
AC K
ĠâĢĭ âĢĭ
ĠWikip edia
Ġart ist
r us
Ġs ac
ĠL uhur
hi asan
ĠKac ang
ĠC incin
Ġf em
Ġst and
ĠDistr ict
ut s
ĠH ak
AG A
Ġbr ab
P I
k ota
Ġny oba
Ġt ing
ĠR ama
à¤ ¾
u wa
es is
ĠK han
Ġy euh
Ġdip as
im inal
Ġhog tied
d ik
Ġt ingal
Ġintern Ã©t
Ġt on
Ġr uang
ĠE nya
ungt ung
u alan
ĠK AD
int ah
OS IT
el ing
ĠJ abar
op t
Ġy an
Ã´ t
ĠPany ambung
ĠA K
os h
unj ungan
Ġbab e
Ġbar atos
ĠPak istan
Ġnaw aran
Ġsus unan
b ook
euw ihan
aliforn ia
ĠS oftware
Ġng uji
ĠW aktu
ĠK udu
ĠPil ihan
Ġkany aho
aksana an
Ġl el
ĠF air
Î½ Î¹Îº
M us
ter y
Ġ5 1
Ġpad agang
ĠyÃ©k un
un k
ĠM ama
iti us
AL I
ĠAd am
Ġdikal uarkeun
Ġj aga
ant h
ĠKar awang
Ġb ir
Ġg reat
Ġf ot
ĠV an
ĠV id
Ġwakt una
Ã¡ s
ay asa
Ġh ole
Ġnew s
ĠMov ie
ur l
up akan
à ´
ĠA G
Ġl Ã©ngkah
Ġr us
Ġkac ang
7 00
d am
p rop
Ġ Ø§
Ġm eu
Ġh iber
pap ers
E V
K eur
as ikeun
Ã©w an
ĠKal imantan
uluy na
f igur
in f
Sp ecial
] ,
Ġbag ja
ĠAM iD
ĠMic rosoft
Ġsangg up
ed ur
etail s
Ġng ara
New s
vin si
N I
andar Ã©n
ĠKaj uruan
R umah
aw ati
Ġny obian
eres keun
an e
Ġp ake
ĠBer ry
L O
k oh
Ġm g
Ġf abric
ĠMaj alah
Ġger ak
opyr ight
et ah
ON T
ait un
Ġl im
ĠJ apanese
U s
il ihan
ta c
Ġc ageur
Ġmas ak
Ġ use
Ġb iru
it una
Ġng as
ond e
Ġj as
Ġsud ut
il er
Ġ( +
d ir
ul er
n h
op at
M ag
ĠT enggara
ĠPro mo
Ġex tr
ĠmÃ©d is
Ġb ant
Ġh or
Ġr eujeung
ul ak
el o
ĠD ij
ĠJ end
Ġtrans port
ĠCan on
ĠYah udi
J UAL
z er
ë §
ĠS aran
ajib an
b ak
Ġk ok
Ġl awang
ĠKah iji
ur itius
un akan
Ġpro yek
tain less
ĠÃīl mu
ĠC le
op y
Ġpan nak
Ġpam ar
Ġprof il
ĠK AM
Ġ7 00
ĠTer us
g ed
Ġl om
uy ukeun
H air
Ġ edit
m ur
ĠR ek
Ġmas sa
Ġst art
Ġngam ekarkeun
ĠReview s
ĠCoup on
k ing
al ikeun
aks Ã©s
onom an
ool s
¡ Ù
Ġan c
Ġkom b
ĠBib lia
Ġpengel uar
Ġk areta
T eras
ĠAp artment
ĠMar keting
+ :
: :
R eg
ĠG alaxy
Ġdit ambahkeun
ĠSa udi
reat ment
E CT
i u
ul ah
Ġg udang
ĠG ur
Ġmak eum
sh ack
b erg
Ġ å
Ġw alon
d om
ĠC itakan
Ġw ere
ĠAw an
Ġt agged
st ar
al d
Ġt v
Ġng angg
ong ton
ĠKeny on
U k
Ġ Ã©d
Ġg anti
Ġap k
S c
ĠTra in
ĠJal ur
S ed
h el
ul intas
P l
ĠS he
ĠS ib
ir al
op ter
Ġunivers itas
qu es
Ġche ap
H igh
Ġm eja
ĠSu it
uluy keun
s an
ĠAy alon
h ak
ĠT ext
ian s
ĠPul sa
G al
Ġsup plier
P at
z im
ib ah
ĠS ov
em ah
Ġim ut
d ar
Ġf ikmin
Ġst asiun
Ġkac ilakaan
ĠPal ing
ĠGol f
t ok
ĠPan el
Ġh ome
ĠN orth
ĠF ar
Ġsperm shack
Ä ķ
ĠNg ad
uri ang
Ġjumlah na
Ġdep an
12 5
Ĺ ı
Ġdi us
Ġter p
Ġni at
ĠkÃ©nging keun
Ġs Ã©m
ab it
and aran
Ġter k
Ġtaw aran
ĠT angtu
ĠJ ust
Ġka unggulan
ĠAp ple
ĠS A
or ama
Ġ aja
as is
ĠM all
ĠF ax
euh na
ish ing
Ġang a
ĠTut orial
c art
ĠT at
Ġre els
es ta
Ġged ong
ĠBr ush
Ġmus ic
ĠBu ah
T an
an ian
ĠJ imbaran
uy asha
Ġag ar
Ġkacam atan
Ġc all
Ġhar us
ĠBur sa
Ã´ ng
anj ut
ĠAy at
J ul
L agu
ĠO RI
Ġ6 50
Ġbad an
Ġpil ari
Ġg angguan
Ġlump at
ĠB ol
and Ã©n
ĠBo obs
ĠâĢİ [
ĠS aterusna
Ġl ambang
ĠG as
ÙĦ Ùĩ
Ķ ¨
Ġm engg
Ġng ubaran
ĠE ast
Ġtik et
Ġh ere
ab atan
Ġsag emblengna
ĠAh li
ĠDÃ©w i
Ġdig anti
Rel ated
ent r
Ġtog ether
T at
eg i
Ġpan el
ind ahkeun
Ġkab ogoh
omat ic
ur on
ĠJ AKARTA
eung g
12 3
Ġkel ly
j aman
ul isan
OS IR
Ġcom ments
ĠSle eve
y i
ĠKar ya
F ac
j al
in st
ĠC ustom
ĠÂ» Â»
eny ana
Ġaj aran
er ek
Ã©t e
T ur
Ġm ekar
Ġn ight
Ã©n tar
Ġcon tact
L al
um si
ĠC AR
em ade
ant in
Ġpro pinsi
Un d
Ġr emen
ebut an
Ġla un
Ġs taf
Ġst eel
Ġ18 0
b ener
ĠP P
ĠO bat
ĠV ideos
Ġpam ikiran
ĠC all
Ġ usa
enc es
ĠP ir
Ġkas ar
Ġsat ia
b k
Ġ enc
ĠB iru
Ġny angk
loth ing
z ing
Ġrum aja
Ġj amb
ĠH AR
ip as
ĠAd d
ann er
Ġdeung eun
ĠM C
Ġsal ian
ĠY Ã©n
ram ayu
es ti
ul eng
Ġngarup akeun
Ġkom a
W aler
ĠO S
Ġngag abung
ĠAd olescent
Ġcamp uran
F r
rop is
per caya
as ian
Ġn ear
Ġl aser
im i
aj ur
ud an
okol akeun
S ep
ab hi
Ġsat uju
par ent
ĠPet er
k k
Ġj agat
Ã©r on
Ng an
Ġlang u
j e
im edia
Ġg ood
Ġmin eral
ock et
Ġh o
h ib
ĠS amb
Ġl ad
Ġl uh
ĠR oman
ĠNg ah
Ġul i
Ġpenting na
ĠS emb
ĠP K
iti ve
par ajumper
ak ukan
ĠTar ot
Ġm um
Ġc amel
ĠIn v
ej ang
Ġdik aw
Ġpil ih
ĠK embang
ĠBr asil
Ġil aharna
Ġfr ame
c us
Ġng artos
S ad
Ġt ech
Ġm eta
ĠP ac
Ġin uyasha
anten an
ĠRes ep
ĠB ant
Ġw ujud
ĠEx p
ĠS qu
ĠB razil
ĠPl astik
F C
Ġlemb ut
Ġr apat
Ġy ate
ist ani
Ġn uk
ĠS umber
Ġc anggih
F A
H ow
u ff
Ġn ambahkeun
Ġf av
iv ery
Ġus ed
Ġtid ur
Ġpangsa Ã©na
ĠP anj
Ġ1 30
omb ok
Ġn Ã©nten
ap on
Ġ6 9
Ġngah iji
ĠAg ama
ĠAb out
ĠMed an
at ic
ĠS K
Ġy ellow
Ġjal u
Ġil miah
Ġpes en
ĠB apak
ĠR oll
ĠTr ip
Ġpos sible
ĠMel ayu
M obil
Ġl h
ĠT it
Ġsab oh
ore an
ĠØ ±
Ma Cai
ĠF at
Ġpang ant
Ġny arankeun
Ġ" .
Ġngag em
aza ar
S il
l ek
ĠNg aj
IS I
Ġl ahan
Ġneg eri
eukeut an
ĠDEP OSIT
ê° Ģì
c in
jp g
ĠMan ehna
ĠB all
Ġc ad
ĠW id
Ġsep uh
P any
h asil
m ay
Ġpan ik
arik sa
Ġpaka it
Ġv ery
Ġsp ec
on na
Ġ19 99
H I
t al
Ġj an
ĠBand ara
abut uh
m it
Ġj ust
ĠT en
ind ung
ĠAnt ib
ĠT ong
ul at
Ġdu aan
ĠBlack jack
ad in
ĠB AJU
ĠCh amp
AD I
Ġrob ot
Ġt ingk
Ġdi aj
Ġng olah
Ġpas ir
Ġro ng
Ġpup us
p e
ĠA W
und ang
ograp hy
k ari
Ð ¿
ĠL aw
ĠH om
ĠKas Ã©hatan
F L
Ġm ud
ist ing
Ã¨ Ã«
Ġd bz
ot ato
ash mina
inc ak
Ġsang u
Ġjack ets
Ġpok emon
ĠH itam
Ġin j
a ut
Ġm Ã©r
ul ir
Ġf in
Ġmak eu
AD A
uhun keun
al es
ĠC ond
el aran
emp uan
ĠRes mi
Ð¾ ÑĢ
Ġguy s
ĠH irup
ĠBanj ir
' m
n agara
it ute
ĠP RI
ot ion
ail able
s ing
Ġlo ve
Ġcam era
Ġin po
S ex
ĠD al
ĠA udio
ĠF eu
p cs
Ġng entot
ag ra
ant is
ch a
Ġlal ulintas
Ġs mart
il in
Ġdit utup
l ass
ĠF rom
h ijina
Ġn Ã©mb
ant es
ĠW ater
Ġdit and
Ġbengk el
Ġm intonkeun
ak ilan
Ġpak arang
OL D
ĠKet ua
k ol
s es
Ġs le
ab uhan
Ġng unt
ĠR um
Ġsak ing
ĠAp r
Ġsum ur
Ġa unty
ĠY AMAHA
af t
ĠT ea
Ġpany adia
ĠE ma
ej ala
eu euh
tern al
ny ataan
ĠR un
AN I
ĠSum atera
b aju
Ġc ook
ĠC T
ĠD istro
eung p
ĠÂ °
Ġth ough
Ġngag anti
Ġtra vel
Ġprodus en
C ina
Ġs it
Ġpopul asi
Ġr engse
re as
Ġngab entuk
ĠÙ ¡Ù
ĠTw itter
ĠAt as
ĠÙ Ĭ
h ip
ĠG ypsum
ĠY ayasan
Ã©m p
Ġner apkeun
í ķ
Ġb aj
Ġs uhu
Ġad il
Ġjam inan
Ġip un
uk Ã©
Ġpang inten
ĠÏ Ģ
T ube
sub way
P in
ĠS ora
ul ator
tr um
Ġmand iri
T arget
ĠH arita
Ġkal akuan
Ġwand Ã©n
Sabab araha
Ġng eunah
Ġ6 8
Ġag Ã©n
ĠPar ad
M en
Ĥ ¹
Ġditangt ukeun
Ġj ieun
Ġj imbaran
m uwan
w ith
Ġpag awÃ©
Ġuy ah
ĠKa ayaan
Ġser agam
E nya
Ø £
Ġm Ã©g
ĠB AT
us ar
ĠT own
Ã©r Ã©t
Ã©t ik
Ġkar bon
Ġtek nis
Ġdr ama
ĠOp en
Ġseks ual
Ġng ala
ĠD ik
Ġrunt ah
as si
Ġm isi
ant ikan
ĠFeu illus
Ġb eusi
ank er
Pand ora
k ey
ĠT embang
ra v
Ġkap aksa
Ġk euh
Ġm udah
Ġb eun
ĠT es
ok u
ter ior
ĠÃ Ĺ
ish na
C al
an ch
ĠL or
ent eng
Ġpan tai
ĠMel aka
Ġngak ibatkeun
ĠCand ra
h iji
ah ya
ungan ana
ĠDiy os
Ġst ory
Ġters ebut
Ġm ula
Ġn Ã©nÃ©
ĠA sa
ĠD ENGAN
Ġv id
Ġv iew
Ġdis k
Ġsalam et
Ġdistr ibutor
I d
Ġn euteup
ĠS ind
ĠH ong
Ġin ohong
und uk
Ġg roup
ia u
ĠMur al
Ġhan eut
Ġw Ã©nten
ĠL iga
ĠG i
ĠPro yÃ©k
agu e
Ġkomb inasi
J I
ir on
Ġde v
L ot
Ġm ec
ĠD engan
ingg ang
ĠM ES
ĠL uar
ĠR I
ĠNus antara
Ġis uzu
Ġnak euh
eunt eun
T im
m ara
Ġr and
ot i
ĠWil ayah
Ġpangg ung
Ġm ara
el ess
c ular
n n
ĠT am
alam u
ĠNov Ã©mber
Ð ²
Ġgaj ih
ĠP eta
arg o
Ind onesia
Ġt inta
Ġbod y
ro d
Ġmul ai
L ab
Ġng g
Ġman usia
OM E
Ø µ
mi u
ĠSk in
Ġcoup le
Ġm ade
ers ihan
Ġâ ĸ
Ġkamp anye
ĠrÃ©b u
Ġmiw ah
uk ar
Ġr ujukan
Ġdipik anyaho
Ġpagaw Ã©an
P U
S er
e in
ĠM is
el asan
ĠKal awan
Ġdar at
ANGK AL
1 30
Ġn ih
ĠC over
ij at
ĠÐ ¿
N O
ĠJ ud
ĠF ootball
Ġst udi
ĠProf esional
ĠBAN K
Ġk antong
Ġsus u
as tra
Ġl ot
ĠÃ©k sp
S aha
ak h
ĠS ajarah
ing in
ĠT oy
ĠL antaran
IN O
Ġm oon
Ġpar iksa
Ġag ung
ĠSh ar
ars o
ĠP AR
ul na
Ġc ak
alam etan
Ġding aranan
ĠGirl s
ĠC anc
im as
Ġal um
ĠSa atos
erti fikasi
ĠC our
ĠN usa
Ġ" âĤ¬
ĠInd ramayu
Ġngad Ã©ngÃ©
Ġdig imon
ĠÃ©fÃ©k tif
A ug
ĠT ingkat
Ġc c
kit ab
Ġanj og
Ġs oc
Ġt arget
Ġbak at
ej o
Ġd ays
ĠB intaro
ĠF ace
IN S
ĠPET IR
Prof essional
Ġtongg ong
eu eng
Ġm Ã©mb
ĠD C
Ġart os
Ġkor ban
Ġb ogoh
aw esi
ĠN eck
Ġin to
ens e
ĠTr ading
j en
z at
ik ip
Ġa i
Ġv ideos
Ġc abang
Ġpar ip
Ġpen j
imah i
Ġc ard
Ġku b
Ġsang at
Da MaCai
Ġtab el
K ac
ad agna
ĠD own
Ġsed eng
Ġgel ombang
is uk
Ġal a
16 0
ĠSp ecial
uf aktur
g aniz
ĠP angg
old ing
Ġunt ung
S u
z illa
ok ia
M T
Ġm eh
ĠB ers
Ġng impi
ter i
Ġ3 50
âĨ Ĵ
ĠK ebon
us alem
l ung
Ġab ang
Ġleungit na
ĠmÃ©m ang
B aca
p ust
aw arga
ĠAl uminium
eul ana
Ġbr ush
Ġr en
Ã©k tor
E mail
Ġ ida
Ġh ormat
uk t
ib et
Ġy us
Ġlal akon
Ġvis ual
B R
ak o
at uan
Ġman ual
p x
Ġ oh
ĠS oal
ĠM eg
Ġsap atu
Ġm impi
Ġdit awarkeun
Ġsem ua
ĠP ada
Ã©r Ã©n
Ġmas sive
ĠBal ik
Ġak ar
unj abi
yt ics
Ġ obs
ab al
Ġc as
ud din
ant ina
ĠTer as
ĠAd dress
Ġar sit
hun ter
ĠPr emium
as ur
ĠD E
re ak
atu it
Ġanal isis
Ã©ku Ã©nsi
M C
Ä ħ
eb er
ĠNg em
z ona
Ġd ate
ĠD est
ION AL
Ġjah at
U r
n b
Ġc ing
Ġ1 40
ĠAn ime
ĠAp i
ĠWil li
te in
Ġh ead
ĠJ ordan
Ġdil arapkeun
fr astr
ĠMen u
ĠFlor ist
Ġs idang
ey uran
P re
ĠD IST
ij an
Ġor a
Ġhot Ã©l
Ġn ice
ĠB U
ĠP int
ab er
ĠKap uloan
C arita
M angga
ĠS ci
ĠE N
AT T
Ġweb toon
Ġl arge
Ġg ab
Ġi os
Ġoper ator
ul Ã©r
ĠC os
Ġap ang
ru it
ĠK lang
ap is
ai z
M ore
en ess
ed er
ost Ã©ron
ĠCont o
ĠB UM
Ġat os
ĠSt ate
Ġmil es
Ġdipik ah
inn er
Ġdos is
es keun
ĠL ook
ĠG arden
Ġb euheung
light s
ĠTH E
Ġr amp
ĠF t
Ġdit inggalkeun
GT C
ĠP ati
ad emi
ĠF ix
ĠMar k
ĠMag ic
D it
or ot
Ġc au
ĠC ook
ĠL ow
Ġth em
Ġkat erangan
ett y
Ġkel amin
Ġprof essional
ĠL ou
Ġngab antu
Ġak al
ĠIb rahim
Ã©st ostÃ©ron
ĠOper asi
p art
Ġamb ek
ĠGM N
ĠB ON
ol ar
ĠU c
r ar
ĠE c
ĠE ye
ĠDo uble
, -
D ir
Ġp aw
Ġc ent
Ġc omb
Ġw unÃ©
Î¿Ï ħ
Ġm eus
ad ion
end s
Ġpil arian
um uman
Ġde al
Ġd akwa
Ġbang bus
Ġrag rag
Ġb awang
Ġpro d
Ġ9 6
Ġob long
Ġpul ak
?? ?
Pr ice
ĠPok er
E d
ar itakeun
ER S
Ġber ita
Ġkel ir
ĠKom entar
Ġbik ang
âĢļ Â¬
c ategory
ak in
ĠT ilu
ĠSak it
Ġwh ite
Ġbalan ja
Y amaha
Ġn onoman
c d
n ow
Å Ĥ
Ġj arang
ĠArt ist
ÃĥÆĴ Ã¢
Ġn un
ĠB uka
ab as
Ġg apu
Ġw adah
ĠL eaf
L C
ĠP ilih
Ġng aliwat
op s
Ġd rive
op a
her n
ĠT uhan
ob ih
ek en
Ġrek ening
ĠGed ong
Ġs os
ĠD VD
Ã©d ana
Ġleb aran
D I
p ers
Ġk way
Ġny erat
Ġma ung
ĠRem aja
P ink
Ġr ead
ba ikan
Ã Ļ
ed alkeun
ĠW ash
ĠU AE
Ġkabag jaan
b h
ĠS UR
ĠK OTA
ĠU M
Ġth ere
aks ian
ĠAc ai
Ġsag ara
s w
al is
en k
ĠM AK
Ġmar vel
Ġka um
ĠH imalayan
ib an
Ġpro cess
it asi
Ġr ev
Ġb um
Ġdi ff
Ġan akÃ©
h or
Ġ ic
it z
ĠTok yo
ĠKrist en
Z E
ĠC OL
et ak
GG CC
Ġpangb adagna
ĠD inten
ĠL engan
ato an
ĠP ure
anc ana
ĠColl ege
up un
Ġtind akan
ĠB eautiful
Ġh anya
Ġut ara
Ġsik ep
uc apkeun
ast ing
Ġda ek
Ġbl ue
cr ib
Bl ack
Ġmas s
ĠSu ara
ĠÃ©p Ã©k
C itakan
w ays
Ġh ormon
uj ur
Ġro ulette
ĠUn limited
GT T
Ġ1 15
ĠNeg ara
ĠEpis ode
r Ã©n
eut an
Ġtempat na
ĠGeorg ette
M ad
g n
ic tor
Ġsal t
Ġey e
ĠSt udi
pust akaan
r aj
Ġin form
zh en
S umber
ĠL ee
iji eun
ĠB alan
ĠR ich
Ġf ir
duk si
Ġr utin
ĠW akil
Ġ ë
ul tur
irt ual
Ġsek olah
ĠM und
eri e
Ġmer eka
Ġn um
Ġc aket
Ġg ambaran
ĠH asan
ust aka
R ed
Ð ´
Ġp c
ĠK ata
eur at
ĠO ver
adi un
atur ah
10 5
Ġbah aya
Ġk oran
ĠO h
ist ics
Ġmas sal
aho o
Ġpamil on
e ep
ĠP eg
ĠC alifornia
ĠSM K
bur g
Ġspank ing
Ġsal akina
ĠLuk is
Ġsec ara
Ġp unten
ĠN umutkeun
ĠÎ ´
D ay
s amÃ©mÃ©hna
rog Ã©n
ng an
asa i
Ġkas ta
Ġlul usan
ĠK eun
ĠM aks
ĠG rey
ĠSch ool
Ġmol ek
t ech
Ġkl asik
al un
Ġw un
ĠI V
ep e
Ġngaj antenkeun
Ġdim ekarkeun
A ir
F ax
× Ļ
an oh
ĠM usa
art ikeun
Ã¨ r
taur ant
ep atan
Ġon Ã©
ala u
Ġgraf ik
g mail
Ġp on
Ġng er
ĠC AT
eul euman
Ã¼ n
Ġ ext
Ġb end
ĠN ow
op ment
ĠO m
Ġp Ã©s
ud ra
Ġ7 8
Ġngaw ujud
ĠTour s
ĠBAND UNG
E y
Ġc i
Ġp uja
ĠN EW
ĠL ucu
ĠBad an
Ġto uch
Ġtra ining
r ec
Ġf ix
any ataan
Ġak h
AG CT
Ġev ery
ĠIsra el
n at
ĠH erbal
angg ar
uc uk
engk er
ĠPol y
awak il
p ag
Ġn ow
on line
ĠP enang
ĠK areta
ĠM ik
Ġam is
Î±Ï Ħ
ĠsÃ©s ana
Ġs asar
Ġh aji
id in
Ġper l
Ġngal eungitkeun
ĠPer sib
ĠAc ne
ap ati
ĠT otal
Ġ1 60
ry lic
Ġmul ti
ĠFil ter
ĠProm osi
G D
g ia
ĠL IVE
ent asi
ĠNg eunaan
angs ang
Ġpro tÃ©in
Ġbag us
Ġtep ung
and Ã©ka
ĠW atch
Ġa ff
ER T
anya an
Ġlum ayan
ĠPAS ANG
c le
Å ¾
Ġj ag
ĠF orm
ast ic
Ġpagun eman
ategor ized
C AD
p ong
ĠH onda
Ġf eet
Ġma u
Ġengk e
ĠAmer ican
ol ong
ub ungi
our ces
Ġbl ok
Ġasian s
Ġn anyakeun
imb angkeun
ĠâĢ¦ .
S alah
Ġnip ples
B en
ĠPer k
ĠPas s
Un ivers
ik na
Ġdi ubah
ĠR ev
Ġsal uhur
ĠTeen s
r el
at ujuan
ag as
Ġba u
ustr alia
ĠPu isi
Ġk us
ĠL am
Ġpag es
200 6
Ġn jang
ĠM AR
17 0
ĠBr idal
Ġ Ñģ
ĠAt l
Ġid in
r eng
ons ter
Ġ199 8
Ġsuks es
l r
âĢ¦ ]
ĠKart u
-------- --------
G e
Ġr adi
Ġmin i
rog aming
f low
ĠP ahang
ĠK ai
ĠR at
T UK
ut urkeun
amp al
Ġ19 90
Ø§ Ø±
ë§ Ī
Ġt ot
er ba
Ġpro b
est oran
ago an
untr y
f ac
al ih
ch ure
Ġditar ima
al o
Ġt Ã¡
ĠW ood
Ġngar ang
ĠBi asana
Ġintern al
eung itan
Ã©l ing
Ġmin imalis
iv ing
Ġind ia
Ġpass word
ĠPEN ANGKAL
ur ungkeun
Ġh um
ma in
ĠPer umahan
imb le
OR N
Ġl empeng
os isi
ĠTÃ©h nologi
' .
ĠK R
Ġi y
ĠO ld
Ġman is
ongk ok
P et
R ob
and ra
Ġsab lon
Ġmar iksa
Î±Ï ģ
CD D
b arang
Ġb eh
Ġg igireun
end ar
pr es
Ġseg er
b ud
v y
ĠP U
ĠT imb
uk uran
ac ap
ent ina
ĠDr ama
Ġtek anan
ĠMak assar
F T
ĠT egal
eung keut
eb ruari
Ġs obat
ĠP EMB
ĠN agar
ĠF X
ĠÃī d
ĠFly er
ĩ Î
Ġk aki
Ġb andar
: "
Ġb anda
ĠK ids
ap s
eed s
Ġngunt ungkeun
j aya
Ġsh irt
ib i
imp al
h ul
Ġbut t
atal og
L D
b ing
d uma
r ama
Ġt ai
ĠK H
ĠL uc
it Ã©r
Ġj eg
ĠM ach
ĠO R
ĠSol o
Ġsa ilor
es oris
ĠFac ial
O U
P o
b aj
Ñ Ī
ĠB HD
Ġkons truksi
Ġkamamp uhan
Ta un
Ġperi ode
Ġm ost
Ġb eng
Ġw ord
ĠEx ecutive
Ġit em
Ġbas is
Ġef isi
nud as
ĠW alikota
iz i
ĠCib uruan
Ġblo ck
t ime
Ġ omong
Ġj ak
Ġc enter
Ġny ir
ug ar
ĠDi am
Ġkaw ilang
Ġpad um
dag angan
T o
Ġdip ap
Ġpol i
h ic
r aman
ĠSar ung
Ġnar uto
p op
å ¤
Ġng eusian
ĠBab e
ĠFak ultas
ĠORI G
F D
T ar
Ġp aran
Ġb ilih
im u
ĠL ul
omp a
ĠSen Ã©n
ig u
Ġpam anggih
Ġdom ain
ĠTÃ©k nik
W e
ng i
ĠP Ã©r
us ion
ĠT IM
Ġput rana
en zhen
Ġ1 11
ĠJ ung
ĠG aya
umb uhan
ĠP ANG
Ġdisebut na
on Ã©
Ġ2 20
unc at
ĠAL L
Ġm Ã©kan
il ia
Ġsak ay
inan sial
omb ie
ĠBro chure
P ort
k l
Ġk eus
Ġm uru
ĠB eg
us ul
Ġinter ior
ĠPic tures
an ing
at ip
ĠT CDD
aw aran
Ġsup ir
ĠB il
ĠF ikmin
ĠtÃ©h nik
AT I
Ġkomp l
ĠÎ´ Î¹
ro jong
Ġw eruh
Ġna f
ĠCardinal s
ĠÏĢ Î±
ar sa
ĠS istim
Ġl obana
ĠSh are
Ġmen i
ho use
Ġr euwas
Ġpl ug
r g
ĠS IL
are a
Ġ7 2
app y
Ġnamb ihan
Ġdi atara
il ian
el ak
Î±Ï ĩÎ
Ġbangk ok
Ġn ungguan
ĠM T
Ġx nxx
Ġdes nudas
UM P
ĠAN T
Ġpanas aran
ĠSystem s
Î±ÏĦ Î±Ïģ
Î±ÏĦÎ±Ïģ Î±ÏĩÎ
n ers
es tern
Ġng umb
Ġsab agian
Ġkat un
ÃŃ n
// //
Ġjudul na
Ġpanik ou
ad at
ri ver
ĠSar at
ĠAy akk
Ġperk awis
ĠÏĢÎ± Î½Î¹Îº
P lay
Ø ¶
Ġk euna
ro b
Ġdip er
ĠMan ual
Des ign
TM L
ĠÎ´Î¹ Î±ÏĦÎ±ÏģÎ±ÏĩÎ
ĠÏĢÎ±Î½Î¹Îº Î¿Ïħ
M y
Ġj i
Ġkap ing
ank a
36 1
eunt eu
ĠMic rogaming
Ġmi ara
Ġnas abah
ĠDis c
t ags
æ ĸ
ĠB in
ev an
ĠPel atihan
w as
it ia
ĠG ajah
Ġal uminium
sh op
ĠNas kah
D o
oc al
Ġhot el
Ġsk ala
ìķĦ ê°Ģì
ìķĦê°Ģì Ķ¨
r Ã©t
ong o
angk ar
b mhcbmh
ĠT on
ĠAm p
Ġbab ak
Ġus ing
Ðµ Ð½
ĠKes ehatan
Ġdununun u
D ata
r r
ĠJ umaah
Ġal it
ðĿ ĳ
H asil
ist en
Ġkam ana
ĠPos ter
Ġkontr ak
Ġom ongan
o ice
ed Ã©
Ġr efer
ubl ished
ĠHind u
B unga
Ġs ayang
ĠL ian
Ġ9 8
200 5
Ġwates an
K aj
Ġram o
Ġk aya
ĠS or
ĠÃ ¨
Ġ199 7
Ter akhir
m ed
ĠM ult
ĠB ollywood
Ġbo x
C euk
euÃ« k
ĠKul it
amo an
ar ep
ill er
Ġdong Ã©ng
Ġb row
atan i
atur keun
ĠÃī konomi
Ġngad ukung
Ġhamb alan
k am
s unda
ĠORIG INAL
Ġm iharep
ĠT reatment
ĠC abang
Ġsus ah
ĠSim kuring
Ġnyi apkeun
F O
ad da
ta o
Ġpenc Ã©t
B ag
Ġt entara
ĠS ejarah
il t
Ġf eed
ump tion
ĠMar y
ĠUm ar
Ġ ama
ab Ä±
ag aan
ĠC C
Ġ3 60
ibut ion
ĠIns inyur
Ġimp ian
und ut
kt op
ĠmÃ© ja
Ð¾Ð ²
ĠMaran Ã©hanana
Ġin yana
Ġ19 45
ĠKun ci
ĠKit ab
ĠG ag
ĠBar udak
ĠFru ity
ĠLeaf let
h anc
t itle
Ġ ug
Ġn or
enc an
ĠJam nagar
S ku
U E
Ġr eb
Ġag t
Ġnik ki
ĠRak yat
ĠL ag
Ġmen u
T empat
r ab
v asna
Ġd oc
Ġadmin istrasi
Ġp anggih
ab Ã©h
ĠR aw
Ġsp asi
Ðµ Ð»
AW A
Ġpe ople
s en
ah aha
ĠP un
Ġng embang
ĠMas jid
ĠCik arang
Ang g
Ġpit ulung
ĠJ ASA
Ġf lor
ĠV ers
ef ore
Ġemb ung
t api
Ġh air
Ġ8 6
ĠZ aitun
e aker
t ip
Ġh udang
Ġpan ar
Ġta o
Ġngam angpaatkeun
up si
Ġor der
ĠAw ard
Ġl isan
Ġpang ab
qu est
ĠIt em
ĠW ed
ĠE ropa
ĠAs ep
Ġbab ar
M ac
US T
ĠMod ern
Ġpep elakan
Ġaltern atif
Ġ ingg
ungk us
Ġsed ih
Ġbu ta
Ġsif at
18 0
ĠÃ© tÃ©
Ġpann aka
Ġg an
Ġg em
Ġr it
Ġmot if
Ġs om
ag em
il ities
Ġmer upakan
ras Ä±
ĠCent ral
Ġ asi
all a
ver si
Ġk euk
Ġng en
ĠH o
ash tra
upan ing
Ġn umutkeun
ĠF R
Ġbat in
Ġkamp us
ĠSon rasÄ±
Ġ imb
Ġt ari
ayang keun
Ġjack pot
Ġan imasi
ĠH or
Ġpal ebah
Ġcont rol
B I
Ġr ambut
ya an
int age
AT E
ĠMic ro
Ġp ower
ĠS ta
ungt ik
Ġtah u
ĠrÃ©s iko
Ġm aan
ĠD ad
G en
N omor
ĠH anj
200 4
akk el
Ġsunt ik
Ð ³
Ġp hotograp
ud una
Ġdir ty
ĠMin uman
Ġdes i
Ad dress
Ġmilf hunter
Ġng ing
m os
w ear
ĠS igana
ĠH il
ud d
irl ines
ĠMES IN
B andung
Ġn angg
ig in
Ġmaks imum
Sem alt
N et
Ġt angerang
Ġt ropis
Ġnya ah
h ur
id ge
iz er
il at
ut uhkeun
Ġkat ukang
Ġmanaj er
H S
Ã© ang
ĠSt udio
IN I
Ġngad on
Ġlag Ã©e
O h
S am
U l
ĠP ariwisata
ĠK AL
ĠServ er
ĠAngk atan
s ia
Ġk ayak
Ġdis eb
CT V
Ġtab let
Ġpers on
ĠDir Ã©ktur
ĠBab y
ĠInst itute
ĠIndustr ial
M on
P el
ON ES
D j
ay oran
ter est
ub by
m ap
Ġ à®
ec tive
iv al
ĠBON US
I AL
R T
Ġs ite
ĠO FF
end ak
Ġnik mat
Ġb elas
ĠB ug
ĠL angsung
UN D
ĠSw iss
ĠSec urity
Ġt eks
Ġv er
oj o
Ġl ini
Ġng angkat
ĠCh uridar
ub i
ĠPer m
UL A
ĠSing apura
Ġwaw ancara
ĠP ab
Ġl ew
ĠL ayanan
ĠIn formasi
ĠEng ine
loth es
ĠBangk ok
A Z
i ap
qu ip
T epas
p asan
ar ung
Ġp age
na on
om o
ĠF irst
Ø§ Ø
Ġrar ay
ĠM erah
emat ika
Ġtimb ul
Ġk emb
Ġt ungg
Ġm adu
and y
ĠG ubernur
ĠIm ah
it keun
ĠK AB
ĠB angsa
uj ug
Ġ6 2
Ġsabab na
Ġtat angkalan
br and
Ġos ok
C ard
D esi
Ġr ump
ĠSt yle
In fo
EL L
P ant
å ı
ĠM aya
ĠB ac
eng ahan
angk ala
Ġpal anggan
Ġpanjang na
jam ahkeun
ĠT ang
ĠD ES
oc or
ani um
Ġpl us
Ġpic tures
am id
ab keun
angg akeun
Ġaj Ã©n
Kab upat
B ook
L owongan
P op
Ð ¼
ĠKal am
Ġb eja
ic i
ĠAc Ã¨h
Ġset elan
v ap
um ur
ac ional
ĠMil f
Ġkompet isi
Ġd akw
Ġt atu
ĠB ead
ĠB akal
ĠAm b
Ġ9 78
S y
Ġku w
Ġsal apan
P u
Ġm alam
Ġkap Ã©r
B L
Ġk ula
is aran
ol f
ĠW i
). [
hy ang
ĠMus ik
Ġnov el
ak tif
aj inan
ont ak
Ġâ Ī
Ġngaronj at
ĠB aca
ĠG reat
Ġin uman
if old
Ġout door
ĠF oto
AT S
Ġâ Ĺı
Ġkapas itas
P us
S en
Ġs tÃ©roid
Ġ[ âĢ¦]
frastr uktur
ak ah
Ġn ingkat
Bah asa
S L
g es
ĠP ulau
ĠR ing
eh un
Ġkas ad
Ġsub way
Ġsign if
Ġkec il
Ġmaksud na
Ġtw o
s are
Ġt ampilan
Ġl ife
unj ung
iy ang
âĢ¦âĢ¦âĢ¦âĢ¦ âĢ¦âĢ¦âĢ¦âĢ¦
b azaar
Ġr Ã©g
Ġ: *:
Ġ10 5
Ġtat angga
Ġmab alin
Ġmuter keun
ĠAyakk abÄ±
k um
ĠT AMAN
ĠL ampung
Ġad v
ĠIN G
g p
j in
Ġm ampuh
Ġdi asupkeun
Ġr ank
ĠL ima
Ġid ent
ĠB ub
ic as
Ġngar op
Ġt uh
Ġm ony
ĠV ari
Ġtah ap
Ġpid ato
Ġn Ã©g
ĠT ai
Ġg ram
Ġkam erd
p to
ĠM I
Ġr arancang
ĠR od
Ġny ep
Ġth umb
Ġp ej
ĠA si
Ġj unction
ed ug
ĠH us
AH AN
H and
OR E
Ġpol y
Ġre quir
Ġpem asok
ĠP ublic
ĠA da
tr ik
Ġdit ur
ĠTer b
k ad
ĠW is
Ġ: )
Ġkam ekaran
Ġngad adak
âĤ¬ âĦ¢
Ġinst all
Ġkuna on
K ul
ĠN at
ĠR en
Ġâ ľ
11 5
Ġcar pon
ĠR us
AR E
li er
ĠMus eum
ĠIm am
Ġprodus Ã©n
Ġprint ed
[ [
q uard
r ep
y al
Ġ Ã©wan
Ġb un
Ġh indi
Ġas ak
oh on
ala unan
ingg uan
Ġst one
Ġhid up
Ġhil ap
Ġkre atif
2 40
l s
r ujukan
Ġj ogja
Ġco at
Ġcons umption
Ġmat erial
Ġrat usan
firm asi
ĠC is
und er
Ġal ias
Ġmas ang
anten na
Ġnal ungtik
Ġpes ta
h ai
and u
m ol
o in
p ha
it aan
Ġj Ã©ntrÃ©
ol ia
Ġap pro
ĠMar ia
ĠUk ur
Ġspes ialis
F R
Ġt embang
ect ang
AJ A
Ġngant eurkeun
Ġlaw on
at iaan
ak en
amp ing
ef f
ĠAdmin istrasi
ĠS oft
ĠP UT
ĠB odas
ĠL eutik
ĠEmbroid ery
Ġl un
Ġbob ogohan
ĠIl mu
ĠDel ivery
K ep
Ġdit empo
ĠDa un
Ġwh en
h on
Ġsej a
ĠTel p
M il
Ã©r Ã©h
Ġkaw ajiban
) [
g round
t ag
Ġg enah
Ġsar an
ud ing
ĠY ud
ĠBar is
Ġbi antara
Ġu ta
B an
Ġt ang
ĠL es
ob e
og n
asa o
Ġmon ey
G angbang
g irl
Ġc ari
ĠC V
ãĢ Ĥ
ah akeun
ik er
Ġf inansial
Ġkand ungan
ĠM eh
Ġter baik
Ġpas tikeun
Ġnemb e
Ġs ual
ĠP IN
koh ol
G old
K ey
i Ã©t
in at
int o
ĠDar ul
E ta
m is
ĠC ost
ĠG PS
Ġf ast
ĠTi ang
B M
Ġs ent
Ġp aribasa
ĠR ating
ĠIn f
ĠEn ter
Ø °
Ġk Ã©l
as al
ĠH yang
Ġin ti
Ġbel akang
. :
6 50
Ġm Ã©h
it ah
ĠM Ã©m
ĠN eng
Ġw ali
ok ter
UR L
ach mat
p u
Ġst ud
ĠMic hael
H ij
ĠB any
Ñ ħ
in et
Ġng ari
ĠI ti
Ġsignif ikan
b or
Ġr is
Ġst udio
ĠNy ieun
ĠOr der
Ġ199 6
ĠGed Ã©
Ġd aw
ĠPo int
ĠrÃ©b uan
it usi
anj eng
Ng al
Ġband ara
T in
it ip
ĠD iw
Ġg abung
ok erto
Ġkab udayaan
ash i
ĠD ang
ĠF C
Ġat om
omot if
Ġp edah
Ġr inci
euw at
ĠEn c
R e
ĠL et
Sh op
Ġnasi b
æĹ ¥
f ar
ul in
Ġc asino
ĠC ategory
ep ikeun
Ġdip ic
ĠKad ua
ung u
Ġpar ah
Ġdib ayar
ĠSqu are
on c
ĠW ayan
Ġbet on
Ġdeung on
Ġnyump onan
ĠLal aki
Ġb ogor
ĠB intang
ĠR Ã©k
Ã©b u
". "
Ġb ass
Ġr ight
er ea
Ġm itra
ĠW H
Ġsam inggu
RI B
u it
ĠR ub
ĠSh ort
Ġpaka ian
k ay
ĠM aca
ĠH ead
ĠW IB
Ġkal angkang
Ġtat ar
ĠS eg
ĠG re
Ġkar yawan
ea e
13 5
ĠMad Ã©
big osearch
ĠON L
ĠSemb ilan
Ġad ult
Ġngad eukeutan
Ng eunaan
Ġter b
Ġdib arengan
Ġbo a
Ġtul is
Ġsaw awa
ngah ubungan
d ang
Ġng asupkeun
op o
Ġtaun an
aptar keun
ku ana
Ġent ry
3 10
Ġ own
and angan
emb an
Ġkab ayang
d ia
ĠF un
Ġum urna
Ġhij ian
Ġlangu age
B ahan
N ur
as m
ant Ã©
Ġter l
AS S
olog ical
ĠPang eluaran
Ġex pl
awab an
fi eld
Ber anda
s aan
Ġk anker
ad na
An jeunna
ĠNav y
P H
ĠR ap
uz z
Ġditer bitkeun
Ġprakt is
ĠIst ana
ì ¤
ag ina
âĢ ²
Ġkam eez
ĠBr it
Ġsas ih
Ġjuj ur
ĠM oal
ĠD er
Ã©n jo
ef t
ĠKod eu
ĠEmbroid ered
ĠD ays
ĠI M
ĠH E
pa Ã±
ĠChrist mas
new s
Ġpendek atan
y id
in u
ĠS id
ĠP ast
ĠT entang
Ġman ufactur
Ġdit ambah
k g
p eng
AT ION
ĠAs h
res i
ĠT OKO
ĠSak adang
Ġsip atna
ĠNEG ERI
R efer
T E
Ġs Ã©
Ġm id
Ġl ik
ĠM O
Ġpam ekar
Ġsu ch
Ġkand el
H enteu
o z
ĠL it
Ġngal eupaskeun
ĠSal ila
iss ion
ĠGener al
r um
Ġj euet
Ġg ames
Ġar ab
Ġadmin istr
aw en
ĠN e
ĠG eun
all s
az z
ĠSak ali
ĠKec il
Ġlir ik
d aya
Ġm ugi
ep os
Ġf ur
eus an
ex tra
ĠOff icial
P ap
Ġc ities
ĠD alem
Ġin formation
ĠM IL
ac inta
aw ana
ĠPr ab
our nal
alu i
Ġh anteu
ĠI ron
Ġsar ana
Ġpam ayaran
? ]
ĠN ini
Ġdis usun
Ġ6 3
Ġlap angan
Wil ujeng
Ġtransport asi
B imble
it men
ĠN ight
Ġpol aris
ĠÐ ¸
Ġpaj eg
Ġnutup an
m ot
Ã ĩ
ĠC ita
ĠL aju
ĠL ajeng
ĠH I
ĠGu ide
O ff
on av
ĠG aza
ud no
1 12
A fr
ĠP J
ĠM Ã©n
il ding
ĠD uka
ĠR oma
ĠKab Ã©h
ĠBi asa
Ġsec ond
id th
ib r
Ġag s
iv asi
ĠKu ta
ĠJes use
ĠT og
ĠG udang
any awa
ĠKos ong
Ġteb ih
Ġc are
uar ter
ebut keun
Ġsp am
Un it
Ġpert andingan
P en
c um
Ġs ays
Ġn ump
ĠS angk
ut ah
Ġbal ong
Ġte acher
ĠmÃ©m Ã©h
c ategorized
Ġk eh
ĠR E
Ġkal olobaan
awan an
Ġmin imum
Ġsam em
Ä± r
Ġmur ag
Uk uran
w w
Ġd inding
Ġs ono
as angan
Ġb ewara
Ġh eran
ĠJ amb
ti es
Ġman ufaktur
Ġfor um
ĠReg ion
2 20
ĠMul ti
B O
Ġmal ik
Ġbet ah
figur asi
B est
Ġm ean
ay er
ĠT bk
Ġc incin
ĠD ia
ĠBuk kake
ĠSul awesi
Ġ ess
ĠK M
Ġmas uk
ĠIS O
v iew
in ang
Ġ6 7
Ġ7 9
ÃŃ t
G H
amp ir
Ġdad duma
yc le
w is
ĠCh apter
ĠAb ang
Ġtrans m
Ġny usun
ĠH awa
ĠAc ara
Ġkart un
Ġriw ayat
ik Ã©
Ġc euli
Ġg unÃ©
ic ingan
Ġv i
Ġngar obih
Ġsamp el
U U
Ġs anaos
ah aman
Ġc ep
oc ol
Ðº Ð°
ĠR ose
Ġsap oÃ©
rat ch
ĠS C
is ika
Ġj aya
Ġr upi
ÙĦ Ø§
Ġtel evisi
Ġel ec
$ #
Ġ1 35
ĠPel uang
M esin
ĠS UP
ig Ã©n
unt ing
Ġop tim
Ġform ulir
C ategory
I r
ĠS L
Ġac ak
Ap p
ĠÃ©lÃ©ktron ik
Ġ á®
Ġt eng
ĠS Y
ĠP osted
ro ugh
Ġ2 40
âĢ ł
ij ay
ub ahan
Ġear n
A f
AY S
ĠrÃ© aksi
U ng
is on
il iki
Ġantar vasna
Ġ aktor
Ġs ira
ĠS ent
Ġj aba
ĠM aksud
ĠL ombok
Ġteu t
re es
Ad d
B and
F lag
ĠM oto
Ġpas ualan
Ã¡ t
Ġsamp ai
Ġcl it
*: )
Ġ((: *:)
Ġm ingpin
Ġl ip
Ġj it
Ġc afe
Ġngad awuh
Ġbij il
J alma
ad ai
ĠF OR
ĠMakeup Makeup
e ase
p ns
Ġp engg
Ġl uk
ul ture
Ġkas uks
ĠSam sung
ĠSing le
Pi eces
Ġdis i
ungt un
nik ahan
Ġd omba
Ġj ukut
ĠC im
Ġak wi
ĠSp eed
ĠSaf ari
Ã© os
ik aman
ĠT est
Ġr Ã©l
Ġ((: +:
ĠUR L
Ġamat eur
Ġuta wi
Ġ((:+: )
ĠK ut
el lo
ent ial
Ġsub lim
% )
l ain
z in
ek elan
Ġpr ia
Ġlog o
ifi ed
in eung
Ġn ir
ĠR upa
pro of
Ã¢ n
Ġsil aturah
ekut ip
Ġstat istik
K i
M ake
l agu
n eum
Ġp itu
ag ana
Ġngag ant
aka ian
Ã¼ k
Ġmult ip
O p
k ed
Ġ isi
en angkeun
ĠJ ew
00 2
ĠG uang
Ġmar keting
GG CT
ĠSab tu
Ar g
Ġp ublik
Ġn olak
ĠD ev
ĠL em
nyan Ã©
Ġkanyaho an
x e
Ġl ingk
Ġmed al
Ġb ug
aw ay
Ġg amis
Ã©r ang
ri es
Ġken kuana
Ã©mb ong
Ġtan ya
Ġpun cak
AS AN
Ã©w ang
Ġpert ama
Ġsik lus
Ġpo Ã©k
G u
Ã µ
ab di
Ġangg ur
77 7
IK A
Ġsen iman
ìķĦ ì¤
P ur
al asi
Ġj igana
Ġny aman
An t
ĠLap top
Äį i
overn ment
m ati
Į ë§Ī
ar Ã©
Ġng u
ĠR ai
ĠH ijab
op eras
ĠMahar ashtra
M el
O f
Ġj ersey
ĠW ani
ĠAl kitab
oor ea
iff on
ìķĦì¤ Įë§Ī
D D
w h
Ġ ener
ĠS umb
Ġr usiah
Ġf o
ĠCo ol
Ġstr eaming
Ġser u
ĠKap oor
tain ing
irit ual
F i
ar ap
ĠB ear
ĠL eave
Ġv e
Ġdic andak
Ġuj ug
D ua
ĠS om
ĠPl aza
ĠS iti
art o
ch an
Ġma x
Ġdik on
Ġca ina
ĠB O
Ġg Ã©n
ĠN acional
ot oh
angk ong
Ġtut orial
ĠAks ara
Ġjangkung na
C or
w eb
ĠG um
Ġber j
D J
t g
Ġs ertifikasi
Ġb Ã©dana
or ator
et akan
ĠH ay
)) )
Ġare a
ĠLog o
P ir
ĠK ualitas
Ġ4 000
Ġsas ak
ĠTar uhan
ĠS acara
ĠR ebo
ĠO F
ĠO ng
iet nam
k h
v ed
ad ir
Ġh uruf
ĠAn arkali
euw eung
Ġ8 3
ĠPr incess
Ġul ikan
ĠFort une
Ġp osted
ĠK una
ĠIs uzu
ungt ungna
KA OS
G et
ĠS ik
il o
ed ir
ari ah
Ġ* **
UM I
Prop erty
p ert
t le
aw u
ĠTr ump
ĠGR OSIR
S ang
Ġ !!
ĠT angk
ul d
ri x
Ġpar Ã©ntah
Ġta f
Ġngad enge
eud eung
Ġmap ay
is ha
ut us
Ġw ir
ĠR ef
Ġper nyataan
Ġmis ah
ĠBerk ualitas
Ġm Ã©l
Ġc ity
Ġin ci
atur es
ĠNg entot
IS A
Ġmeng h
ĠmÃ© akkeun
al ak
Ġh ulu
ĠC NC
ĠD ating
ist or
kn own
B ur
t empat
ar en
Ġt ow
Ġp ec
Ġng eureunkeun
Ġsal uyu
rom e
ĠTel uk
Ġtol ay
lac ement
Ġdiff er
p us
ĠP ashmina
Ġl angka
Rem aja
eng na
ĠF M
Ġpros edur
ĠMah asiswa
or ed
Ġ20 5
ear ning
Ġar Ã©a
ĠTh omas
Ġsaj umlah
Ġpamajikan ana
à¥ Ģ
ĠHart ina
K er
p ikeun
Ġd ampak
ĠT ank
ĠV I
angs ara
b ert
u v
en ya
Ġan eh
el ep
ĠF ut
ri ah
Ġ19 80
li es
any oe
ĠSal am
ĠYou Tube
ĠCAS INO
E s
p ed
Ġn eundeun
el er
ant ang
Ġpany al
Ġngirim keun
Ã©v isi
ĠSov iÃ©t
C as
Ġd Ã©m
ĠP G
Ġst ills
ĠElec tric
f ace
Ġp asi
Ġng elah
ap ah
ih a
umb ira
Ġkulaw argana
Ġtra ffic
Ġdis ababkeun
hy s
ĠCom ment
ĠBad ung
ĠRad Ã©n
enting na
ĠCry stal
C an
b angan
r ahan
Ġkad ali
Ġpup uh
B AR
ĠB T
ĠF e
Ġngaj arkeun
Ġkaw ih
m and
r ent
ng aran
ĠS ens
et ic
ip ur
ĠAN U
H ayu
r ental
Ġb ra
ĠM b
Ġot ak
ys is
ĠS ut
ut es
Ġr ail
Ġpam Ã©nta
Ġro k
ĠÃ© c
å ®
Ġk g
ĠK ain
Ġngab ahas
Ġwar sih
Sa ve
Ġfr Ã©kuÃ©nsi
ĠPap ua
Ġmund ing
G reen
Ġt ay
ĠSt ud
Ġmil ari
Ġbal ar
ĠMan usa
ĠKa amanan
St ock
ĠInt en
Ġworld sex
ĠUc apan
l os
it ing
ĠD agiti
Ġsak edik
Ġkar aton
ĠTa ikaman
ea u
áĥ Ĳ
Ġle Ãº
ĠBang lad
k ata
ĠM onday
ĠD ef
Ġpol ah
item ap
ĠR atna
Ġy Ã©
Ġpar anti
ĠMar ket
Ġdig awe
Ġrel evan
ĠPurw akarta
w ell
int s
Ġ7 6
uw euh
Ġgun ana
Ġbungk usan
R S
h ijab
un o
Ġc ang
Ġc over
ĠR asa
ĠG T
Ġres pon
Ġp s
ĠM S
ĠM ust
ĠF ot
ĠM ey
emp ang
# $
3 50
D inten
apt aran
Ġd eb
Ġb angs
ĠD ani
ĠðŁ ĺ
Ã©rsi al
Ġt Ã©m
ĠM ex
'' '
Ġmov ie
Ġkilom eter
v ens
ĠSM PN
mud ahan
b ut
Ġng antosan
ĠR ental
Ġter d
Ġsmart phone
2 10
Ø ´
Ġk ersa
An al
ĠØ ª
ĠDong eng
Ġpangaj Ã©n
Ġh utang
et o
Ġkal a
av i
ĠAy u
Ġm aya
Ġal ungan
ery ogikeun
Ġberes ih
e ater
h os
Ġs he
Ġj at
ut ung
Ġtap ak
S ize
l ami
ig ation
und uh
AG CC
R ow
ĠM aterial
Ġmus Ã©
en sa
Ġka v
AT CT
Ġth umbs
OR D
el le
ĠJ EUNG
r s
å ħ
ak es
Ġh ebat
ĠH ealth
Ã©d akeun
Ġsay ogi
Ġnud uhkeun
Ġyus wa
ĠN Ã©ng
AY U
Ġyak wa
Ġmakeum akeup
R C
Ġh ay
ul as
ic les
ip ping
Ġâ ĺħ
impin an
Ġk antun
ĠT oday
Ġ3 20
Ġpan ah
alam etkeun
Ġud ara
ĠT umbu
Ġkab eneran
jaiib caiib
s ah
ng a
eg er
ĠAl atan
Ġpang rojong
Ġsa urna
ĠMat aram
x Bet
on im
ĠN ah
ĠN atal
eg n
ub ungkeun
ĠC ic
ons tr
EM P
ĠFr ank
ĠDok ter
J ANG
tr im
Ġ7 4
ĠPlay er
ĠCum shot
ÑģÐº Ð¸
h in
Ġk eud
ĠT os
ĠMakan an
K ol
ungg uh
Ġbik in
B o
un ikasi
ĠC ob
op erasi
Ġv itamin
iw atan
As ian
Ġco ol
ĠM ans
ĠF ile
Ġal d
ĠAm oorea
ĠAN AK
ĠB UK
up ama
Ġf eat
Ġsab un
Ġdig ambarkeun
la ih
ĠBag us
ĠPin terest
ĠAssoci ation
A lan
o es
u ana
un es
Ġdi f
ĠM AS
Ġdip ar
Ġis lam
Ġlain nya
3 20
in ese
Ġkad o
Ġkak urangan
uti ara
ĠSpr ing
ĠP on
Ġng awas
uk un
ĠL ion
Ġti g
ĠV ill
ON D
Ġsm all
S imp
h ire
Ġd emi
ak ak
Ġng ec
ut asi
ĠJ ep
ĠCar olina
f ort
Ġj aket
ĠPan on
ĠKang jeng
Ġpemb uatan
ĠPay ung
s ul
s ari
Ġp ek
ĠW r
eup na
Ġperc anten
ĠE D
Ġ8 4
Ġinv est
Ġasp Ã©k
b and
b ob
Ġg ejala
à¸ Ļ
Ġtakt ak
Ġ0 21
Ġseb ar
Dip osting
onav irus
k ont
eung eut
ĠG P
emp or
imb ing
D upi
Ġs ehat
ĠB ik
ĠB ull
ĠL istrik
Ġa z
Ġ19 95
ĠTaikaman ua
N ame
y oe
ĠT Ã©mbongkeun
ri w
ĠV IP
Ġdasar na
Ġjur ig
ĠNet work
ĠM ori
Ġc ipta
Ġdit oy
Ġparam eter
H OME
l al
Ġpes enan
Ġmu atan
E nd
S aj
h um
ĠB eb
ĠB Ã©l
Ġpr Ã©sidÃ©n
Ġbal ap
Ġtat tao
air port
Ġsung ut
7 20
B K
B uku
Ġm acam
ĠB Ã©bas
Ġf riend
ĠCh eck
ĠMan agement
ĠTer murah
J ang
ĠN aga
ĠV illa
li e
Ġmal aysia
Ġkor ea
Ġorgan ik
ĠToy ota
. âĢľ
os ter
arta i
Ġind o
,, ,,
T AN
Ġs op
ĠN A
Ġmak am
19 0
ĠAc t
ĠDr s
IM B
ingpin an
ĠCor por
[ ]
l akeun
s or
Ġper man
int ed
Ġpag euh
ĠAfr ica
ĠAbdul lah
Post s
ĠC ig
Ġngaw itan
oo oo
L og
Ġa ub
ĠE L
ĠAn j
Ġak si
Ġdij elaskeun
ĠBUM N
t ak
w arna
ĠR af
Ġjer ona
ĠPres iden
s ana
ap Ã©
Ġpan ongton
Ġcar ats
ĠPang Ã©ran
Ġkn ow
ĠKod epos
ĠIND ONES
ir akeun
ac ter
up ay
ib o
G l
Ġj in
ol ongkeun
ANG OR
iz ation
Ġant uk
imal keun
N as
Ġp ub
eung h
Ġpr ec
ĠAg us
Ġpil low
ĠM end
angk u
AP I
Ġib ukota
Ġram Ã©
un ot
Ġng itung
ap ul
Ġsat uluyna
Ġemb roid
Ġbac aan
G E
ĠD evel
int eg
ad ow
Ġth ese
Ġma is
ĠÐ ½
Ġmis kin
Ġraj ut
v isi
ĠB ayan
ab ak
Ġku ant
ij ah
Ġro mb
k ecap
t it
Ġp sik
Ġn ah
ad Ã©
Ġna e
c ode
s aw
aj ukeun
ant rÃ©n
... ]
ĠY Ã©h
P h
j ust
Ġn euleuman
Ġper awatan
ĠDa ud
angkal ih
w atch
Ġk angg
Ġl ing
ĠM IN
Ġr eureuh
tr ak
Ġkal eungitan
Ġpip e
SMK S
L and
ĠP A
Ġr ea
ĠV en
ĠMang lÃ©
Ġb es
Ġb uru
el uk
ĠG round
ikan ya
In f
Ġdok umÃ©n
awanoh keun
dis play
ĠIsland s
Ġt ext
Ġdi aku
Ġr eueus
ĠH ayang
ĠMan ch
Ġul ama
ĠSah am
ĠHard core
% .
ĠK ana
ĠL ingkungan
ĠR s
Ġngaj ar
Ġmus im
ÙĲ Ùĳ
Ġtrans aksi
Ġmap s
h ol
h od
p ass
ĠK y
ĠM OD
ud ai
de er
áĥ ĺ
B as
á ¸
Ġs ms
tr ans
Ġdad os
ĠtÃ©mb ok
G r
è ª
Ġb usty
ay euna
ant angan
IR O
Ġnyump ut
Ġnyingk ahan
S eptember
ĠB ubuk
Ġkal ung
ĠBib le
J al
m ag
r b
Ġp eu
ol ution
Ġin ovasi
ĠUn pad
Ġkom itmen
Ġpat alina
Ġdir ections
ĠMad rid
i ara
Ġal ong
ĠÃ ĥ
Ġngag anggu
Ġtatan Ã©n
K or
k Ã©n
Ġs Ã©p
Ġt ype
Ġw akw
Ġdit et
ĠZ ari
Ġno Äįi
G rosir
Ġs ingk
Ġb Ã©b
Ġr anjang
ĠJ ogja
Ġsi ah
ĠCanc el
ĠDiam ond
ur t
Ġman c
Ġ7 3
eunt eung
Ã©g a
eres na
ĠmÃ©n Ã©
N umutkeun
P d
m etik
il uan
ĠH um
ĠIn i
Ġ12 8
Ġop en
r t
s ku
Ġ _
Ġn anj
Ġn amina
ĠB atang
Ġdip eryogikeun
ack ing
Ġst yle
Ġkad Ã©ngÃ©
Ġap artment
Ð¾ Ð½
ĠPid ato
epend ent
ĠK ala
ĠU T
ew ah
ind u
ĠKar akter
Ġkamamp uan
Ġparip olah
Ġm ens
ĠIs k
V al
a ing
b ulan
Ġm euj
res h
Ġb awah
ĠS ea
Ġ2 25
Ġr aos
Ġr entang
Ġf a
ĠÃīd itan
D ep
ĠJ ieun
ju angan
Ġm urni
Ġc up
Ġf ans
Ġpan ags
Ġsa f
ĠPro vinsi
Ġ9 7
AK K
Ġkanyataan ana
F l
k b
ĠM adu
ĠH ab
ind iran
Ġngal aporkeun
Ġngab uktikeun
ust unganana
Ġber l
ilih at
ĠReview ed
D ong
S K
imb ar
Ġak adem
Ġpl ant
ĠGl ass
G er
Ġk Ã©p
Ġj ung
ĠB un
Ġ( *
Ã©k at
OM B
n ama
Ġt Ã¨h
ah am
Ġpost s
H ER
l ife
Ġs mp
Ġt Ã©l
ĠP EL
ĠC CTV
ĠE t
ĠEx po
Ġdiw anoh
ĠCas ual
operas ikeun
Ġs ew
Ã¨ e
Ġbeb an
pt oc
Ġfav orit
B a
Ġup amana
Ġkel uarga
Ġgug ur
Ġj anji
eb ak
On line
ĠONL INE
M ak
Ġn il
ad es
Ġsa enyana
Ġpers is
Ġrem ix
Ġl engan
ĠD Ã©
Ġg il
Ġde vel
Ġkaw at
Ġjer uk
Ġsupl ai
b ir
ĠM id
Ġc alan
ch ange
ĠSh enzhen
Ġul ian
Ġmet al
ĠAnal ytics
Ġd or
ĠD ollar
ĠR ug
ic ine
ind ahan
abr ics
ĠSer at
ĠP is
Ġng ungk
up us
ist ic
ĠKur ikulum
B arang
or owok
il ation
Ã©k trum
26 5
h b
Ġp eug
ĠB os
om ongkeun
ĠG row
ĠW ali
ĠV oos
Ġad dress
ou eur
ĠPar ah
UL L
ĠBat ara
G roup
Ġk ara
ĠN az
ĠL im
ĠL owongan
ĠPro s
Ġbr ings
Rep ly
ĠM eunang
ĠB oy
ant eng
ĠIn formation
C he
I O
h ab
ĠL ei
tr ac
AS T
Ġsaw ar
Ġpangg una
ĠPat ih
S earch
Ġj og
ĠK end
aran i
ug em
low een
Ġdit eundeun
Ġsas atoan
ĠPD F
Ġ ig
Ġs cr
Ġg oal
ya i
hat ikeun
B ang
b in
ad en
imb ag
ĠtÃ© tÃ©
L oba
ng al
ĠS O
Ġac ai
IR T
Ġbu ana
Ġbod o
Ġlis Ã©nsi
Ġmeg atkeun
r em
ĠJ in
he ad
Ġman jang
oot h
ĠdÃ©w Ã©k
P AN
Ġk enc
Ġc engk
Ġas et
ĠSk y
Ġkep ala
ĠB oh
il it
Ġr ame
osit ion
ĠPal ace
Ġpers Ã©n
Ġpid Ã©o
Ġnet epkeun
Ġcik arang
Ġbrand ed
Ġmig unakeun
ĠS ya
ap ing
Ġind ah
Ġak urat
Ġnap su
K et
ĠG ab
omp et
Ġwel Ã©h
blog spot
ar Ã©n
Ġl eub
Ġg usti
lo v
Ġkad ar
ĠTra ining
Ġlem ak
ĠMon ey
edir ectory
2 30
j oy
Ġt ema
ap atan
Ġr uksak
ĠL imited
tr act
Ġsal ing
ĠX VS
ĠÃ©tÃ© w
B AN
d asar
Ġk Ã©m
Ġb enang
ik aan
ol eh
ers t
K antor
Ã©n ia
ip i
Ġup date
ĠSum atra
Ġsend iri
Ġobs erv
N agara
P E
Ġ ÑĤ
Ġg ajah
eng er
Ġmar ket
An ak
ĠMed ical
ad han
ĠA YA
Ġl ast
Ġna ik
Ġbus iness
== ==
w ari
Ġd Ã©s
Ġs eh
Ġb anj
Ġb sd
ĠS atur
ab orasi
aya at
Ġy ear
Ġter minal
ĠSar imbit
ĠKu at
v ideo
uk in
ast ur
I l
Ã ®
Ù Ģ
ur up
ac u
Ġkar Ã©t
com e
Ġsub uh
Ġdo es
Ġ199 2
alungt ikan
ĠbÃ© ja
ak um
Ġng udag
Ġng okolakeun
Ã©n keun
Ġkas ih
Ġsa acan
ark et
Tel epon
ĠEks tra
J ohn
Ġ ×
Ġr ebu
ĠE p
asi at
Ġ199 4
Ġlib ur
ĠW at
ĠDÃ©w an
Ġkend araan
sun ami
M ah
j una
am aan
ĠS umbang
ĠT able
Ġg reen
Ġek onomi
K asino
à ±
ģ £
ĠAl um
Ġsublim edirectory
u as
ĠB UNG
Ã©k ah
st ad
euÃ« n
ab alin
ĠC enah
ĠR ON
ĠO k
Ġbu uk
ĠPet ir
Ġpel uang
Ġtal er
w o
ik h
angk ah
Ġch ar
aw ancara
ĠF urniture
ĠAn ug
ĠAk un
K K
z uki
Ġd as
AS H
ĠÃ©l Ã©h
ho ot
Ġpanalungt ik
Ġkabupat en
Ġl ed
ĠG IS
ud ian
eh eh
Ġkal ina
ers on
ual ly
Ġor ay
Ġn eed
ĠK eu
ĠN asi
Ġ3 000
Ġdid atangan
]] ,
inj eum
Ġngap ung
K el
P ara
h ow
am en
ĠS anj
Ġdip ang
Ġpar entah
AB I
Ġkur ban
ä¸ Ń
Ġjej er
Ġcond ong
ĠM IC
Ġny awa
Ġa ustralia
Ġpar ahu
Ġdit uturkeun
Ġpas aran
urn al
Ġkur e
visual Col
visual Row
ĠT ay
og en
Ġkab ur
ĠChe at
Ġk ani
Ġm aturan
and an
Ġ{ \
Ġconc ert
l eg
Ġ 000
ah atan
Ġng et
ĠN in
Ġw here
Ġkar ang
ĠUn categorized
Ġdib agikeun
port s
Ġsol o
ĠRo om
elum nya
Ġkeuk euh
& #
l ap
ä »
ĠS U
ĠV ar
Ġma il
Ġtek a
Ġkasa imbangan
T ingali
Ġ Ã©mb
ĠA F
ĠD ana
ĠD riving
Ġw awakil
eur euy
Ġ8 7
ĠINDONES IA
b Ã©da
i que
es ir
Ġg amat
Ġch eck
ran Ã§
Ġukuran ana
ĠWithdrawal Extra
ĠAz erba
b alin
Ġb awa
ur o
Ġtukang eun
ĠPhil ip
Ġs Ã©r
Ġdi ajak
ĠM erc
Ġc im
ĠD ual
ow der
uj uk
ĠPut u
Ġkand araan
b ed
ĠT OP
ul ong
Ġal as
GG GG
ake an
Ġpag elaran
land s
ajur it
ĠB M
na i
Ġst ore
ðŁ ĺ
Ġak ur
ich unter
Mod el
eungp euk
P il
ĠM arg
ĠW el
Ġrar asaan
ĠHind ia
Ġlar angan
Ġje ans
V ER
W al
it os
ĠA ff
oy o
Ġber p
r Ã©si
ĠG and
US A
RE AM
ism o
Ġpers onal
Ġfak ta
Ġn uluykeun
ur ai
uran si
Ã¨ s
mer ce
èª ŀ
b le
l Ä±
s ki
Ġb Ã©h
ĠT ulis
Ġman o
ĠNg aw
Ġngarop Ã©a
N ER
Ġas Ã©t
Ġpag awe
ĠLap oran
K T
M ic
s ama
Ġd aga
ĠS uw
Ġh itam
ĠJ aman
ĠH ill
ĠLat ino
Ġkons Ã©p
cel ona
Eng lish
Ġp ita
Ġm uda
ĠWe ek
ikanya ah
g iru
Ġb udi
ĠM H
ĠI a
ĠE S
omb ong
Ġmik aresep
ĠReg ular
Ġvol ume
Ġ era
Ġk anya
Ġl epat
uk ti
Ġkol eksi
r eh
ula o
âĢĻ .
ĠØ§ÙĦ ÙĦÙĩ
ĠTid ur
ikip edia
g u
j akarta
Ġb eub
ĠS ouvenir
ĠB EL
eg aan
angan an
asil an
Ġsaw arga
IC E
hs an
ĠNak ed
V ID
Ġ ï
ĠK upon
ĠD atang
Ġg obnyan
ĠH all
Ã©m aan
Ġngal engkepan
à¥ į
Ġngahar epkeun
P age
b ahan
ĠG ay
Ng ad
Ġb li
ĠT arik
and e
ic ains
ati v
Ġil ang
Ġrel i
ĠSag ala
B isa
D C
Ġd ollar
or gan
Ġat ra
ĠO ri
Ġtal atah
- '
k adang
W ah
ĠC ru
Ġku cing
ĠSt at
ey an
Ġmal ing
ung eon
ot ik
ĠAd v
ida e
Ġdew an
ĠHind i
ut bah
ia i
Ġpas amoan
ĠUN TUK
ĠEks klusif
ĠKak aw
Ġs ind
as ak
ĠS uku
Ġj ol
ap kan
Ġpan ulis
Ġ4 50
int ing
Ġkab ar
ungg ung
ĠArt icle
ĠPart s
Tat oueur
Kabupat Ã©n
r ig
Ġm alaikat
Ġb ekasi
ĠP artai
ĠB akar
ĠB order
ĠD eui
ĠL ip
ri o
Ġop tik
r ahkeun
Ġ ill
Ġd uw
Ġb ayar
ĠS ongs
ĠT eg
ĠJ AMB
Ġ8 9
ĠCh ris
AP P
Ġs uc
Ġp akÃ©an
ĠN omb
amb angan
Ġdis ebat
ĠAm in
Ġngad atangan
................ ................
D ur
m il
ĠP engg
Ġny iar
IT Y
Ð½ Ð¾
Ġpot ong
Ġl alaunan
ĠC imahi
×Ļ ×
Ġthumb zilla
G ar
j ul
it in
Ġl akukeun
Ġh argana
Ġpang adilan
IN C
ĠKer eta
ĠDew asa
ĠH ua
Ġkar ep
Ġz aman
ĠFr ancis
Ġtih ang
ĠVir gin
4 50
M ax
ĠT ex
ĠI lo
Ġmang at
ĠSt ates
Ġut euk
ĠAt ikan
Ġdikirim keun
b uku
Ġj epang
Ġy at
Ġal kohol
tion ary
al us
Ġd Ã©k
ĠS ite
ĠP ocket
Ġl ek
Ġh im
Ġpas agi
iw i
Ð° Ðº
ĠGe orge
v ador
z ed
ĠC av
ĠF amily
IR I
Ġpad et
D R
H aber
h ap
Ġdi ad
ĠK lik
ĠM ega
Ġw ayah
Ġf ed
Ġak ibat
Ġkond isi
T ok
T ON
Ġm ugia
ĠT eam
ĠC ON
ĠJ og
ĠL ama
ĠL okal
ara i
pa atna
Ġhi asan
iet y
A v
c g
ĠT anggal
ĠD P
ĠR d
Ã©r gi
ell s
Ðµ ÑĢ
Ġqu ant
Ġ199 3
Ġc ib
ĠN an
200 3
Ġid Ã©al
ĠWithdrawal Additional
Oct ober
Ġs ada
la is
Ġpert umbuhan
ĠWash ington
Ġ ungk
Ġt oday
Ġp cs
ep ar
à® ¤
ĠVal ent
S w
n um
Ġg og
Ġteu p
if er
Ġ8 2
Ġngaj amin
AB UMI
fer ensi
OC K
Ġdog Ã©n
N T
t ut
Ġng ac
ari es
Ġy outube
ov ery
Ġsh olat
Ġnur unkeun
ĠBengk ulu
Ġjieun an
V A
a use
ad id
Ġ2 30
Ġy ears
Ġst ar
Ġpun iki
Ġbub uka
ta ins
ĠL ex
Ġpr emium
all u
to o
Ġromb ongan
Ġ( )
ĠE li
In ter
Ġdik umpulkeun
M ap
Ã ħ
ĠP amaÃ©n
ad as
ĠK ita
ĠO bl
Ġped aran
adem y
Sed engkeun
Ġgab ungan
B eautiful
h id
j as
Ġan i
art ika
ex clusive
g l
p el
at Ã©
at ayo
ĠA is
Ġj abatan
Ġngah uleng
Ng aj
Ġluhur na
ĠTim es
ĠTel ugu
Ġinj euman
ĠM ind
Ġngal ir
Ġma ik
enc ies
ĠTer k
Ġpart y
Y a
ar aja
ĠB S
Ġdit anya
Ġpad uli
Ġpant un
à¤ °
Ġ ita
ĠS aan
ĠM itra
ed es
and al
ĠF ast
Ġpar Ã©
ĠÃ ¢
Ġis in
11 1
Ġngah ijikeun
S ok
Ġ ema
Ġs eukeut
ĠA th
Ġf ik
ĠAc cess
17 5
Ġz ÅĤ
Sal ian
Ġsl uts
Ġpanyal indungan
ĠN AS
ĠJ i
ĠI f
Ġny erang
Ġst op
Ġdun ungan
Ġd roe
ih na
Ġsab ot
Ġsah am
Ġ15 5
Ġmet er
ĠSan ta
pang na
C amak
Ġp atani
Ġng ukur
Ġr endah
ĠD A
Ġgeus an
Ġngab andingkeun
Ġmi ang
Mar ch
UH AN
ĠMent ri
isip asi
H AR
Ġt umbu
ĠK Y
Ġh ik
ĠC eu
Ġr enang
ĠL ady
ĠG ancang
Ġper umahan
eul aan
Ġsah ijina
ang er
ĠM utiara
ĠT A
ĠSt op
Ġngah argaan
Ġmal ih
ĠSak ing
Ġel eh
Ġdid amel
D im
Ġs d
ĠT il
Ġg uns
ĠH istory
Ġy amaha
ch en
Ġngar ana
Ã©nt aran
uter a
ĠInter racial
eaf ood
U J
Ġs ame
Ġpam ahaman
ĠDec or
J uli
l ers
Ġ ikan
ĠS itemap
ir Ã©
id aya
emb ur
ch ain
Ġngar ugikeun
Ġboh ong
Ġpeg at
b ih
Ġm ess
Ġy akÃ©
Ġ[ ...]
Ġngaw aler
adah aran
ĠAT V
y un
Ġk ong
ĠS AT
Ġdi et
ĠC ong
up uk
... "
ila ing
Ġpa eh
áĥĲ áĥ
C r
b alik
ad ditional
Ġc atur
Ġro t
ekar no
ĠÃ©c Ã©s
or na
Ġc int
ot er
ĠR anc
har mac
Ġmal em
unj ab
ĠRes ults
rist al
Bl ue
Mam ada
Q ur
S lot
ĠD O
ud uh
uw u
ĠWithdrawal Exclusive
Ġrak yat
ĠMam ada
L e
T ra
ĠP or
ĠM AT
Ġkas atiaan
ond o
ingk in
ìĿ ´
N E
n ee
Ġng amb
Ġ5 000
Ġpr ak
ĠPang iriman
ĠØ ¥
Ðµ Ðº
ĠBen arasi
jam ahan
h as
l imah
s in
Ġp eun
Ġp le
ĠB row
ĠR A
Ġmil iter
Ġbi ag
Ġsh are
ĠAt j
euÃ« t
ĠP OS
Ġj et
euh eu
ĠAp an
12 00
Ġangg aran
ĠFilip ino
Ġbalar Ã©a
Ã Ĺ
ĠA irlines
ĠMas ih
ĠEdit ion
ucung hul
an ta
Ġp Ã©ri
ĠP ep
ĠL irik
Ġny ambungkeun
adi um
ĠAl ami
Ġma uritius
Ġsur Ã©lÃ©k
ĠSM T
etah uan
s ek
Ġp p
ĠB udi
ĠD NA
Ġut amina
Ġdid aptarkeun
Ġca iran
ĠKem is
________________ ________________
Ġbot ol
M AT
p uri
Ġs uluh
Ġs anyawa
Ġn eda
ĠS is
Ġng aktipkeun
ĠCh arger
Ġba it
ĠPang andaran
Mas ehi
Ġnav igasi
Ġmolek ul
k w
Ð ·
Ġs ofa
Ġan ia
Ġr amah
Ġw inn
ĠG h
eh ir
ĠO x
ĠAc um
ĠMas s
rac e
H e
o ch
z y
Ġd arah
Ġs tainless
Ġn d
ĠH uman
ok na
ĠW orks
Ġmant ong
Ġ ens
or age
Ġng oj
ĠD ah
em is
ĠIntern Ã©t
Ġnyamp eurkeun
Hij riah
B ank
Ġ ï¿½
Ġr aks
Ġkal angan
ĠMun isip
ĠKon ci
ĠbÃ© as
ĠKec antikan
ĠIp oh
Ġmert imbangkeun
C opyright
g ara
Ġl ay
Ġpan utup
Ġkar ek
ĠPer si
duk a
Ġkam us
ĠPl ant
ĠSas ak
ĠSport s
Ġngom Ã©ntaran
b our
Ġh apunten
Ġg elas
im in
ĠW unga
eb aran
Ġth en
agi atan
Ġsek arang
ĠInter ior
t ext
er un
ĠP AL
aw ut
ĠF A
Ġkal Ã©nder
Ġres iko
ĠSa ve
ĠAri zona
Ġex c
88 8
Ġwar isan
ĠWal ungan
ekut if
quip ment
å ľ
æ ĺ
al atan
ĠM eunangkeun
ĠB EN
ij ak
Ġdis al
Ġ19 60
Ġngar uksak
Ġind ikator
ĠAngk utan
ĠKawas aki
I E
s ol
is l
ĠB li
ab ur
ĠO d
Ġkal au
ĠSal ve
Ġpag er
Ġkut ang
Ġsemp et
o an
p ly
r ung
Ġc ost
ĠD inan
ok i
Ġper ubahan
Ġ19 70
UT OR
ĠDo el
ĠtÃ©tÃ© la
t un
ĠC y
Ġg euwat
ĠH eb
ug jug
Ġot oritas
ĠGr eg
Ġl eul
ĠC ep
Ġin n
Ġad ina
ĠTer percaya
D e
k aca
r ick
ang at
Ġp angkat
el f
Ã©n i
Ġim m
Ġum ah
Ġcom m
Ġtit ipan
ĠBu at
Ġep is
ĠWilli am
Ġdiwanoh keun
h and
Ġs ound
Ã©s is
Ġdim angpaatkeun
abr ikan
Ġlow ongan
Ġcamp ur
d ha
Ġb aan
Ġh ungkul
Ġr ip
Ġr angk
Ġro ti
age an
ors e
ept ion
Ġwarta wan
ĠKomun ikasi
ĠJag uar
Ġmec engh
R esep
Ġt aj
Ġr ai
Ġw ap
ĠTer p
Ng ag
ater angan
z ip
ĠA TA
Ġc ahya
01 0
jang jian
Ġsh ort
b uru
Ġg i
ĠN iger
ĠJ atin
ĠL ev
15 5
Ġx x
Ġser ta
Cat etan
c or
Ġs old
ĠS EM
Ġh ijab
Ġ2 10
ĠH u
ip lin
Ġro m
ĠDistr ibu
ĠManaj emÃ©n
ĠEth nic
ĠVers ion
t os
ay alam
Ġr enc
ic ara
Ġsak uduna
ind onesia
ER A
âĢĻ ,
14 5
Ny ieun
Kat ut
Ġmaip apan
ĠChamp ion
B el
T agged
Ġng Ã¶n
Ġka opat
ama ah
Ġkas ehatan
Ġ199 1
Ġpriv asi
B it
ĠS imb
Ġr ental
om in
ĠG ading
ĠF itur
ĠKab ataan
Ġlum aku
ĠmÃ©t ode
Nov ember
l em
ĠA na
ĠT ip
Ġw akil
op ol
Ġac rylic
ĠPol o
Ġberb agai
Ġkasuks Ã©san
ĠP it
ĠC ute
ĠF a
ri ed
Ġ# :
Ġde fin
ĠAb d
Ġser ial
ĠKel uarga
Ġpanc Ã©n
Î »
ĠAL AT
Ġngari ung
K iwari
Ġ old
ĠD oc
II I
ĠÃ©n da
Ġdiro jong
ordin at
ĠElectron ics
Ġs eng
Ġn ek
ad esh
ĠK B
Ġâ Ĥ¹
az Äĥ
ÃŃ a
Ġcl ose
unc ak
Ġide as
C amp
Ġ arg
ĠP ahlawan
Ġh p
Ġal g
Ġtel at
Ð¾ ÑĤ
ĠIsra Ã©l
K ecap
j er
Ã ¸
es ian
ĠL arge
asi eun
Ġy amba
Ġpa Ã©h
apat kan
pli es
ĠUd ara
ab ola
ed en
ĠR ab
ĠF iji
Ġngad u
Ġi Pad
Ġku e
Ġmus eurkeun
engg eus
Ġpul uhan
ĠKap ala
Cont o
Ġfun ction
M ed
Ġb oys
eun angan
en ch
Ġken a
uks akan
Ġsateuacan na
D P
¤ Ù
Ġp ajak
Ġm uh
Ġl engkah
ĠR id
Ġsar wa
Ġuj ung
C R
j emahan
er apa
ĠS ET
ĠG amis
ant ren
st ick
ind itan
S ag
Ġb entang
ĠP EM
ĠC ast
ic ipal
Ġngaj i
Ġmil yar
16 5
Ġmant ra
ĠSUK ABUMI
ĠM awar
od or
Ġbet s
Ġpers en
ĠmodÃ©r n
eungh aran
Ġdip uter
ĠGr atuit
uga o
ĠJam mu
ason ic
T emp
Ġd eg
Ġr ej
ĠN ev
Ġw ould
27 5
Ġp ublic
Ġj ilbab
ungk usan
ĠBuk tina
Ġjand ela
ĠS ound
ac eae
ip ati
ib adi
Ġlat ar
st op
est ion
asah iji
ĠBeng al
Ġp ahlawan
ap un
Ġf ungs
Ġtal aga
Ġperm ukaan
M M
ĠM erd
Ġh ati
ĠJ OH
Ġka in
tr af
ĠSet i
Ġnap as
Ġbeung keut
ues day
ik on
ĠL os
ĠH as
ĠF i
ow e
Ã©m ica
Ġch icks
Ġkom Ã©rsial
xx x
ĠGor eng
T O
n ar
Ġs eungit
ĠS itu
mir at
ĠBird s
Ġj eng
Ġh ariwang
Ġng ilu
Ġw anda
ĠU ang
asi fik
ind ow
ĠAw al
ĠSalve azÄĥ
ĠDistribu ie
in na
ĠM aga
ĠT u
tor an
Ġtek enan
Ġwand Ã©ka
Pre Å£
f alse
an si
Ġt ug
un ungan
Ġng awanohkeun
em as
Ġf ood
ye on
Ġtop ik
ĠMix er
Ġh u
ĠI wan
Ġkol am
ĠSer ial
Ġbay i
sc reen
L okasi
t as
est ik
Ġ7 20
eres an
Ãª s
ĠEnd Ã©mica
k us
r ary
Ġmen ang
Ġmo jang
j ak
Ġp t
un na
ĠJ ah
ĠJ ambi
ic ally
ĠW ayang
ĠW hat
Ġsak itar
Ġkat utup
GG A
ĠTaman na
Ġbrow ser
Katut ubong
t ayo
ĠM OT
ĠSak umaha
ĠGa un
ar jo
ĠP ENG
ro y
ĠJ AM
ek tif
Ġper baikan
Ġdip erk
uy uban
Ġsu ara
ĠPant her
G O
t oko
Ġs ki
ĠK AT
ĠJ en
ib ur
ats u
ÙĬ ÙĨ
ĠDir ection
ĠVal ley
r ug
Ø ²
Ġg ap
ĠIr landia
H om
ĠK uk
ĠT K
ĠL evel
if ication
Ġro ko
Ġbag eur
ĠAd u
Ġkon Ã©
Ġpol o
Ġpap ada
Ġhat Ã©na
Ġtog el
Ġcil aka
eu x
ok rasi
end ed
umb o
Ġth ehun
Ġjuta an
ĠÄ ĳ
ĠTEL ES
Ġl iter
ul us
Ġr amana
Ġkasus ah
F X
K acamata
p aran
å Ĳ
Ġk anti
Ġs andi
ĠM E
et as
Ġnak er
iny ak
ĠPart isi
Ġhanj akal
Jan uary
Im age
ĠBUNG A
h ole
ĠM EN
ĠL A
Ġsas ama
ump utkeun
ator s
Ġngam ajukeun
lat ina
Ġir ung
ĠMaks imum
A z
Ġj Ã©mb
Ġ1 19
ĠG am
ĠF uck
Ġbr idal
ĠtÃ© ma
M uhun
â ģ£
Ġ !!!
ng ar
Ġm ember
ĠT itle
ĠD arso
Ġw ords
Ġdag itoy
Ġcap ri
Ġh yp
ĠG eb
ĠF riend
ĠW ars
Ġngad alikeun
22 2
Ġbung bu
J L
c omp
ä ½
Ġt amp
ĠR W
ĠR ag
ant ar
ĠF low
ip atan
Ġtut up
ĠYÃ©h uwa
ĠasÃ©t at
p Ã©r
Ġc ic
ĠC ek
ĠJ ess
ĠR ES
ingg o
ju ana
Ġk irim
Ġl iburan
ĠN ep
ic ations
ĠH ubungan
ĠU P
awang i
ĠDep artemen
itt ing
L eave
n ect
Ġ uji
Ġmin at
l ila
z en
Ġm arg
Ġj unun
ĠR O
ĠTek nologi
Ġt epang
ĠN omer
ĠF ound
ĠO li
Ġ7 50
Ġkap ilih
cont oh
Ġproduct s
ĠK anyataan
Ġmang paatna
iz ing
ĠPort al
Ik lan
N ah
S o
r ih
Ġm ih
ĠK re
ĠK AS
ĠC rist
ĠL ambang
und aan
Ġdip ib
10 4
ĠUn ik
Ġwaw uh
Ãµ es
k acamata
Ġb anten
Ġdi an
Ġdi as
Ġar m
ĠyÃ©kun mba
D AP
F lor
V iews
p irang
ĠP y
ro f
qu i
ens is
ĠObl ong
Ġs Ã©d
er intah
Ġg ara
ac es
Ġny ampak
ĠH d
18 5
Ġut usan
ĠPak istani
ĠUk ra
ĠView ed
Kur si
ĠIsk andar
E dit
O l
æ Ī
Ġm eul
ĠP ek
ĠB AL
ĠJ ilbab
Ġsab ulan
Ġab ah
ĠBar celona
Ġsi ang
Ġangk ot
Ġlangg eng
C ir
Ġd atar
ĠS ara
Ġc ong
ĠR ound
anc ed
Ġop t
Ã§ Ã£o
ĠPand an
Sub yek
f um
Ã ¯
Ġs eug
ĠS AK
ew an
Ġkas alametan
ĠÙ Ĥ
ĠRes ponse
Ġpen ampilan
apt asi
Ġlanceuk na
H a
K itu
d ani
ĠT empo
Ġg at
Ġdip indahkeun
Ġsor ana
ĠEx port
ĠMat ak
Ġes c
V E
Ġb aga
ĠM U
ĠD umasar
im er
ĠKab el
Ġmem iliki
ĠSad Ã©rÃ©k
ĠPand awa
ĠDest ination
J obs
y angan
is o
Ġl inggih
ro duksi
ĠL an
ĠW arta
Ġkom Ã©ntar
Ġsanes na
ĠDIST RIB
k ac
Ġm ari
ĠA er
Ġ17 0
Ġsed erhana
Ġtumuwuh na
ĠOrang e
Ġm ama
ĠK and
ĠC ase
Ġ8 1
ĠAr c
Ġbah kan
Ġest u
Ġnyet Ã©l
d alam
Ġs ot
ĠT va
Ġr eng
and apan
ĠH yp
Ġin put
end ang
Ġdit ingali
ĠAd ult
Ġmur angkalih
eras keun
Ġmic eun
aaaaaaaaaaaaaaaaaaaaaaaaaaaaaaaa aaaaaaaaaaaaaaaaaaaaaaaaaaaaaaaa
Ġhuk uman
D av
K AT
M L
R ay
R ead
y ing
Ġl intas
Ġpam undut
AM E
Ġwant ah
nes day
Ġd ini
Ġd ll
Ġw id
Ġny el
Ġngaw asa
Ġnap el
ĠSund ay
ĠLoc ation
z ah
ĠS ig
Ġj ordan
ĠC ream
ir ikeun
ont rol
ans as
13 7
empo an
ĠSun arya
Ġkun o
ekal ongan
& &
ad ena
ĠA gr
Ġh eunteu
ĠD ark
Ġsak a
ont ianak
uar eun
Ġik lim
Ġdid inya
Ġkh as
andak wa
Ġpopul erna
ĠHid ayat
Ġjand Ã©la
Ġpangab isa
S e
\ '
ĠS atu
Ġtek nologi
ĠRep ublik
ĠCal arasi
ĠBas ket
ĠBob ogohan
O ther
Ù ĭ
Ġm eut
ĠP akÃ©
Ġl aki
Ġng ol
il id
ro ad
os o
ĠJ et
ĠG BP
Ġdip elak
Ġkas ap
Ġ8 88
ĠMin imalis
Ð¾Ð ¼
Ġng eusi
na c
Ġman n
Ġlok asina
ĠMex ico
Ġt Ã©n
Ġc ikut
Ġr ug
Ġv isi
Ġpang eusi
Ġpam eget
Ġ9 4
Ġpal asari
C I
E r
Ġt ro
Ġn incak
Ġl ama
ĠR iz
ĠE vent
od ok
Ġsak adar
Ġpang m
ĠX XL
Ġsub ur
Ġpad ang
Ġsc ratch
Ġkamamp uh
angu age
agÃ© akeun
spir asi
ĠDPR D
Mobil e
v as
Ġp ama
Ġm ode
ĠT ower
ĠG at
ĠMal ik
Ġtangt os
ĠWeb cam
ĠHAR GA
at ina
ĠT ol
ĠC Ã©k
el iti
Ġg erb
Ġr atus
Ġv arian
Ġbulan an
ĠTi ongkok
Ġkons ep
Ġlil ana
L oc
S urat
V I
s ad
eun i
Ġsak si
Ġdis angka
ĠÃī n
Ġnyet ir
ĠRasul ullah
ĠAzerba ijan
K usabab
R o
at awan
Ġr ab
ĠR eli
Ġper sib
Ġ9 2
ĠPr at
onj atkeun
Ġnit ah
Fil ed
Ã¼r k
g ambar
q ua
v o
Ġh itut
il keun
Ġw una
enc angan
Ġkaw asa
ĠAw ewe
Ġya itu
à® ¿
ĠHid up
ĠSangk uriang
S UB
W aktu
ĠD ian
Ġny uhunkeun
out s
ANT E
ĠÃ©ng g
Ġcikut ra
b ia
b isa
Ï Ĥ
ĠP ebruari
ĠM ats
Ġpat epung
Ã¡ Âº
ĠMod al
Ġditet epkeun
O US
g eus
Ġs uw
ag ia
ĠOn ly
Ġp euntas
or Ã©ng
Ġj ep
ĠC erti
ĠW ong
Ã©s keun
ov atif
Ġur ay
Ġav ailable
Ġk atur
Ġp iring
ĠM Y
Ġieu h
eul ang
Ã©b a
Ġ17 5
28 0
air s
Ġga ay
á¹ £
uny ara
andap eun
Ġkabupat Ã©n
C M
P oÃ©
ad aban
ap ink
ĠV ietnam
10 7
aks h
ĠKur tis
ĠPortug is
ĠDevel opment
â Ļ
ar n
ar ag
Ġs Ã©wang
ĠS ac
Ġh itu
10 8
ĠAd at
Ġsej arah
Ġnav y
Â §
Ġm ill
Ġn imb
ĠF eed
ĠW estern
ĠAn ia
Ġpok ona
á¹ ĩ
traf fic
L A
N i
N AB
is es
or ia
ab ly
Ġr aket
Ġngad angu
ensi f
Ġir on
orator ium
j un
Ġd ug
Ġt ube
Ġn ada
ĠS ajak
ĠM ong
ĠM antenna
ed unan
Ġal usna
Ã¶ k
Ġk Ã©t
ĠM AD
Ġc air
ed o
id ak
ic er
Ġv iya
Ġmil itÃ©r
Ðµ ÑĤ
B T
b ot
m urid
as at
ĠK ok
ĠD AP
Ġsal oba
Ġdil engkepan
Ġ14 5
Ġker ah
ĠRes taurant
ĠDew an
Ġrand om
M anu
Ġ anggeus
ak ai
Ġl Ã©gal
ĠM amah
ĠT amp
ĠD as
im o
ĠN ort
EN A
Ġber harga
Ġkaw ates
O s
j asa
Ġdi har
Ġw artos
art osan
Ġpro mo
Ġta akwa
ĠKr ishna
I st
ĠDay euh
Ġk ids
Ġd h
ul ing
ĠJ igana
ĠH adiah
Ġin frastruktur
emp aka
all ahu
urn ia
Ãª n
Ġpot ongan
had ap
ĠjÃ©mb aa
P ag
Ġt Ã©s
Ġper form
Ġâ Ļ
Ġleg ana
B us
l ir
Ġfor ce
Ġmen nang
kont es
H i
| |
Ġb untut
Ġmet oda
ĠCon c
Ġmap ag
Lab els
r er
Å Ľ
Ġj um
ĠT aj
ĠG il
ĠU L
Ġngal ah
200 1
ĠTeu ing
Ġwe ek
l m
Ġm angg
ĠK OMP
im un
Ġr ating
Ġny ing
ĠCom mun
Ġbat rÃ©
ĠJl n
ĠMi u
ĠRay Haber
Kaj adian
ar angan
Ġt adina
Ġl cd
ĠK ag
Ġc ross
Ġsar jana
ib al
Ġkab awa
AT CC
ĠMan ik
Ġpat andingan
Ġout bound
ĠSam udra
Kur sus
Ġbib it
Ġpamar entah
c ir
is ed
ĠD IN
Ġg eub
ĠJ ok
Ġny umbang
Ġ6 1
Ġdil aporkeun
Ġtr end
ich es
Ġseb aran
2 60
D istr
or eng
ĠM iss
ĠT ata
amp le
ĠV a
Ġst ep
Ġ10 4
Ġsp ecial
press ion
rut men
K anggo
Ġk ayat
Ġp hone
Ġr ama
Ġw argi
Ġdij alankeun
Ã¶ t
K omp
Ġs ource
am ir
ad ora
Ġl eft
es m
ĠK ER
ĠMak er
ĠSm all
Å¡ Ãĥ
Ġcer amah
ranÃ§ ais
J P
M E
M ot
ĠN ic
ĠL LC
Ġas t
umb ul
Ã¨ t
Ġsat elit
R P
c ow
j ag
k el
Ġ ina
Ġs antri
ĠT anda
Ġc ec
ih ang
Ġpal atih
arik saan
Ġnur ut
Ã©ro port
g at
y ahoo
ĠB ata
Ġng int
Ġ19 50
war eness
Ġmangk in
ĠTid ak
Ġm ucunghul
em uka
Ġo cc
Ġde aler
Ġro ck
Ġdic aritakeun
Ġngant ep
Ġdam en
Ġdek u
2 25
C am
O ne
k ak
n ch
ĠK ent
ĠM Ã©dia
Ġka om
Ġsar ah
ĠSal asa
AG E
Ġip is
ĠCam era
É Ļ
am ic
Ġpro posal
oc ok
10 6
angs aan
Ġmon itor
Ġpangp entingna
R om
Ġp ianak
Ġb und
Ġb iwir
ĠS awah
Ġpam uda
ĠSt andar
ĠSp ec
Ġqu e
Kal ayan
G unung
K antai
t ed
Ġ9 00
Ġant eng
ĠJu ta
Ġcut ting
ĠGMN TV
R upa
b en
Ġn ungkulan
Ġl ehenga
ĠJ e
ic ated
ĠH on
Ġas in
ch ed
Ġkol aborasi
ĠKad Ä±n
Ġbeun euri
Ġtaf sir
egn ant
N P
r ian
Ġs Ã©hat
Ġt ake
Ġng ali
ĠWh ats
ĠTemp le
Ġngand elkeun
Ung gal
b ek
Ġh na
lo om
Ġpro bl
t est
ĠB euki
od ium
ur ug
ĠT v
Ġv Ã©rsi
Ã©l Ã©
11 3
Ġmen j
Ð° Ñı
Ġmem ori
ĠIm port
Ġnaan Ã©
B ulan
b ro
Ġdi itung
uh ung
ĠW arga
ec om
op ak
AK A
IT AS
Ġseb uah
ĠSm ith
Ġberg ambar
ubi ung
C ik
h ang
Ġt ua
ĠW as
Ġ5 55
ĠPro v
ors k
ĠUnivers al
Ġban arasi
k umaha
Ñ Ĳ
Ġm aha
Ġn awang
ĠP t
ĠI di
Ġpar na
Ã©nt al
Ġlap ar
Dic utat
Ġvari asi
ĠHij au
K r
Ġb ent
ing er
ĠCh art
ĠSer ang
ĠrÃ©k aman
ĠKan ak
vent ure
Ã©rÃ©s keun
ar ig
ap tor
ul uk
ĠG em
ig it
Ġsa ung
ectang ular
Ġd ika
ĠM ich
ĠH en
amb er
ĠPr ediksi
Ġngag abungkeun
vis ion
taw is
J a
er ve
ĠCh eras
ĠÃ ĸ
In tern
Ġnar aka
bl is
Ġga un
Ġgeup eugah
Ġden ali
ĠDat abase
ĠTrad itional
b andung
Ġt antangan
Ġj angan
ro c
Ġr agu
Ġw etan
Ġngal ebetkeun
ĠSp ot
Ġkh ususna
ĠAmer ica
K AN
R ah
ok uskeun
Ġi yar
Ġman en
ĠClass ic
ĠPriv ate
2 15
r ics
Ġs on
ĠN ang
ack er
Ġsaw ala
Ð¾ Ð»
ĠPlay tech
Ã¶ ng
ĠSet ia
ber ry
Ġprakt Ã©k
â ĺħ
Ġd ap
ĠR AM
eb el
Ġ| --
ĠAng in
ĠÐ º
Ġtah ta
Ġhur ung
' re
C olor
ĠC M
end eng
Ġngal amun
10 3
ĠMal e
Ġsub j
Ġmu ch
ĠBAR AT
P asar
Ġk Ã©s
ĠT her
Ġc op
ed d
Ġny ungsi
Ġdit epikeun
12 9
bar at
atin um
Ġdat abase
ĠM L
ĠM old
01 5
Ġch ubby
ĠSal es
Ġdid ahar
P ay
Ã© Ã©
Ġp eup
ĠS B
ĠN omor
ĠL adies
ĠG Ã©
ĠH is
ĠW ewengkon
Ġdis et
Ġro da
Ġpah am
ĠAtj Ã¨h
Ġs ant
Ġt able
as es
Ġh ijina
Ġr Ã©p
ĠL ace
ĠR oj
eur s
ĠO ber
