{"<|endoftext|>":0,"!":1,"\"":2,"#":3,"$":4,"%":5,"&":6,"'":7,"(":8,")":9,"*":10,"+":11,",":12,"-":13,".":14,"/":15,"0":16,"1":17,"2":18,"3":19,"4":20,"5":21,"6":22,"7":23,"8":24,"9":25,":":26,";":27,"<":28,"=":29,">":30,"?":31,"@":32,"A":33,"B":34,"C":35,"D":36,"E":37,"F":38,"G":39,"H":40,"I":41,"J":42,"K":43,"L":44,"M":45,"N":46,"O":47,"P":48,"Q":49,"R":50,"S":51,"T":52,"U":53,"V":54,"W":55,"X":56,"Y":57,"Z":58,"[":59,"\\":60,"]":61,"^":62,"_":63,"`":64,"a":65,"b":66,"c":67,"d":68,"e":69,"f":70,"g":71,"h":72,"i":73,"j":74,"k":75,"l":76,"m":77,"n":78,"o":79,"p":80,"q":81,"r":82,"s":83,"t":84,"u":85,"v":86,"w":87,"x":88,"y":89,"z":90,"{":91,"|":92,"}":93,"~":94,"¡":95,"¢":96,"£":97,"¤":98,"¥":99,"¦":100,"§":101,"¨":102,"©":103,"ª":104,"«":105,"¬":106,"®":107,"¯":108,"°":109,"±":110,"²":111,"³":112,"´":113,"µ":114,"¶":115,"·":116,"¸":117,"¹":118,"º":119,"»":120,"¼":121,"½":122,"¾":123,"¿":124,"À":125,"Á":126,"Â":127,"Ã":128,"Ä":129,"Å":130,"Æ":131,"Ç":132,"È":133,"É":134,"Ê":135,"Ë":136,"Ì":137,"Í":138,"Î":139,"Ï":140,"Ð":141,"Ñ":142,"Ò":143,"Ó":144,"Ô":145,"Õ":146,"Ö":147,"×":148,"Ø":149,"Ù":150,"Ú":151,"Û":152,"Ü":153,"Ý":154,"Þ":155,"ß":156,"à":157,"á":158,"â":159,"ã":160,"ä":161,"å":162,"æ":163,"ç":164,"è":165,"é":166,"ê":167,"ë":168,"ì":169,"í":170,"î":171,"ï":172,"ð":173,"ñ":174,"ò":175,"ó":176,"ô":177,"õ":178,"ö":179,"÷":180,"ø":181,"ù":182,"ú":183,"û":184,"ü":185,"ý":186,"þ":187,"ÿ":188,"Ā":189,"ā":190,"Ă":191,"ă":192,"Ą":193,"ą":194,"Ć":195,"ć":196,"Ĉ":197,"ĉ":198,"Ċ":199,"ċ":200,"Č":201,"č":202,"Ď":203,"ď":204,"Đ":205,"đ":206,"Ē":207,"ē":208,"Ĕ":209,"ĕ":210,"Ė":211,"ė":212,"Ę":213,"ę":214,"Ě":215,"ě":216,"Ĝ":217,"ĝ":218,"Ğ":219,"ğ":220,"Ġ":221,"ġ":222,"Ģ":223,"ģ":224,"Ĥ":225,"ĥ":226,"Ħ":227,"ħ":228,"Ĩ":229,"ĩ":230,"Ī":231,"ī":232,"Ĭ":233,"ĭ":234,"Į":235,"į":236,"İ":237,"ı":238,"Ĳ":239,"ĳ":240,"Ĵ":241,"ĵ":242,"Ķ":243,"ķ":244,"ĸ":245,"Ĺ":246,"ĺ":247,"Ļ":248,"ļ":249,"Ľ":250,"ľ":251,"Ŀ":252,"ŀ":253,"Ł":254,"ł":255,"Ń":256,"an":257,"ng":258,"eu":259,"ar":260,"al":261,"Ġk":262,"Ã©":263,"in":264,"Ġd":265,"at":266,"Ġs":267,"ang":268,"Ġt":269,"as":270,"er":271,"Ġp":272,"Ġm":273,"Ġb":274,"ah":275,"ak":276,"Ġn":277,"am":278,"eun":279,"en":280,"on":281,"ĠS":282,"ur":283,"it":284,"is":285,"ik":286,"ĠP":287,"un":288,"or":289,"ad":290,"ĠA":291,"Ġdi":292,"Ġl":293,"ing":294,"es":295,"Ġj":296,"ĠK":297,"ay":298,"ĠM":299,"ĠB":300,"ab":301,"us":302,"Ġh":303,"Ġng":304,"ap":305,"ag":306,"ĠT":307,"Ġan":308,"il":309,"ta":310,"um":311,"ina":312,"ul":313,"na":314,"ung":315,"Ġc":316,"aw":317,"ĠC":318,"el":319,"ro":320,"ĠD":321,"Ġg":322,"ir":323,"uk":324,"em":325,"Ġ2":326,"et":327,"os":328,"ut":329,"âĢ":330,"eng":331,"im":332,"ol":333,"ed":334,"Ġ1":335,"ana":336,"id":337,"ac":338,"Ġr":339,"ĠN":340,"ot":341,"ĠJ":342,"om":343,"Ġ(":344,"keun":345,"eung":346,"Ġw":347,"ĠL":348,"ĠI":349,"aj":350,"up":351,"and":352,"ĠR":353,"Ġnu":354,"ep":355,"00":356,"Ġka":357,"Ġny":358,"ic":359,"Ã©n":360,"ĠG":361,"Ġanu":362,"ob":363,"og":364,"01":365,"..":366,"Ġ-":367,"ent":368,"Ġjeung":369,"ĠH":370,"ih":371,"Ġti":372,"Ġsar":373,"ok":374,"ia":375,"uh":376,"aya":377,"ara":378,"ud":379,"ant":380,"Ġdina":381,"ikeun":382,"Ġf":383,"ig":384,"ek":385,"ĠF":386,"ong":387,"ion":388,"Ġin":389,"Ġi":390,"ian":391,"Ã©h":392,"ĠW":393,"jeun":394,"asa":395,"eb":396,"Ġ201":397,"Ġku":398,"ip":399,"tr":400,"aran":401,"ĠU":402,"angg":403,"Ġa":404,"ec":405,"ari":406,"Ġpikeun":407,"ya":408,"eh":409,"Ġat":410,"Ġ|":411,"ter":412,"eur":413,"ĠE":414,"od":415,"ij":416,"ow":417,"ĠâĢ":418,"aha":419,"angk":420,"eg":421,"asi":422,"amp":423,"si":424,"he":425,"Ġas":426,"op":427,"ĠO":428,"ub":429,"adi":430,"Ġieu":431,"Ġteu":432,"ib":433,"Ã©k":434,"Ġy":435,"Ġ3":436,"ug":437,"re":438,"Ġkal":439,"und":440,"art":441,"amb":442,"Ã©ta":443,"eus":444,"Ġ\"":445,"awa":446,"ĠIn":447,"ers":448,"iji":449,"ĠAn":450,"Ġanjeun":451,"angan":452,"AN":453,"le":454,"oh":455,"emb":456,"Ã©r":457,"aan":458,"urang":459,"ino":460,"Ġna":461,"Ġo":462,"ai":463,"atan":464,"ri":465,"Ġpan":466,"Ġsareng":467,"âĢĿ":468,"ew":469,"isa":470,"ti":471,"alan":472,"ahan":473,"Ġmah":474,"Ã©s":475,"Ġ0":476,"Ġaya":477,"Ġtina":478,"asino":479,"api":480,"iti":481,"Ġsal":482,"Ġv":483,"Ġ4":484,"ch":485,"Ġal":486,"ex":487,"Ġurang":488,"Ġ/":489,"Ġnya":490,"Ġper":491,"ali":492,"are":493,"Ġon":494,"ra":495,"Ġbisa":496,"ĠV":497,"tÃ©":498,"Ġsarta":499,"ist":500,"akeun":501,"Ġ5":502,"ada":503,"...":504,"ata":505,"eup":506,"emp":507,"roid":508,"Ġdip":509,"lo":510,"uc":511,"Ġjadi":512,"Ġsab":513,"uan":514,"ine":515,"Ġof":516,"ĠAl":517,"Ġ:":518,"ma":519,"Ġpro":520,"end":521,"uj":522,"Ġhiji":523,"Ġsak":524,"aman":525,"Ġlat":526,"Ġpang":527,"ama":528,"eta":529,"ess":530,"Ġ#":531,"ami":532,"Ġmang":533,"Ġman":534,"sa":535,"Ġgeus":536,"arg":537,"ala":538,"ĠtÃ©h":539,"ĠÂ":540,"umb":541,"ĠY":542,"Ġmas":543,"eut":544,"Ã©t":545,"Ġbak":546,"tÃ©roid":547,"Ġog":548,"onus":549,"ump":550,"ial":551,"int":552,"anc":553,"oc":554,"st":555,"Ġto":556,"Ġmak":557,"Ġkana":558,"Ġand":559,"eul":560,"Ġatawa":561,"uring":562,"ua":563,"ind":564,"euw":565,"atur":566,"ota":567,"ita":568,"Ġdeu":569,"ungan":570,"ve":571,"Ġthe":572,"ont":573,"ack":574,"Ġpar":575,"Ġta":576,"unda":577,"ation":578,"Ã©m":579,"Ġdis":580,"AR":581,"uar":582,"Ġ6":583,"Ġkas":584,"rup":585,"awan":586,"lan":587,"000":588,"ika":589,"Ã©b":590,"est":591,"Ġsa":592,"if":593,"Ġ19":594,"hot":595,"ĠInd":596,"ĠKasino":597,"ĠÃ©ta":598,"low":599,"anj":600,"Ġdit":601,"Ġpam":602,"Ġkar":603,"Ã©d":604,"job":605,"Ġbakal":606,"euh":607,"ual":608,"20":609,"Ġ8":610,"een":611,"Ġngal":612,"ĠâĢľ":613,"line":614,"unt":615,"ĠastÃ©roid":616,"ain":617,"itu":618,"Ġ,":619,"Ġ7":620,"ĠCh":621,"Ġkeur":622,"Ġpr":623,"Ġhand":624,"all":625,"isan":626,"ĠÃ":627,"arta":628,"ayan":629,"aku":630,"ĠnyaÃ©ta":631,"ort":632,"engk":633,"isi":634,"Ġkab":635,"ov":636,"ĠogÃ©":637,"AT":638,"Ġor":639,"Ġter":640,"Ġpas":641,"Ã©ng":642,"ĠâĢĵ":643,"uy":644,"ĠAnjeun":645,"ĠAp":646,"akt":647,"Ġth":648,"Ġ&":649,"itas":650,"Ã©l":651,"Ġbar":652,"201":653,"Ġkat":654,"akan":655,"iw":656,"Ġngar":657,"lah":658,"10":659,"ard":660,"ingg":661,"ĠAs":662,"ĠSt":663,"Ġde":664,"IN":665,"ĠAm":666,"Ġdeui":667,"ĠAr":668,"âĢ¦":669,"Ġteh":670,"arga":671,"euk":672,"ĠPro":673,"una":674,"Ġ9":675,"ĠPr":676,"li":677,"Ġsabab":678,"our":679,"Ġst":680,"ihan":681,"Ġmangrup":682,"ER":683,"ert":684,"di":685,"Ġro":686,"AL":687,"Ġtur":688,"ans":689,"ost":690,"ĠSare":691,"omp":692,"Ġma":693,"ks":694,"Ġ...":695,"any":696,"ĠNg":697,"Ġkuring":698,"orm":699,"amun":700,"ungg":701,"Ġay":702,"ĠDi":703,"Ġkap":704,"ate":705,"ĠMal":706,"ej":707,"Ġag":708,"qu":709,"ukan":710,"ays":711,"ati":712,"Ġdep":713,"ĠUn":714,"yar":715,"ev":716,"oy":717,"19":718,"com":719,"Ġngag":720,"Ġ10":721,"ĠSunda":722,"igh":723,"ly":724,"ĠĊ":725,"Ġ20":726,"Ġleuw":727,"ĠPer":728,"Ġtaun":729,"Ġ200":730,"aks":731,"oga":732,"Ġkac":733,"Ġkud":734,"uran":735,"ikan":736,"12":737,"Ġsap":738,").":739,"Ġeta":740,"ith":741,"ast":742,"akÃ©":743,"enc":744,"imb":745,"aga":746,"wa":747,"Ġdib":748,"ula":749,"tar":750,"Ġad":751,"Ġmin":752,"ea":753,"âĢĻ":754,"AS":755,"50":756,"ord":757,"pin":758,"akarta":759,"Ġngab":760,"Ġbig":761,"ust":762,"umaha":763,"ey":764,"ef":765,"apan":766,"ieun":767,"Ġaw":768,"osit":769,"ect":770,"ons":771,"Ġ>":772,"ice":773,"enteu":774,"own":775,"ĠNo":776,"Ġâ":777,"Ġtapi":778,"Ġdil":779,"angka":780,"andung":781,"awas":782,"Ġmar":783,"uhan":784,"Ġleuwih":785,"Ġngaj":786,"alah":787,"ðŁ":788,"ill":789,"Ġfor":790,"ond":791,"Ġab":792,"ies":793,"inan":794,"euna":795,"araha":796,"),":797,"oba":798,"ebut":799,"aa":800,"eum":801,"ide":802,"âĢľ":803,"Ġjal":804,"Ġdan":805,"ĠThe":806,"Ġis":807,"iv":808,"ulan":809,"Ã©hna":810,"ional":811,"Ġbonus":812,"ou":813,"Ġkudu":814,"duk":815,"ungk":816,"Ġda":817,"anda":818,"ĠÃī":819,"th":820,"Ġhar":821,"ingk":822,"Ġiti":823,"angkung":824,"Ġtiasa":825,"ĠSar":826,"Ġlatina":827,"Ġbag":828,"ĠÂ»":829,"Ġkad":830,"ree":831,"Ġteen":832,"ĠBar":833,"tur":834,"Ġim":835,"tern":836,"urah":837,"ĠSh":838,"Ġap":839,"ee":840,"EN":841,"Ġac":842,"aja":843,"11":844,"pa":845,"Ġind":846,"aju":847,"Ġhenteu":848,"ayang":849,"av":850,"ash":851,"GG":852,"ener":853,"aos":854,"UN":855,"epi":856,"asan":857,"Ġ$":858,"Ġber":859,"ear":860,"ora":861,"ĠyÃ©n":862,"irup":863,"ja":864,"ani":865,"Ġwa":866,"Ġlatin":867,"Ġngah":868,"aysia":869,"asar":870,"\":":871,"Ġak":872,"Ġkam":873,"Ġdeposit":874,"eunang":875,"Ġngad":876,"Ġmaran":877,"CC":878,"Ġsex":879,"Ġcum":880,"ity":881,"Ĥ¬":882,"aka":883,"ingan":884,"Ġpisan":885,"Ġbo":886,"Ġ[":887,"30":888,"ĠKab":889,"AM":890,"Ġonline":891,"Ġtr":892,"Ġbad":893,"ĠMar":894,"Ġ12":895,"ON":896,"\",":897,"Ġsi":898,"UR":899,"Ġpal":900,"angs":901,"Ġsah":902,"af":903,"Ġkitu":904,"anggo":905,"ĠIeu":906,"Ġch":907,"akeup":908,"angun":909,"Ùİ":910,"Ġlangkung":911,"ens":912,"atu":913,"asil":914,"Ġmangrupa":915,"empat":916,"15":917,"Ġsad":918,"ĠBonus":919,"io":920,"ĠJalan":921,"ering":922,"ode":923,"amat":924,"obil":925,"Ġsp":926,"oÃ©":927,"Ġmil":928,"man":929,"ome":930,"Ġngan":931,"Ġbab":932,"Ġblow":933,"ĠMa":934,"ore":935,"ukeun":936,"load":937,"Ġboga":938,"ĠTr":939,"Ġbal":940,"Ġken":941,"eunaan":942,"ĠSal":943,"ANG":944,"anten":945,"engan":946,"orn":947,"ight":948,"uhur":949,"ame":950,"ake":951,"angt":952,"age":953,"ĠIndon":954,"Ã¨":955,"18":956,"ola":957,"Ġnga":958,"Ġsababaraha":959,"Ġbi":960,"Ġhandjob":961,"da":962,"eri":963,"Ġ=":964,"uka":965,"Ġwakt":966,"14":967,"anana":968,"ĠMan":969,"Ġkasino":970,"Ġbasa":971,"Ġ18":972,"ownload":973,"....":974,"Ã©mb":975,"uw":976,"Ġ2017":977,"Ġ2019":978,"lot":979,"kan":980,"gr":981,"Ġlamun":982,"ĠOn":983,"Ġsat":984,"ĠMalaysia":985,"Ġnag":986,"Ġ'":987,"ĠTer":988,"ĠAc":989,"16":990,"obs":991,"Ġkah":992,"AH":993,"erv":994,"__":995,"Ġum":996,"13":997,"one":998,"usaha":999,"Ġjalma":1000,"Ġngeunaan":1001,"Ġkalawan":1002,"Ġmen":1003,"Ġkaluar":1004,"Ġkom":1005,"Ġtan":1006,"ĠPl":1007,"Ġ2018":1008,"As":1009,"ira":1010,"Ġmun":1011,"iz":1012,"Ġul":1013,"ĠAd":1014,"ĠKar":1015,"ember":1016,"nya":1017,"Ġnepi":1018,"its":1019,"ĠIs":1020,"aca":1021,"Ġmeunang":1022,"Ġhal":1023,"Ġpat":1024,"imp":1025,"Ġar":1026,"Ġmod":1027,"ign":1028,"ics":1029,"ĠMas":1030,"ros":1031,"25":1032,"ini":1033,"Ġsag":1034,"AC":1035,"Ġres":1036,"Ġam":1037,"rom":1038,"17":1039,"ha":1040,"oll":1041,"ank":1042,"arkeun":1043,"Ġloba":1044,"ff":1045,"Ġdun":1046,"ĠPas":1047,"her":1048,"ila":1049,"lik":1050,"usna":1051,"Ġcar":1052,"aki":1053,"Ø§":1054,"olog":1055,"Ġnaon":1056,"Ġged":1057,"Ġun":1058,"iew":1059,"ĠBl":1060,"iri":1061,"Ġ.":1062,"22":1063,"ru":1064,"ĠKu":1065,"do":1066,"Ġlal":1067,"ĠPar":1068,"Ġsalah":1069,"OR":1070,"Ġinter":1071,"ment":1072,"to":1073,"Ġayeuna":1074,"pr":1075,"IS":1076,"Ġup":1077,"Ġyang":1078,"Ã©w":1079,"usan":1080,"ĠZ":1081,"An":1082,"oal":1083,"40":1084,"port":1085,"AG":1086,"ĠX":1087,"ĠAg":1088,"Ġdu":1089,"ĠSab":1090,"ajar":1091,"Ã©nt":1092,"Ġba":1093,"uck":1094,"ona":1095,"In":1096,"agu":1097,"ukur":1098,"ĠKal":1099,"ink":1100,"ima":1101,"ĠSarees":1102,"Ġmana":1103,"udak":1104,"ĠDina":1105,"ct":1106,"Ġwith":1107,"Ġ15":1108,"esia":1109,"out":1110,"ungt":1111,"inal":1112,"omb":1113,"ajump":1114,"imit":1115,"Ġdik":1116,"Ġdig":1117,"old":1118,"Ġmat":1119,"Ġkul":1120,"eub":1121,"rat":1122,"ES":1123,"ix":1124,"rac":1125,"Ġdua":1126,"Ġpara":1127,"uku":1128,"uter":1129,"irl":1130,"Ã©j":1131,"Ġngaw":1132,"jang":1133,"oko":1134,"ell":1135,"ampu":1136,"atang":1137,"ry":1138,"Ġx":1139,"Ġant":1140,"Ġla":1141,"Ġdij":1142,"anapi":1143,"oe":1144,"elas":1145,"shot":1146,"usi":1147,"Ġdim":1148,"Ã©p":1149,"Ġdag":1150,"Ng":1151,"imal":1152,"ass":1153,"tor":1154,"agi":1155,"bah":1156,"apa":1157,"ka":1158,"ongan":1159,"Ġatanapi":1160,"Ġkami":1161,"Ġsur":1162,"Ġluhur":1163,"ĠSaree":1164,"antos":1165,"Ġsh":1166,"ida":1167,"uru":1168,"60":1169,"ĠKota":1170,"Ġdic":1171,"ĠSa":1172,"Ġby":1173,"rop":1174,"Ã©na":1175,"ĠBandung":1176,"cap":1177,"arang":1178,"Ġbari":1179,"Ġmer":1180,"ical":1181,"Ġproduk":1182,"mb":1183,"Ġanyar":1184,"Ġli":1185,"ÙĦ":1186,"tai":1187,"onom":1188,"of":1189,"uge":1190,"Ġjalan":1191,"Ġ14":1192,"alam":1193,"ĠJakarta":1194,"ĠFree":1195,"Ġdir":1196,"Ġut":1197,"upa":1198,"umi":1199,"Ġplan":1200,"ite":1201,"ny":1202,"mi":1203,"Ã¡":1204,"Ã«":1205,"az":1206,"ayu":1207,".âĢĿ":1208,"ook":1209,"AK":1210,"ĠDes":1211,"form":1212,"OS":1213,"Ġcara":1214,"Ġ11":1215,"aptar":1216,"Ġtul":1217,"Ġcumshot":1218,".[":1219,"24":1220,"ce":1221,"iran":1222,"hotos":1223,"Ġpag":1224,"Ã©a":1225,"Ġ17":1226,"Ġ24":1227,"rang":1228,"Ġanak":1229,"ish":1230,"eutik":1231,"ock":1232,"ĠMin":1233,"Ġsalaku":1234,"ayaan":1235,"Ġtempat":1236,"ail":1237,"ĠOnline":1238,"Ġob":1239,"umber":1240,"35":1241,"uli":1242,"unga":1243,"ĠAb":1244,"Ġni":1245,"Ġmakeup":1246,"anu":1247,"ĠPan":1248,"ril":1249,"AB":1250,"Ġop":1251,"ats":1252,"utan":1253,"ĠQ":1254,"ajumpers":1255,"Ġhirup":1256,"Ġ16":1257,"ena":1258,"ideo":1259,"ĠSp":1260,"ating":1261,"ambar":1262,"Ġket":1263,"Ġpl":1264,"Ġlatinas":1265,"Ġhuge":1266,"ime":1267,"ĠMax":1268,"ĠplanÃ©t":1269,"Ġtat":1270,"Ġkon":1271,"usa":1272,"istr":1273,"Ġbah":1274,"CT":1275,"Ġoge":1276,"edah":1277,"Ġsok":1278,"Ġminangka":1279,"Ġsahiji":1280,"Ġ2016":1281,"capada":1282,"ero":1283,"--":1284,"ĠâĤ¬":1285,"ult":1286,"Ġno":1287,"angkeun":1288,"etan":1289,"udi":1290,"Ġmarcapada":1291,"ilu":1292,"23":1293,"ĠnÃ©b":1294,"ie":1295,"Ġsed":1296,"IT":1297,"engah":1298,"Ġ2013":1299,"AD":1300,"US":1301,"Ġ13":1302,"ick":1303,"ĠnÃ©bula":1304,"itan":1305,"ĠBr":1306,"Ġsan":1307,"ĠLat":1308,"ĠAy":1309,"Ã©an":1310,"Ġkaw":1311,"ery":1312,"Ġah":1313,"Ġdes":1314,"sp":1315,"ood":1316,"use":1317,"ade":1318,"ator":1319,"racial":1320,"28":1321,"tra":1322,"ĠÂ·":1323,"unggal":1324,"har":1325,"27":1326,"jeunna":1327,"aliw":1328,"la":1329,"ĠPang":1330,"ĠSil":1331,"ateg":1332,"angsung":1333,"acara":1334,"ĠSel":1335,"atkeun":1336,"ulinan":1337,"Ġsor":1338,"akna":1339,"Ġnyieun":1340,"Ġpil":1341,"Ã©hanana":1342,"Ġkumaha":1343,"EL":1344,"Ã©bas":1345,"Ġmus":1346,"upat":1347,"Home":1348,"ungsi":1349,"Ġanjeunna":1350,"abr":1351,"ue":1352,"arna":1353,"Ġwaktu":1354,"26":1355,"hi":1356,"ĠIndonesia":1357,"ĠIntern":1358,"Ġkalayan":1359,"Ġur":1360,"entuk":1361,"uang":1362,"umbu":1363,"Ġ+":1364,"Ġass":1365,"Ġblowjob":1366,"Ġabdi":1367,"de":1368,"45":1369,"min":1370,"ton":1371,"ura":1372,"Ġ30":1373,"ustr":1374,"21":1375,"99":1376,"ĠAt":1377,"unan":1378,"Ġ08":1379,"200":1380,"ational":1381,"ĠAri":1382,"els":1383,"Ġsup":1384,"Ġbl":1385,"ukang":1386,"iga":1387,"erti":1388,"80":1389,"ĠCo":1390,"inc":1391,"IR":1392,"engkeun":1393,"ĠSur":1394,"ker":1395,"ukup":1396,"Ġinterracial":1397,"Ġhot":1398,"ater":1399,"enter":1400,"Ġbadag":1401,"euweuh":1402,"ext":1403,"Ġmal":1404,"ory":1405,"Ġlain":1406,"anggeus":1407,"eureun":1408,"Ġdunya":1409,"Ġdisebut":1410,"Al":1411,"Ġnal":1412,"AstÃ©roid":1413,"Ġstr":1414,"uct":1415,"ori":1416,"als":1417,"Ġmag":1418,"ĠJawa":1419,"Ġgirl":1420,"Ġpus":1421,"ki":1422,"usahaan":1423,"Ġsub":1424,"irt":1425,"Ġ2015":1426,"Ġaran":1427,"ĠsÃ©j":1428,"esin":1429,"eet":1430,"ĠTh":1431,"ober":1432,"yp":1433,"Ġeuweuh":1434,"ĠBer":1435,"Ġsam":1436,"Ġ2012":1437,"keut":1438,"Ġngaran":1439,"ï¿":1440,"Ġnagara":1441,"Ġart":1442,"ĠmaranÃ©hanana":1443,"ï¿½":1444,"Ġbu":1445,"ĠTapi":1446,"ĠbÃ©bas":1447,"unj":1448,"irim":1449,"air":1450,"ver":1451,"co":1452,"bar":1453,"raf":1454,"Ġpol":1455,"Ä±":1456,"pins":1457,"umna":1458,"ĠsÃ©jÃ©n":1459,"ĠLampu":1460,"Ġporn":1461,"Ġ2014":1462,"ED":1463,"ku":1464,"akat":1465,"imiti":1466,"ingali":1467,"ĠSak":1468,"ĠSM":1469,"Ġdo":1470,"Ġsagala":1471,"lam":1472,"rol":1473,",âĢĿ":1474,"ĠKa":1475,"anggih":1476,"ĠCar":1477,"ahna":1478,"ingering":1479,"AY":1480,"Ġpanon":1481,"bit":1482,"land":1483,"Ð°":1484,"Ġhandap":1485,"55":1486,"ates":1487,"ĠNy":1488,"Ã©f":1489,"engg":1490,"ahkeun":1491,"res":1492,"angga":1493,"Ã©g":1494,"ĠApril":1495,"29":1496,"ĠMakeup":1497,"Ġpad":1498,"ags":1499,"ehna":1500,"nis":1501,"Ġpul":1502,"ecap":1503,"Ġpak":1504,"ujukan":1505,"Ġcom":1506,"ach":1507,"par":1508,"Ġmoal":1509,"Ġmurah":1510,"ĠÙ":1511,"Ã´":1512,"37":1513,"anaj":1514,"ĠmanÃ©hna":1515,"ĠNew":1516,"inta":1517,"Ġnar":1518,"ÃŃ":1519,"Ġkaos":1520,"ett":1521,"Ġmib":1522,"ulis":1523,"Ġfingering":1524,"ork":1525,"Ġus":1526,"eny":1527,"Ġmobil":1528,"able":1529,"Ġcukup":1530,"ins":1531,"ĠAllah":1532,"ollo":1533,"alna":1534,"asup":1535,"IL":1536,"umlah":1537,"ase":1538,"Ġnyang":1539,"urn":1540,"aris":1541,"unakeun":1542,"iwari":1543,"!!":1544,"Ġunt":1545,"atna":1546,"ĠApollo":1547,"ĠAng":1548,"imitian":1549,"anti":1550,"ĠEx":1551,"Ġpin":1552,"Ġpangal":1553,"Ġbuk":1554,"au":1555,"Ġlap":1556,"mu":1557,"eula":1558,"Ġsorangan":1559,"ervice":1560,"Ġkaulinan":1561,"itus":1562,"ci":1563,"Ġ2020":1564,"33":1565,"mp":1566,"ahar":1567,"abi":1568,"ilih":1569,"ĠdipakÃ©":1570,"Ġfrom":1571,"angkan":1572,"amel":1573,"Ġid":1574,"bu":1575,"ern":1576,"edia":1577,"Ġsaw":1578,"Ġrupa":1579,"empo":1580,"Ġ21":1581,"ull":1582,"sh":1583,"asional":1584,"Ġbr":1585,"Ġz":1586,"Ġker":1587,"Ġsamp":1588,"Ġjam":1589,"Ġ*":1590,"abab":1591,"Ġnyaeta":1592,"aliwatan":1593,"Ġngam":1594,"Ġhandjobs":1595,"Ġkol":1596,"dr":1597,"Ġkawas":1598,"Ġaranjeunna":1599,"sy":1600,"andar":1601,"Ã©ns":1602,"Ġhart":1603,"Ġen":1604,"Ġtet":1605,"Ġex":1606,"Ġpik":1607,"Ġik":1608,"usus":1609,"Ġbulan":1610,"OL":1611,"ologi":1612,"ĠJun":1613,"aho":1614,"Ġangg":1615,"ace":1616,"ema":1617,"ĠRes":1618,"Ġdeukeut":1619,"ambahan":1620,"?âĢĿ":1621,"Ġtel":1622,"Ġpeng":1623,"90":1624,"Ġcan":1625,"Ġ25":1626,"tress":1627,"Ġjanten":1628,"Ġco":1629,"ĠðŁ":1630,"Ġ2011":1631,"Ġdatang":1632,"36":1633,"rosir":1634,"ĠEn":1635,"Ġ>>":1636,"Ġkedah":1637,"Ġteens":1638,"Ġkur":1639,"Ġdari":1640,"anan":1641,"EM":1642,"umah":1643,"Ã©dit":1644,"Ġslot":1645,"ĠSup":1646,"hone":1647,"Ġkanggo":1648,"ĠKaos":1649,"Ġpa":1650,"70":1651,"Ġmet":1652,"ET":1653,"Ġtit":1654,"inten":1655,"ĠØ":1656,"Ġmut":1657,"Ġkomp":1658,"Na":1659,"âĨ":1660,"aaaa":1661,"ĠAnd":1662,"Ġe":1663,"Ġser":1664,"Ġnak":1665,"Ġlok":1666,"row":1667,"Ġpent":1668,"Dina":1669,"eal":1670,"Ġhayang":1671,"pl":1672,"Ġrobah":1673,"Ġngora":1674,"cl":1675,"Ġtangg":1676,"Ġgad":1677,"mas":1678,"ĠKabupat":1679,"Ġcai":1680,"ĠTi":1681,"Ġ22":1682,"ĠBah":1683,"Ġmimiti":1684,"Pro":1685,"iy":1686,"Ġ23":1687,"ead":1688,"ĠSer":1689,"ivers":1690,"dit":1691,"Ãī":1692,"Ġunggal":1693,"ancang":1694,"AP":1695,"88":1696,"Ġkak":1697,"esb":1698,"Ð¾":1699,"ech":1700,"ĠCl":1701,"anjang":1702,"ld":1703,"per":1704,"ongkeun":1705,"asana":1706,"Ġsaree":1707,"ors":1708,"oj":1709,"Ġ100":1710,"duct":1711,"ĠNu":1712,"Ġput":1713,"ĠAS":1714,"Ġcl":1715,"Ġbet":1716,"Ã©da":1717,"ĠOr":1718,"Ġukur":1719,"Ch":1720,"kt":1721,"ilan":1722,"eni":1723,"ance":1724,"ĠCenter":1725,"Ġdildo":1726,"\".":1727,"angsa":1728,"ĠMP":1729,"Ġsing":1730,"Ari":1731,"Ġkota":1732,"Rujukan":1733,"Ġem":1734,"Ġsas":1735,"Ġol":1736,"RE":1737,"âĤ¬":1738,"ept":1739,"ĠArt":1740,"ĠNa":1741,"ĠSuk":1742,"Ġleung":1743,"eubeul":1744,"anajan":1745,"oto":1746,"ĠSi":1747,"Ġpaling":1748,"Ġpant":1749,"ĠDr":1750,"ĠKur":1751,"akukeun":1752,"ĠÂ£":1753,"Ġantara":1754,"ool":1755,"eks":1756,"75":1757,"ĠBarat":1758,"ampang":1759,"65":1760,"Ġche":1761,"Ġharga":1762,"oran":1763,"ĠJoh":1764,"embang":1765,"ĠSy":1766,"Ġmasih":1767,"eres":1768,"Ġkel":1769,"Ġdin":1770,"Ġsedengkeun":1771,"Ar":1772,"ĠAmor":1773,"ĠUS":1774,"The":1775,"itud":1776,"'s":1777,"UM":1778,"ection":1779,"UNG":1780,"uman":1781,"Ġdagiti":1782,"ement":1783,"ese":1784,"war":1785,"Ġpay":1786,"Ġsunda":1787,"Ġsacara":1788,"Ġel":1789,"ĠDa":1790,"95":1791,"ikasi":1792,"ju":1793,"Ġari":1794,"ba":1795,"RI":1796,"ĠInternational":1797,"lu":1798,"ĠTeu":1799,"ubungan":1800,"Ġcoc":1801,"ĠAll":1802,"OT":1803,"OM":1804,"ĠSem":1805,"ary":1806,"ram":1807,"ato":1808,"Ġpada":1809,"unung":1810,"____":1811,"ĠKam":1812,"anya":1813,"uf":1814,"UT":1815,"ich":1816,"34":1817,"efir":1818,"ratis":1819,"ĠMasker":1820,"ĠÐ":1821,"Ġimah":1822,"no":1823,"ĠPol":1824,"Ġuntuk":1825,"Ġmay":1826,"Ġtim":1827,"Ġdieu":1828,"asota":1829,"Ġatuh":1830,"ark":1831,"ĠKefir":1832,"era":1833,"05":1834,"Ã©ntr":1835,"apat":1836,"77":1837,"entai":1838,"fr":1839,"ings":1840,"Ġeu":1841,"04":1842,"Ġsakab":1843,"38":1844,"awÃ©":1845,"ure":1846,"Ġhasil":1847,"Ġsakumna":1848,"mat":1849,"Ġparantos":1850,"ĠBlow":1851,"ated":1852,"iny":1853,"Ġnalika":1854,"ĠBi":1855,"Ġbeur":1856,"Ġit":1857,"rek":1858,"ĠTim":1859,"ĠSarasota":1860,"ÙĲ":1861,"!âĢĿ":1862,"Ad":1863,"enah":1864,"Ġceuk":1865,"Ġoral":1866,"Ġkit":1867,"ðŁĴ":1868,"ĠMobil":1869,"ĠSw":1870,"Ġtangt":1871,"Ġparajumpers":1872,"\",\"":1873,"atet":1874,"cr":1875,"ĠbagÃ©an":1876,"onan":1877,"UL":1878,"esbian":1879,"aba":1880,"Ġngaliwatan":1881,"engkon":1882,"Ġjakarta":1883,"Ġdid":1884,"ular":1885,"antaran":1886,"Ġkons":1887,"Ġwh":1888,"Pos":1889,"Ġbudak":1890,"Ġkh":1891,"ayat":1892,"istem":1893,"ĠpoÃ©":1894,"08":1895,"Ġawak":1896,"ĠHot":1897,"ĠUp":1898,"ewengkon":1899,"Ġcon":1900,"Ġwe":1901,"Ġsumber":1902,"Ġwar":1903,"Ġsej":1904,"Ġkaj":1905,"Ġsadaya":1906,"ĠPal":1907,"SM":1908,"amÃ©n":1909,"ĠSum":1910,"Ġtukang":1911,"Ġgirls":1912,"Ġtar":1913,"ile":1914,"Ġcont":1915,"ĠBal":1916,"Ġpany":1917,"Ġkecap":1918,"awang":1919,"Ġobj":1920,"poÃ©":1921,"ĠPlan":1922,"Ġot":1923,"Ġvideo":1924,"ĠmaÃ©n":1925,"eview":1926,"Ġbaju":1927,"Ġu":1928,"Ġki":1929,"Ġbagian":1930,"ayana":1931,"oid":1932,"GT":1933,"ĠMat":1934,"Ġang":1935,"Ġalus":1936,"Ġmagn":1937,"Di":1938,"ikel":1939,"Ġja":1940,"Ġsuck":1941,"Ġbas":1942,"Ġdiri":1943,"gram":1944,"ĠAw":1945,"ï¸":1946,"Ġ50":1947,"arah":1948,"Ġboobs":1949,"ï¸ı":1950,"Ġdiw":1951,"ĠFor":1952,"39":1953,"Ġpen":1954,"Ġdipik":1955,"ĠPikeun":1956,"Ġalat":1957,"ĠSilk":1958,"Ġhad":1959,"IK":1960,"Ġkaasup":1961,"Ġtits":1962,"gan":1963,"acam":1964,"rist":1965,"Ġbel":1966,"inggi":1967,"amana":1968,"Ã©mber":1969,"ĠTrans":1970,"Ġsaj":1971,"Tut":1972,"âĢ¦âĢ¦":1973,"Ġpm":1974,"Ġdata":1975,"Ã©rÃ©":1976,"44":1977,"Ġday":1978,"ious":1979,"andak":1980,"ĠKuring":1981,",\"":1982,"Ġkaayaan":1983,"Ġdih":1984,"ugi":1985,"tiv":1986,"ran":1987,"Daptar":1988,"ĠâĢ¢":1989,"Ġweb":1990,"ĠEur":1991,"ĠTaman":1992,"ðŁĴµ":1993,"Ġpos":1994,"imah":1995,"ĠDI":1996,"hy":1997,"Ġil":1998,"ĠPam":1999,"Ġlesbian":2000,"ĠÃīks":2001,"Ġbalik":2002,"Ġmant":2003,"Ã©dia":2004,"Ðµ":2005,"Ġdownload":2006,"Ġterus":2007,"Ġsarua":2008,"Ġmot":2009,"Ġtah":2010,"ager":2011,"epang":2012,"Ġlalaki":2013,"ĠPet":2014,"ĠbÃ©da":2015,"Ãĥ":2016,"**":2017,"uth":2018,"kake":2019,"ingkat":2020,"ĠðŁĳ":2021,"les":2022,"Ġdengan":2023,"Ġhid":2024,"Ġsangkan":2025,"awab":2026,"ĠrÃ©k":2027,"Ġprim":2028,"epon":2029,"Ġmanusa":2030,"ĠIng":2031,"Ġpenting":2032,"ital":2033,"Un":2034,"ĠWith":2035,"Ġsare":2036,"osted":2037,"ĠpanonpoÃ©":2038,"Ġsel":2039,"Ġngagunakeun":2040,"ĠpamakÃ©":2041,"ÙĨ":2042,"lor":2043,"ean":2044,"Ġout":2045,"Ġwae":2046,"ĠBig":2047,"03":2048,"ING":2049,"let":2050,"enang":2051,"ajeng":2052,"Ġjasa":2053,"ID":2054,"pro":2055,"ose":2056,"ica":2057,"oft":2058,"ism":2059,"Ã¢":2060,"Ã©nd":2061,"Ġleutik":2062,"abaya":2063,"Ġbatur":2064,"ĠGo":2065,",,":2066,"kah":2067,"ĠAM":2068,"likasi":2069,"erang":2070,"ĠPa":2071,"Ġmul":2072,"St":2073,"ģï¸ı":2074,"ĠðŁĳģï¸ı":2075,"ei":2076,"85":2077,"oo":2078,"ĠPart":2079,"uri":2080,"nÃ©":2081,"ĠPhotos":2082,"ĠPlay":2083,"ature":2084,"??":2085,"Kawas":2086,"Ġsem":2087,"Ġtilu":2088,"Ã©sia":2089,"ound":2090,"Ġliang":2091,"uhu":2092,"ĠTa":2093,"Ġboh":2094,"Ġsanggeus":2095,"Ġaj":2096,"Ġboot":2097,"Ġge":2098,"UK":2099,"Ġju":2100,"ale":2101,"acan":2102,"ĠBasa":2103,"asion":2104,"Ġrek":2105,"))":2106,"isnis":2107,"tif":2108,"ĠgÃ©":2109,"Ġteuing":2110,"IM":2111,"eed":2112,"Ġbul":2113,"2014":2114,"Ġpap":2115,"Ġbe":2116,"ĠgedÃ©na":2117,"iki":2118,"à¤":2119,"tronom":2120,"ĠUs":2121,"ĠMus":2122,"ĠUt":2123,"Ġleb":2124,"ca":2125,"ĠkÃ©n":2126,"engkep":2127,"Kaos":2128,"ĠobjÃ©k":2129,"way":2130,"rak":2131,"ĠBlowjob":2132,"Ġ2010":2133,"ĠNov":2134,"ÙĴ":2135,"Ġluar":2136,"inggal":2137,"Ġpasar":2138,"irupan":2139,"ikat":2140,"ujuan":2141,"Ġlum":2142,"09":2143,"ĠUnion":2144,"pli":2145,"Ġpanjang":2146,"ungkeun":2147,"Ġtek":2148,"Ġ26":2149,"Ġkacatet":2150,"ĠEl":2151,"vel":2152,"Ġbur":2153,"adian":2154,"Ġhentai":2155,"Ġpel":2156,"han":2157,"ĠKabupatÃ©n":2158,"Ġnganj":2159,"Ġdum":2160,"ajan":2161,"ips":2162,"06":2163,"Ã©fÃ©r":2164,"ne":2165,"Ġkabentuk":2166,"rap":2167,"ĠCina":2168,"Ġyen":2169,"eran":2170,"Ġkali":2171,"ding":2172,"ensi":2173,"32":2174,"Ġwewengkon":2175,"ĠKas":2176,"Ġorbit":2177,"rev":2178,"Ġpes":2179,"uhun":2180,"Ġtanggal":2181,"ĠDownload":2182,"Ġlagu":2183,"entukan":2184,"ĠMurah":2185,"Ġmutl":2186,"ĠPak":2187,"ness":2188,"Ġgaduh":2189,"Ġasian":2190,"Tutumbu":2191,"Ġcumshots":2192,"ĠPlanet":2193,"uda":2194,"Ġbut":2195,"tion":2196,"Ġtetep":2197,"Ġjob":2198,"ĠPut":2199,"Beb":2200,"euÃ«":2201,"ongk":2202,"Ġbaris":2203,"Ġbooty":2204,"antor":2205,"Ġmasalah":2206,"Ġ28":2207,"Ġmel":2208,"Ùħ":2209,"ĠAya":2210,"ĠmaranÃ©hna":2211,"Ġuk":2212,"Ã¶":2213,"eug":2214,"anuari":2215,"teroid":2216,"Ġ01":2217,"itudo":2218,"isitas":2219,"Ġnganjrek":2220,"Ġpun":2221,"ĠKap":2222,"hat":2223,"66":2224,"ĠAk":2225,"ous":2226,"Ġlangsung":2227,"Ġdijieun":2228,"ĠKang":2229,"baru":2230,"ium":2231,"Ġbukkake":2232,"Ġsil":2233,"ĠâĢĺ":2234,"Ġsol":2235,"ĠAstronom":2236,"alitas":2237,"Ã©nsina":2238,"IC":2239,"Ġsang":2240,"Ñģ":2241,"Sh":2242,"mad":2243,"ĠAir":2244,"ĠWil":2245,"ĠMet":2246,"ĠStr":2247,"ĠrÃ©fÃ©r":2248,"ĠMinor":2249,"Ġtanpa":2250,"Ġgambar":2251,"Ġsitus":2252,"ĠIndonÃ©sia":2253,"ktober":2254,"urna":2255,"07":2256,"eda":2257,"Ġasteroid":2258,"ĠmakÃ©":2259,"Ġbeubeul":2260,"ĠCom":2261,"Ġbeubeulahan":2262,"adu":2263,"ordial":2264,"Ð¸":2265,"48":2266,"Ġsum":2267,"ĠAstronomical":2268,"Ġbahan":2269,"Ġprimordial":2270,"ĠIslam":2271,"Ġmagnitudo":2272,"Ġthat":2273,"Ã©ntrisitas":2274,"ĠTel":2275,"hun":2276,"yr":2277,"alt":2278,"Ġblowjobs":2279,"iss":2280,"ĠrÃ©fÃ©rÃ©nsina":2281,"ĠBel":2282,"Ġmutlakna":2283,"isimal":2284,"Bebentukan":2285,"ĠÃīksÃ©ntrisitas":2286,"ĠplanÃ©tisimal":2287,"atif":2288,"Ġjero":2289,"02":2290,"ere":2291,"udaya":2292,"utkeun":2293,"ire":2294,"erah":2295,"Ġumum":2296,"enis":2297,"TA":2298,"Ġ27":2299,"arian":2300,"ruari":2301,"alik":2302,"Ġlemb":2303,"xx":2304,"47":2305,"alon":2306,"ampung":2307,"Ġtip":2308,"oyong":2309,"Ġjack":2310,"lim":2311,"ĠDep":2312,"yan":2313,"ource":2314,"amaÃ©n":2315,"ĠCont":2316,"ĠMPO":2317,"anggihan":2318,"ĠPeng":2319,"Ġbat":2320,"ðŁİ":2321,"31":2322,"Ġpop":2323,"Ġke":2324,"Ġulah":2325,"abrik":2326,"Ġ@":2327,"Ġbarang":2328,"eueur":2329,"Ġintern":2330,"Pr":2331,"ĠKom":2332,"ÑĤ":2333,"apkeun":2334,"uma":2335,"eud":2336,"ĠSu":2337,"Ġpost":2338,".\"":2339,"Ġsaperti":2340,"ĠHarga":2341,"eaut":2342,"se":2343,"Ġsim":2344,"Ġpend":2345,"ories":2346,"Ġmeng":2347,"49":2348,"ogor":2349,"ge":2350,"ĠBu":2351,"Ġduit":2352,"GA":2353,"ĠRep":2354,"Ġtab":2355,"Ġjar":2356,"PS":2357,"ðŁİģ":2358,"ĠmÃ©n":2359,"agiti":2360,"inggu":2361,"Ġtrans":2362,"oon":2363,"ĠSet":2364,"Ġnaw":2365,"adah":2366,"Ġbub":2367,"Âł":2368,"Ġgampang":2369,"Ġpok":2370,"âĢĥ":2371,"âĨĳ":2372,"ĠCon":2373,"erc":2374,"ĠSan":2375,"ugh":2376,"Ġset":2377,"ĠBo":2378,"ĠJuli":2379,"ĠDec":2380,"angkal":2381,"awat":2382,"ĠAN":2383,"ĠMen":2384,"ĠBunga":2385,"okot":2386,"ck":2387,"ive":2388,"Ġlian":2389,"Ġmangsa":2390,"ĠGr":2391,"ĠBat":2392,"Ġkaca":2393,"ĠIN":2394,"ban":2395,"Ġmem":2396,"ars":2397,"formasi":2398,"arakat":2399,"Ġwaktos":2400,"ĠDo":2401,"asaan":2402,"Ã¼":2403,"uga":2404,"earch":2405,"ĠIm":2406,"idang":2407,"ĠÃ©":2408,"ĠOktober":2409,"Ġsu":2410,"eat":2411,"ĠSam":2412,"ĠBag":2413,"ĠTop":2414,"ĠJanuari":2415,"erl":2416,"gris":2417,"ĠProduk":2418,"ĠwaÃ©":2419,"ilang":2420,"TC":2421,"ega":2422,"46":2423,"angkat":2424,"uks":2425,"isasi":2426,"Äģ":2427,"ĠIt":2428,"alia":2429,"ush":2430,"ĠRo":2431,"Ø§ÙĦ":2432,"orld":2433,"DA":2434,"alu":2435,"Ġfre":2436,"aksan":2437,"ilah":2438,"Ġyou":2439,"erm":2440,"ĠMod":2441,"Ġmp":2442,"Ind":2443,"Ġalam":2444,"arita":2445,"ÑĢ":2446,"entar":2447,"Ġningali":2448,"100":2449,"Ġfree":2450,"Ġmap":2451,"usti":2452,"Ġmasarakat":2453,"angunan":2454,"ĠKer":2455,"ayah":2456,"ĠHal":2457,"rupa":2458,"ĠKA":2459,"Ġjobs":2460,"ĠIndian":2461,"eman":2462,"Ġbiasa":2463,"Ã©nsi":2464,"Ġpers":2465,"ĠUrang":2466,"eptember":2467,"euki":2468,"arÃ©nt":2469,"ertos":2470,"Ġjumlah":2471,"Ã©ks":2472,"Ġpangg":2473,"Ġ29":2474,"ebon":2475,"ogle":2476,"emen":2477,"Ġnaha":2478,"Ġare":2479,"ĠUnivers":2480,"reen":2481,"Ġkor":2482,"esep":2483,"Ġmik":2484,"arik":2485,"nologi":2486,"ĠSpins":2487,"Ġkiwari":2488,"Ġkag":2489,"ograf":2490,"ajaran":2491,"Ġsakumaha":2492,"Ġkang":2493,"ĠMang":2494,"Ġjual":2495,"Ãª":2496,"ĠLamun":2497,"adang":2498,"Ġmangrupakeun":2499,"Ġseb":2500,"Ġnas":2501,"ts":2502,"erb":2503,"Ġini":2504,"ambah":2505,"Ġkont":2506,"Ġsarees":2507,"ĠJam":2508,"Ġtos":2509,"wal":2510,"Ġcap":2511,"ĠRp":2512,"ĠKul":2513,"ÙĬ":2514,"ustus":2515,"ĠKat":2516,"pang":2517,"Ġtut":2518,"onj":2519,"Ã©rika":2520,"Ġkulaw":2521,"ukum":2522,"ence":2523,"ĠJeung":2524,"Ġsistem":2525,"Ġmake":2526,"atis":2527,"Ġkr":2528,"Ġkungsi":2529,"ĠTeen":2530,"adiakeun":2531,"ĠFac":2532,"ĠDÃ©s":2533,"Ġnyan":2534,"bating":2535,"Ġtangtu":2536,"ann":2537,"ĠDis":2538,"Ġbener":2539,"Ġfil":2540,"II":2541,".,":2542,"Ġya":2543,"ĠPat":2544,"Ġtuluy":2545,"ĠMaret":2546,"ware":2547,"Ġhusus":2548,"iwat":2549,"Ġthro":2550,"iginal":2551,"ĠPrint":2552,"Ġing":2553,"unc":2554,"ĠLatina":2555,"Ġsaha":2556,"Ġrasa":2557,"Ġkualitas":2558,"isata":2559,"ĠÃ©l":2560,"mm":2561,"Ġsejen":2562,"idul":2563,"uthor":2564,"fo":2565,"Ġpros":2566,"esi":2567,"oka":2568,"Ġresep":2569,"der":2570,"à¸":2571,"Ġbeb":2572,"Ġutama":2573,"ĠâĢĶ":2574,"olah":2575,"ages":2576,"su":2577,"ungkin":2578,"Ġgancang":2579,"ĠnÃ©":2580,"itik":2581,"abumi":2582,"ze":2583,"ĠTur":2584,"Ã§":2585,"Ġmi":2586,"Ġusaha":2587,"Ġsakola":2588,"ĠLed":2589,"Ġmibanda":2590,"Ġsek":2591,"ingpin":2592,"Ġqu":2593,"aji":2594,"Ġhack":2595,"78":2596,"rah":2597,"amin":2598,"ulo":2599,"Ġasup":2600,"Ġnyebut":2601,"esan":2602,"Ġip":2603,"lang":2604,"urkeun":2605,"Ġtum":2606,"Ex":2607,"ĠJohor":2608,"ĠInggris":2609,"aturan":2610,"ĠMp":2611,"ga":2612,"anggiri":2613,"Ġoff":2614,"Ġpangalusna":2615,"lat":2616,"ĠFr":2617,"ette":2618,"antung":2619,"Ġbuku":2620,"Ġjauh":2621,"ĠMun":2622,"Posted":2623,"ĠPost":2624,"ĠAmÃ©rika":2625,"Ġmesin":2626,"Ðº":2627,"ĠâĨ":2628,"Ġmatak":2629,"Ġtambahan":2630,"ĠService":2631,"Ġ)":2632,"ĠWal":2633,"Ġpussy":2634,"erg":2635,"Ã©wÃ©":2636,"Ġmungg":2637,"Ø±":2638,"........":2639,"56":2640,"ĠSang":2641,"ibut":2642,"ajarah":2643,"entang":2644,"Ġpemb":2645,"Ġdinten":2646,"Ġiklan":2647,"revious":2648,"ataan":2649,"sur":2650,"Ġnatur":2651,"ĠbaÃ©":2652,"ĠPM":2653,"wan":2654,"Ġkl":2655,"osial":2656,"ayo":2657,"Ġamp":2658,"Ġlantaran":2659,"ji":2660,"ĠGar":2661,"ĠCash":2662,"ajaan":2663,"aksanakeun":2664,"à®":2665,"ungna":2666,"uis":2667,"Ġub":2668,"agara":2669,"IP":2670,"Ġkahirupan":2671,"âĢĿ,":2672,"enan":2673,"amil":2674,"Ġdr":2675,"Ġkituna":2676,"erita":2677,"Ġcarita":2678,"Ġada":2679,"ĠPus":2680,"ĠMad":2681,"Ùı":2682,"ĠBali":2683,"Ġturn":2684,"Ġjaman":2685,"Ġsy":2686,"Ġnude":2687,"Ġlengkep":2688,"Sal":2689,"Ġseueur":2690,"ĠpamaÃ©n":2691,"ĠSing":2692,"ĠTan":2693,"ension":2694,"osa":2695,"akit":2696,"Ġ07":2697,"Ġrep":2698,"Ġbre":2699,"ayar":2700,"ĠFil":2701,"andi":2702,"Ġmanggihan":2703,"Ġprof":2704,"ustri":2705,"inding":2706,"asta":2707,"ĠJan":2708,"ongs":2709,"ĠWik":2710,"ony":2711,"dul":2712,"Ġlo":2713,"ket":2714,"Ġnyaho":2715,"Ġphotos":2716,"bo":2717,"ĠAlloh":2718,"ĠAss":2719,"ĠNO":2720,"Ġund":2721,"euting":2722,"Ġpanas":2723,"Ġmanehna":2724,"ĠsamÃ©m":2725,"Ġheula":2726,"Ġbod":2727,"Ġsapertos":2728,"edit":2729,"Ġget":2730,"osan":2731,"GC":2732,"mo":2733,"yak":2734,"Ġ40":2735,"Ġre":2736,"Ġdar":2737,"ĠPT":2738,"Ġchip":2739,"Ġacara":2740,"ping":2741,"ĠJepang":2742,"ho":2743,"ĠJuni":2744,"ĠLa":2745,"Ġrada":2746,"ni":2747,"atos":2748,"Ġngalakukeun":2749,"Ġsin":2750,"Ġsadayana":2751,"ĠTV":2752,"day":2753,"itt":2754,"Ġgl":2755,"ĠKami":2756,"ulu":2757,"usabab":2758,"ĠAh":2759,"ĠSeptember":2760,"ĠPin":2761,"ĠAgustus":2762,"Ð½":2763,"Source":2764,"abu":2765,"Ġsump":2766,"Ġjel":2767,"Ġnuhun":2768,"Ġ2009":2769,"IA":2770,"unya":2771,"bl":2772,"áĥ":2773,"Ġhat":2774,"mail":2775,"Ã³":2776,"Ġsora":2777,"Ġlila":2778,"EP":2779,"Â»":2780,"parajumpers":2781,"Ġir":2782,"otal":2783,"ute":2784,"amaha":2785,"uary":2786,"anding":2787,"stan":2788,"Ġbeuki":2789,"Ġupami":2790,"Ġbandung":2791,"euli":2792,"omong":2793,"omer":2794,"umbai":2795,"Ġmangrupikeun":2796,"Ġnganggo":2797,"ĠUm":2798,"esus":2799,"Ġsir":2800,"ĠJual":2801,"ĠSlot":2802,"Ġ199":2803,"Ġpart":2804,"omen":2805,"ĠSukabumi":2806,"eo":2807,"ayanan":2808,"Ġbisnis":2809,"ĠMobile":2810,"uat":2811,"agan":2812,"Ġ{":2813,"ĠÃīta":2814,"Ġbarudak":2815,"ĠSat":2816,"Ġmur":2817,"itur":2818,"Ġtoko":2819,"OK":2820,"Ġmilih":2821,"Ġhareup":2822,"ling":2823,"awi":2824,"abil":2825,"ĠâĢ¦":2826,"nik":2827,"ĠJl":2828,"anggap":2829,"ĠIndia":2830,"ĠIk":2831,"iswa":2832,"Ġharita":2833,"ĠBuk":2834,"ĠDesign":2835,"yÃ©k":2836,"Ġpet":2837,"ĠPel":2838,"ingal":2839,"Ġpert":2840,"ĠGal":2841,"----":2842,"Ġmad":2843,"Ġhoyong":2844,"ĠkarÃ©ta":2845,"Ġwal":2846,"osi":2847,"ĠPil":2848,"Ġperc":2849,"eroll":2850,"ĠComp":2851,"Ġgel":2852,"ower":2853,"ĠâĢİ":2854,"Ġbang":2855,"',":2856,"dim":2857,"Ġdalam":2858,"ral":2859,"AW":2860,"ĠAnt":2861,"Ġfreeroll":2862,"Ġtin":2863,"makeup":2864,"Ġtu":2865,"ĠKon":2866,"âĢĵ":2867,"Ġpilihan":2868,"Ã©ka":2869,"ĠJasa":2870,"mer":2871,"Ġalatan":2872,"Ġpot":2873,"57":2874,"asilkeun":2875,"Ġleungeun":2876,"ENG":2877,"2019":2878,"igana":2879,"AND":2880,"ondok":2881,"Ġsep":2882,"Ġha":2883,"Ġrel":2884,"ĠTour":2885,"Ġtiang":2886,"Ä°":2887,"Ġsexy":2888,"utup":2889,"Pang":2890,"Ġlog":2891,"ografi":2892,"ÃĤ":2893,"ebook":2894,"ĠOff":2895,"ĠGame":2896,"Ġib":2897,"Ġmalah":2898,"ĠdÃ©":2899,"AA":2900,"REE":2901,"Ġkadagiti":2902,"Ġgar":2903,"Ġmaks":2904,"awal":2905,"alungt":2906,"Ġtak":2907,"Ġ!":2908,"RO":2909,"Ġsus":2910,"Ġprogram":2911,"irang":2912,"imum":2913,"ĠâĨĴ":2914,"Ġtal":2915,"adikeun":2916,"Ġmis":2917,"Ġmunggaran":2918,"ĠGoogle":2919,"Ġca":2920,"Ġ2008":2921,"ĠSub":2922,"Ġbiasana":2923,"ĠKacam":2924,"ĠMot":2925,"awak":2926,"Ġring":2927,"Eur":2928,"Ġgag":2929,"ype":2930,"Ġdumasar":2931,"Nu":2932,"ÙĪ":2933,"Ġmind":2934,"Ġwan":2935,"KU":2936,"Ġmiboga":2937,"ĠkÃ©nÃ©h":2938,"cm":2939,"Ġvers":2940,"Ġpasti":2941,"Ġspins":2942,"68":2943,"58":2944,"AJ":2945,"Ġhartina":2946,"Ġkacida":2947,"ĠmÃ©":2948,"ĠBogor":2949,"amah":2950,"Ġpoh":2951,"Ġanal":2952,"edang":2953,"ĠKad":2954,"awe":2955,"ĠturnamÃ©n":2956,"ili":2957,"eunt":2958,"actur":2959,"ron":2960,"usia":2961,"Ġkeneh":2962,"Ġte":2963,"nyan":2964,"ions":2965,"antara":2966,"ĠCasino":2967,"lin":2968,"po":2969,"arasi":2970,"Ġsip":2971,"Ġnamp":2972,"ĠPasanggiri":2973,"ĠsanÃ©s":2974,"ĠTra":2975,"uwuh":2976,"arti":2977,"ĠPen":2978,"ise":2979,"ĠBaju":2980,"Ġcheats":2981,"uz":2982,"ict":2983,"ropa":2984,"ĠPant":2985,"Ġcomp":2986,"Dip":2987,"ĠAnak":2988,"No":2989,"ĠChina":2990,"mal":2991,"eja":2992,"Ġprib":2993,"ames":2994,"59":2995,"Ġkieu":2996,"Ġsanajan":2997,"asin":2998,"asik":2999,"ela":3000,"riv":3001,"Ġantar":3002,"irna":3003,"Ġsc":3004,"Ġtinggi":3005,"inas":3006,"angi":3007,"Ġnyandak":3008,"ampak":3009,"42":3010,"ations":3011,"Ġnangt":3012,"Ġasa":3013,"ĠOct":3014,"ancis":3015,"oung":3016,"Ġsisi":3017,"Ġmaca":3018,"ĠGusti":3019,"Ġkulawarga":3020,"udio":3021,"ĠFREE":3022,"Ġend":3023,"TT":3024,"ĠKh":3025,"ĠBan":3026,"uskeun":3027,"Ġmodels":3028,"tain":3029,"Ġnur":3030,"Rp":3031,"egan":3032,"Ġdiajar":3033,"ĠDip":3034,"org":3035,"Ġshot":3036,"jo":3037,"oro":3038,"Ġsk":3039,"ĠmÃ©rÃ©":3040,"Ġnew":3041,"Ġeusi":3042,"43":3043,"Ġse":3044,"ĠanÃ©":3045,"ubl":3046,"ĠMesin":3047,"amba":3048,"Ġsumping":3049,"ugas":3050,"Ã©tan":3051,"ĠTah":3052,"41":3053,"Ġ00":3054,"ĠJaya":3055,"Ġ?":3056,"ĠNeg":3057,"69":3058,"Ġkolot":3059,"Ġkart":3060,"iriman":3061,"ĠSk":3062,"amis":3063,"ajah":3064,"ĠTimur":3065,"ontal":3066,"unjuk":3067,"ĠDir":3068,"otton":3069,"Ġ09":3070,"ĠPi":3071,"lus":3072,"ĠToko":3073,"eksi":3074,"Ġkapanggih":3075,"aaaaaaaa":3076,"ĠMay":3077,"onomi":3078,"gal":3079,"act":3080,"ĠsakabÃ©h":3081,"ĠSAR":3082,"olor":3083,"Ġ03":3084,"ĠMah":3085,"ets":3086,"UP":3087,"Ġtid":3088,"alma":3089,"Ġdeep":3090,"ĠColl":3091,"eck":3092,"Ġngur":3093,"Ġkarya":3094,"ĠBab":3095,"akar":3096,"ĠSD":3097,"esar":3098,"Ġperk":3099,"tu":3100,"ĠKi":3101,"SI":3102,"Ã©si":3103,"ĠAnjeunna":3104,"ĠKuala":3105,"Ġpem":3106,"iring":3107,"Ġent":3108,"Ġkajadian":3109,"agar":3110,"Ġlah":3111,"ii":3112,"aksi":3113,"Ġukuran":3114,"Ġteras":3115,"Ġsw":3116,"ĠbÃ©":3117,"Ġaplikasi":3118,"arengan":3119,"edding":3120,"Ã©bruari":3121,"ayakeun":3122,"ĠCir":3123,"asts":3124,"ufactur":3125,"ipt":3126,"ye":3127,"Ġnot":3128,"Ġtop":3129,"ĠBlo":3130,"Ġbunga":3131,"ath":3132,"dimension":3133,"nu":3134,"ening":3135,"79":3136,"Ã´n":3137,"ĠDe":3138,"ĠTransport":3139,"arios":3140,"Ġnap":3141,"Ġga":3142,"Ùĩ":3143,"Ġnik":3144,"ĠMak":3145,"Ġdimana":3146,"Ġkahiji":3147,"OP":3148,"oles":3149,"ado":3150,"ĠDÃ©sÃ©mber":3151,"EK":3152,"ĠBlack":3153,"ingkungan":3154,"Ġinformasi":3155,"ys":3156,"EC":3157,"Ġko":3158,"udah":3159,"Ġayana":3160,"tikeun":3161,"ĠTar":3162,"ingga":3163,"Ġsaeutik":3164,"Kumaha":3165,"ĠCan":3166,"elan":3167,"Ġtrad":3168,"Ġhas":3169,"ujeng":3170,"Ġterang":3171,"ĠActress":3172,"Ġist":3173,"á®":3174,"Ã©sa":3175,"ĠawÃ©wÃ©":3176,"Kal":3177,"ĠWikip":3178,"Ã©rah":3179,"Ġbahasa":3180,"ewe":3181,"ĠNoSource":3182,"Ġbudaya":3183,"Ġbade":3184,"ĠHar":3185,"asang":3186,"ids":3187,"ĠWager":3188,"over":3189,"erasi":3190,"Ġthis":3191,"Ġrar":3192,"ograp":3193,"Ġdasar":3194,"Ġpangalaman":3195,"Ġkurang":3196,"stem":3197,"Sak":3198,"Ti":3199,"Ġkacam":3200,"jalan":3201,"ĠSol":3202,"pon":3203,"ĠSad":3204,"Ġblog":3205,"Ġlem":3206,"Ġcr":3207,"Ġ02":3208,"Ġdok":3209,"ife":3210,"awanoh":3211,"Ġwil":3212,"Ġdugi":3213,"Ieu":3214,"eter":3215,"ĠShop":3216,"2015":3217,"Ġrah":3218,"Ġbae":3219,"ĠLED":3220,"Ny":3221,"ago":3222,"ĠOut":3223,"Ġkode":3224,");":3225,"ms":3226,"Ġyour":3227,"ĠHigh":3228,"Ġlan":3229,"fi":3230,"ĠRaya":3231,"aresep":3232,"Ġthroat":3233,"ĠUl":3234,"Ġgratis":3235,"Ġpabrik":3236,"Ð»":3237,"impen":3238,"Harga":3239,"iko":3240,"Ġkany":3241,"ĠAnu":3242,"Ġlumangsung":3243,"Ġjelema":3244,"eka":3245,"site":3246,"ungkul":3247,"Ġgor":3248,"nah":3249,"ham":3250,"te":3251,"Ġmawa":3252,"Ġnyebutkeun":3253,"Ġne":3254,"Ġtatto":3255,"ĠMaj":3256,"Ġmodel":3257,"Ġsosial":3258,"ogaan":3259,"Ku":3260,"ĠBahasa":3261,"Ġtingkat":3262,"Ġnyadiakeun":3263,"Ġpanag":3264,"Ġorgan":3265,"2018":3266,"ugu":3267,"str":3268,"ities":3269,"Ã©ra":3270,"ĠØ§ÙĦ":3271,"ax":3272,"ĠCat":3273,"Next":3274,"Ġtungt":3275,"ĠMel":3276,"alang":3277,"Ġet":3278,"Ġ31":3279,"Ġkm":3280,"oot":3281,"Ġmantuan":3282,"ĠKor":3283,"angerang":3284,"akses":3285,"alin":3286,"ÅŁ":3287,"Ġtujuan":3288,"Ġtaya":3289,"omi":3290,"Ġhubungan":3291,"ko":3292,"Ġnang":3293,"Ġwarna":3294,"ĠEng":3295,"ĠLagu":3296,"erd":3297,"Ġreview":3298,"Tags":3299,"ĠNovember":3300,"ris":3301,"Ġitu":3302,"oda":3303,"eral":3304,"ulung":3305,"car":3306,"Ġlianna":3307,"iman":3308,"ĠBro":3309,"''":3310,"bi":3311,"ĠBur":3312,"Ġwas":3313,"Sel":3314,"Ġlang":3315,"Ġpih":3316,"Ġmend":3317,"ĠAfr":3318,"udul":3319,"ANT":3320,"tact":3321,"Ġopat":3322,"Ġasalna":3323,"ava":3324,"irst":3325,"ĠSm":3326,"Ġpinuh":3327,"Ġanggota":3328,"aduhan":3329,"ĠNya":3330,"54":3331,"Ġkuat":3332,"akuatan":3333,"istrik":3334,"euj":3335,"iru":3336,"Ġsqu":3337,"ebr":3338,"Ġmastur":3339,"ĠGunung":3340,"Out":3341,"Ġnep":3342,"ĠUk":3343,"Sa":3344,"ĠIS":3345,"Ùĳ":3346,"ĠhadÃ©":3347,"Ġ60":3348,"Ġkagi":3349,"Ġbreasts":3350,"ĠBad":3351,"Ġdiwangun":3352,"fa":3353,"empetan":3354,"ĠNews":3355,"oman":3356,"Ġngarasa":3357,"uji":3358,"unÃ©":3359,"br":3360,"Ġcenah":3361,"ĠCode":3362,"ĠWeb":3363,"ohan":3364,"Ġmed":3365,"ĠGrosir":3366,"za":3367,"OD":3368,"wi":3369,"Ġkin":3370,"ĠNabi":3371,"sib":3372,"ĠQu":3373,"ĠSun":3374,"ĠKel":3375,"Ġhe":3376,"Ġfac":3377,"ber":3378,"ger":3379,"ning":3380,"Ġbumi":3381,"ukna":3382,"oftware":3383,"ĠRaja":3384,"Ġjang":3385,"Î±":3386,"ambung":3387,"aban":3388,"Previous":3389,"ĠPos":3390,"Ġyak":3391,"Ġbatu":3392,"ĠST":3393,"arÃ©ntah":3394,"hoto":3395,"cc":3396,"Ġpu":3397,"67":3398,"Ġrumah":3399,"Ġtra":3400,"89":3401,"uci":3402,"Ġban":3403,"Ġngandung":3404,"Mal":3405,"Ġnaturals":3406,"atus":3407,"amanan":3408,"Ġbeung":3409,"kal":3410,"sum":3411,"itar":3412,"Ġkeu":3413,"________":3414,"Ġkelas":3415,"ĠBest":3416,"nd":3417,"ĠgedÃ©":3418,"ĠMuh":3419,"Ġkadua":3420,"Ġgede":3421,"Ġsalila":3422,"ĠRM":3423,"ropÃ©a":3424,"uto":3425,"ĠSek":3426,"ĠMed":3427,"kar":3428,"ĠOp":3429,"ĠKec":3430,"ĠVideo":3431,"Ġnuju":3432,"plier":3433,"Ġdicks":3434,"Ġhak":3435,"Ġint":3436,"Ġdinya":3437,"ecial":3438,"ĠArab":3439,"ĠUK":3440,"Ġngabogaan":3441,"urat":3442,"ĠBul":3443,"Ġlima":3444,"top":3445,"ental":3446,"Ġgr":3447,"que":3448,"Ġutamana":3449,"Ġnemb":3450,"Ġayam":3451,"Ġdepuis":3452,"Bl":3453,"unun":3454,"etik":3455,"ĠKan":3456,"LE":3457,"Ġsik":3458,"Ġtap":3459,"Ġapi":3460,"ĠKun":3461,"ments":3462,"Sp":3463,"ler":3464,"ui":3465,"press":3466,"Ġ35":3467,"Ġmobile":3468,"ĠDj":3469,"Ġngagaduhan":3470,"idangkeun":3471,"Bonus":3472,"Makeup":3473,"ĠDar":3474,"ĠChip":3475,"sus":3476,"Ġ06":3477,"mar":3478,"ahaya":3479,"uluy":3480,"tron":3481,"âĢ¦.":3482,"Ġaman":3483,"Ġrec":3484,"ĠMic":3485,"Ġgal":3486,"ĠNgan":3487,"Ġkasempetan":3488,"angor":3489,"Ġtun":3490,"agg":3491,"umpur":3492,"Ġq":3493,"\":\"":3494,"Ġumur":3495,"ĠPend":3496,"ENT":3497,"ĠÃ©k":3498,"PR":3499,"ĠAsia":3500,"Ġleungit":3501,"Ġoleh":3502,"ĠCard":3503,"Ġbangsa":3504,"ĠTo":3505,"ĠUnt":3506,"Ġraja":3507,"UD":3508,"UAL":3509,"ĠSurabaya":3510,"ĠYou":3511,"Ġ=>":3512,"by":3513,"ĠSelatan":3514,"Ġkan":3515,"ĠsanÃ©":3516,"Ġlaju":3517,"Download":3518,"argi":3519,"Ġform":3520,"Ġgener":3521,"Ġmaneh":3522,"dus":3523,"Ġtelepon":3524,"ĠPh":3525,"ĠBe":3526,"elah":3527,"uguh":3528,"ĠRem":3529,"Ġpopul":3530,"ĠRah":3531,"icing":3532,"Ġsamb":3533,"ĠHD":3534,"engku":3535,"Ġjur":3536,"Ġsign":3537,"Ġfr":3538,"Ġpeuting":3539,"ĠAT":3540,"Ġidi":3541,"ĠHack":3542,"Ġpatali":3543,"vis":3544,"Ġpribadi":3545,"ley":3546,"Ġcock":3547,"Ġpanalungt":3548,"eulis":3549,"raga":3550,"Ġtengah":3551,"Ġcinta":3552,"uanana":3553,"outh":3554,"Ġmasturbating":3555,"ĠMix":3556,"ĠSemalt":3557,"Ġangk":3558,"ph":3559,"Ġ2007":3560,"Ġacan":3561,"Ġngomong":3562,"ĠGratis":3563,"!\"":3564,"ajak":3565,"ĠAlamat":3566,"Meta":3567,"ilai":3568,"yah":3569,"abat":3570,"roup":3571,"ĠGu":3572,"ĠTerbaru":3573,"ĠWithdr":3574,"euÃ«ng":3575,"ĠPur":3576,"hir":3577,"Ġperlu":3578,"Ġmasihan":3579,"ĠMag":3580,"ono":3581,"odi":3582,"iter":3583,"Ġdahar":3584,"ĠAL":3585,"NA":3586,"Ġnyata":3587,"ambang":3588,"ulkeun":3589,"Ġmo":3590,"Ġhukum":3591,"ĠAuthor":3592,"epan":3593,"Ġsiga":3594,"Ġ04":3595,"Ġguru":3596,"Naon":3597,"ĠOctober":3598,"52":3599,"aket":3600,"Ġmeureun":3601,"Ġnyar":3602,"Ġdimimitian":3603,"Ġpo":3604,"ĠManufactur":3605,"atch":3606,"Jual":3607,"Ka":3608,"Ġbubuk":3609,"Ġger":3610,"Ġindustri":3611,"Ġgrosir":3612,"ĠSc":3613,"âĢĶ":3614,"At":3615,"obah":3616,"ĠDistr":3617,"eras":3618,"ĠCity":3619,"Ġproduksi":3620,"ĠprosÃ©s":3621,"Ġkomun":3622,"ĠWithdrawal":3623,"Kab":3624,"ĠSabab":3625,"ĠPusat":3626,"andang":3627,"ĠMB":3628,"Aya":3629,"emi":3630,"afon":3631,"Ġsquirt":3632,"pot":3633,"ĠlÃ©":3634,"ĠTok":3635,"Ġsaurang":3636,"okan":3637,"inn":3638,"ven":3639,"Ġle":3640,"apanese":3641,"Ġgum":3642,"Str":3643,"atar":3644,"Ġnulis":3645,"Ġmemb":3646,"Teu":3647,"ĠHand":3648,"Ġkatuhu":3649,"ulang":3650,"ĠTengah":3651,"obi":3652,"kuring":3653,"alankeun":3654,"Ã¨h":3655,"Per":3656,"Äĥ":3657,"ASA":3658,"men":3659,"jing":3660,"62":3661,"ĠBus":3662,"Ġtulisan":3663,"ĠWe":3664,"ĠKiwari":3665,"Ġcart":3666,"ĠCal":3667,"urr":3668,"Ġneg":3669,"ĠSap":3670,"53":3671,"ĠBh":3672,"ube":3673,"Ġkomik":3674,"son":3675,"Ġri":3676,"Ġlaut":3677,"ogi":3678,"Ġjawab":3679,"obaan":3680,"eel":3681,"ateur":3682,"Ġ80":3683,"Ġev":3684,"ents":3685,"PN":3686,"uni":3687,"ĠÃ©dit":3688,"ining":3689,"Ġpup":3690,"Ġlingkungan":3691,"Ġagama":3692,"etail":3693,"]]":3694,"ublik":3695,"2017":3696,"ĠLumpur":3697,"Ġngawangun":3698,"ĠBen":3699,"ĠAC":3700,"onal":3701,"ĠSE":3702,"cess":3703,"less":3704,"oss":3705,"ĠÃīropa":3706,"omot":3707,"osna":3708,"Ġjuta":3709,"ĠKulon":3710,"rog":3711,"Ġindian":3712,"ĠKah":3713,"iwa":3714,"unten":3715,"ayaning":3716,"eueh":3717,"Ġliwat":3718,"udang":3719,"Ġbin":3720,"ĠGl":3721,"Ġkulit":3722,"iksa":3723,"upi":3724,"idikan":3725,"ĠProf":3726,"Kar":3727,"ĠsÃ©l":3728,"iews":3729,"Ġngalawan":3730,"Mar":3731,"Ġall":3732,"Ġnana":3733,"ĠSas":3734,"omor":3735,"ĠGe":3736,"ĠEUR":3737,"ĠKomp":3738,"Ġgame":3739,"ĠsaÃ©":3740,"Ġ55":3741,"ektor":3742,"Ġkep":3743,"ARA":3744,"ĠIklan":3745,"Ġperusahaan":3746,"ajikan":3747,"Ġ05":3748,"ĠâĢº":3749,"}}":3750,"Ġnempo":3751,"lak":3752,"ĠInst":3753,"asy":3754,"Ġdad":3755,"Ġdesign":3756,"ape":3757,"allery":3758,"ĠJadi":3759,"Ġtong":3760,"Ġsami":3761,"ike":3762,"ĠPad":3763,"ĠLight":3764,"kaos":3765,"Ġaks":3766,"ĠAlat":3767,"Ø¨":3768,"Ġlong":3769,"ĠMo":3770,"Ġtangkal":3771,"yang":3772,"Ġsaukur":3773,"76":3774,"Ġlow":3775,"Ġlembur":3776,"ebet":3777,"ekel":3778,"ï¼":3779,"ĠAsian":3780,"ĠDit":3781,"araan":3782,"Tr":3783,"ĠIr":3784,"word":3785,"Ġgunung":3786,"Ã©i":3787,"eez":3788,"CA":3789,"Ġtitik":3790,"ĠtÃ©k":3791,"istance":3792,"vid":3793,"ekar":3794,"Ġlive":3795,"ĠOf":3796,"Ġloka":3797,"awar":3798,"ĠÃ©n":3799,"Ġmeunangkeun":3800,"antik":3801,"ĠBuy":3802,"wood":3803,"Ġkamar":3804,"Ġuj":3805,"Â¢":3806,"ĠGold":3807,"Ġpip":3808,"ukul":3809,"ĠYamaha":3810,"agam":3811,"ĠBlog":3812,"unter":3813,"emÃ©n":3814,"Ġkakuatan":3815,"bum":3816,"ĠReg":3817,"Ġkagiatan":3818,"Ġsajarah":3819,"lex":3820,"illa":3821,"opi":3822,"ĠmÃ©m":3823,"euy":3824,"ĠRob":3825,"ĠPand":3826,"Ġef":3827,"Ġngaronj":3828,"Ġngahasilkeun":3829,"Ġminggu":3830,"orong":3831,"Kuring":3832,"Ġnyokot":3833,"bul":3834,"Ġdianggap":3835,"rok":3836,"Ġrum":3837,"ST":3838,"yo":3839,"ĠsamÃ©mÃ©h":3840,"\")":3841,"reat":3842,"ows":3843,"encana":3844,"ĠSaint":3845,"uss":3846,"Ġresmi":3847,"inggalkeun":3848,"âĢĿ,âĢĿ":3849,"Ġengk":3850,"ole":3851,"ĠAndroid":3852,"Ġes":3853,"Ġstreet":3854,"obana":3855,"awasna":3856,"ĠDan":3857,"ammad":3858,"âĢİ":3859,"Ġamb":3860,"500":3861,"ize":3862,"ĠFlor":3863,"itch":3864,"Ġkasus":3865,"Ġsuku":3866,"akal":3867,"ally":3868,"ugan":3869,"ĠWh":3870,"uktur":3871,"Ġbers":3872,"ahl":3873,"Ġseni":3874,"nana":3875,"ĠKr":3876,"uluh":3877,"Ġdesain":3878,"Ġeng":3879,"ĠJer":3880,"ĠSex":3881,"UB":3882,"Ġcocks":3883,"ĠUsaha":3884,"Art":3885,"inis":3886,"ekan":3887,"Ġmu":3888,"epkeun":3889,"ĠBank":3890,"Ġngabal":3891,"abel":3892,"atal":3893,"ĠBaru":3894,"Ġlampu":3895,"enerna":3896,"Ġkayaning":3897,"Ġram":3898,"ices":3899,"umÃ©n":3900,"ĠCara":3901,"ĠHiji":3902,"sb":3903,"ĠStreet":3904,"yrics":3905,"Ġkira":3906,"Ġtaneuh":3907,"ulur":3908,"ĠPark":3909,"ĠPort":3910,"ĠBay":3911,"inya":3912,"Ġahli":3913,"idi":3914,"Ġartikel":3915,"Ġcal":3916,"ĠNAB":3917,"âĢĿ.":3918,"oma":3919,"Ġngadeg":3920,"Ġmanga":3921,"Ġ}":3922,"Ġadmin":3923,"Ġtattoo":3924,"ubai":3925,"Jalan":3926,"app":3927,"ĠCoup":3928,"ĠdiropÃ©a":3929,"Ġkartu":3930,"?\"":3931,"Ġjenis":3932,"eura":3933,"51":3934,"86":3935,"Ġpenc":3936,"obal":3937,"Ġgen":3938,"esh":3939,"ĠHid":3940,"Dic":3941,"Ġngon":3942,"Ġkantor":3943,"Ġtea":3944,"ret":3945,"uyu":3946,"ION":3947,"eupan":3948,"itung":3949,"Ø¯":3950,"cent":3951,"EUN":3952,"atin":3953,"CH":3954,"atara":3955,"Ac":3956,"kira":3957,"ĠKep":3958,"Ġbaheula":3959,"Ġsurat":3960,"Th":3961,"td":3962,"ayam":3963,"ĠPot":3964,"ĠCik":3965,"ewa":3966,"ibutor":3967,"afe":3968,"onesia":3969,"Ġgol":3970,"oset":3971,"Ġmy":3972,"ĠNaon":3973,"Des":3974,"Ma":3975,"ĠSelangor":3976,"Ġuc":3977,"toy":3978,"abar":3979,"ategories":3980,"Ġ500":3981,"erusna":3982,"ĠsÃ©jÃ©nna":3983,"ungtungan":3984,"ams":3985,"umpulan":3986,"Ġpi":3987,"ece":3988,"eauty":3989,"ney":3990,"uliah":3991,"Ġmusik":3992,"ards":3993,"ove":3994,"Ã©mbongkeun":3995,"Ġbapa":3996,"Ġlesbians":3997,"EG":3998,"ĠHP":3999,"Ġmab":4000,"CCT":4001,"ology":4002,"Ġbodas":4003,"uruan":4004,"akter":4005,"Ġkacamata":4006,"Lamun":4007,"yle":4008,"oth":4009,"asinos":4010,"Ab":4011,"Ġmon":4012,"obrol":4013,"Ã©ri":4014,"ucu":4015,"ĠInt":4016,"ll":4017,"ONG":4018,"Ġdirina":4019,"Ġmungkin":4020,"edi":4021,"Anjeun":4022,"Ġturun":4023,"Ġawewe":4024,"ĠWan":4025,"Ġleres":4026,"Ġkot":4027,"ĠCor":4028,"AI":4029,"ĠII":4030,"ills":4031,"Ġcarana":4032,"eurkeun":4033,"ras":4034,"ĠReview":4035,"Ġmaj":4036,"Ġsaterusna":4037,"ĠBas":4038,"ĠRed":4039,"va":4040,"ĠMil":4041,"akas":4042,"87":4043,"ĠDu":4044,"Ġner":4045,"impi":4046,"Ġthongs":4047,"Ġsilih":4048,"omatis":4049,"ĠCashOut":4050,"Ġinv":4051,"Urang":4052,"amu":4053,"ajengna":4054,"enda":4055,"Ġme":4056,"ĠLap":4057,"ĠEd":4058,"Ġ2006":4059,"//":4060,"my":4061,"Ġakun":4062,"so":4063,"Ġmuka":4064,"akk":4065,"Ġpanalungtikan":4066,"pap":4067,"ĠCib":4068,"agian":4069,"aruh":4070,"ĠProduct":4071,"kr":4072,"lon":4073,"Ġdaun":4074,"arat":4075,"Ġsakabeh":4076,"ajib":4077,"yarat":4078,"ĠPerancis":4079,"Ġpoe":4080,"ĠSumedang":4081,"Ġ45":4082,"Ãł":4083,"ĠKem":4084,"ĠNaha":4085,"fer":4086,"ĠTangerang":4087,"Ġhideung":4088,"ĠIb":4089,"jur":4090,"Ġkun":4091,"Ġmindeng":4092,"bon":4093,"eruh":4094,"EUR":4095,"ĠAyam":4096,"Ġins":4097,"INA":4098,"Ġngahontal":4099,"ours":4100,"antu":4101,"ĠMon":4102,"Ġbuy":4103,"ulette":4104,"Ġindit":4105,"Sare":4106,"ĠproyÃ©k":4107,"ĠAngg":4108,"aler":4109,"ject":4110,"aro":4111,"Ãº":4112,"ĠBet":4113,"Ġlul":4114,"ĠAmateur":4115,"Ġantarana":4116,"adio":4117,"Ġmaot":4118,"eungit":4119,"ĠJack":4120,"ebat":4121,"ives":4122,"Ġses":4123,"using":4124,"ekasi":4125,"eusi":4126,"Ġek":4127,"abah":4128,"eam":4129,"Ġtara":4130,"Ã©ku":4131,"anjung":4132,"date":4133,"ĠRec":4134,"Ġanime":4135,"AYA":4136,"tina":4137,"ĠWikipÃ©dia":4138,"ĠUr":4139,"Ang":4140,"ĠSch":4141,"eli":4142,"idÃ©n":4143,"Ġkomputer":4144,"64":4145,"aling":4146,"Ġlatino":4147,"Ap":4148,"antuan":4149,"74":4150,"ĠAug":4151,"Ġwidang":4152,"imited":4153,"Tel":4154,"ÆĴ":4155,"ĠSo":4156,"isme":4157,"Cl":4158,"light":4159,"Ġmata":4160,"Ġsale":4161,"ĠSen":4162,"Ġbabes":4163,"Ġbentuk":4164,"ween":4165,"ĠPany":4166,"Ġleg":4167,"ĠPap":4168,"Kami":4169,"Ġdagang":4170,"Ġkomo":4171,"Ġperang":4172,"Ãīdit":4173,"Pan":4174,"Ġeks":4175,"Ġtanah":4176,"Ġjaringan":4177,"alika":4178,"Ġrem":4179,"Øª":4180,"ĠAz":4181,"Ġmilf":4182,"Ġtik":4183,"ariw":4184,"Ġbeurat":4185,"Ġasal":4186,"Ġawal":4187,"Ġkem":4188,"Ġkusabab":4189,"ĠDig":4190,"It":4191,"ersi":4192,"ĠPanjang":4193,"Ġlokal":4194,"Rec":4195,"Up":4196,"Ð¾Ð":4197,"ters":4198,"ĠDinding":4199,"ĠMumbai":4200,"Ġwaw":4201,"asna":4202,"apak":4203,"Ġgeun":4204,"ĠIP":4205,"ĠSanajan":4206,"Ġgaris":4207,"iber":4208,"ĠPem":4209,"Ġngawengku":4210,"):":4211,"ashion":4212,"aram":4213,"acing":4214,"Ġampir":4215,"EU":4216,"Ġngajadikeun":4217,"Ġmac":4218,"ĠGreen":4219,"umbs":4220,"Ġlapak":4221,"IG":4222,"abung":4223,"ĠTaun":4224,"ĠKrist":4225,"ĠWar":4226,"eulah":4227,"ĠJesus":4228,"nak":4229,"Ġemas":4230,"udu":4231,"Ġjalur":4232,"ĠKit":4233,"Ġtidak":4234,"ãĥ":4235,"ĠSri":4236,"Ġtour":4237,"ĠArch":4238,"Ġhana":4239,"tri":4240,"Ġkontr":4241,"Ġtumuwuh":4242,"ĠEr":4243,"Ġbabarengan":4244,"ĠKacamatan":4245,"andingan":4246,"por":4247,"ĠSwasta":4248,"bal":4249,"lish":4250,"ĠAustr":4251,"iful":4252,"Ġsaprak":4253,"RA":4254,"Ġwangun":4255,"irus":4256,"sal":4257,"á»":4258,"Ġmont":4259,"euacan":4260,"Ġaku":4261,"ĠtÃ©":4262,"abot":4263,"Ġroh":4264,"Ġteg":4265,"ypsum":4266,"Ġwates":4267,"bang":4268,"ingkatkeun":4269,"98":4270,"OB":4271,"Ġnunjuk":4272,"ĠPers":4273,"Ġjelas":4274,"Ġkim":4275,"Ġpondok":4276,"ĠCr":4277,"icle":4278,"vey":4279,"ĠLuk":4280,"ĠInter":4281,"Ġharti":4282,"urus":4283,"Ġmam":4284,"jam":4285,"SA":4286,"ĠDubai":4287,"ĠRam":4288,"itra":4289,"Ġpihak":4290,"ĠLe":4291,"Ġemb":4292,"ĠFak":4293,"ĠAyeuna":4294,"adan":4295,"euri":4296,"inÃ©":4297,"ĠRos":4298,"Ġkatut":4299,"cang":4300,"asakeun":4301,"Ã©ngs":4302,"Ġatau":4303,"uju":4304,"ird":4305,"ayak":4306,"cs":4307,"awah":4308,"astik":4309,"inasi":4310,"ĠKampung":4311,"Ġsalawasna":4312,"ĠmÃ©dia":4313,"Ġbuah":4314,"Ġlistrik":4315,"Ġngant":4316,"ujuh":4317,"ormal":4318,"0000":4319,"Ġpukul":4320,"IF":4321,"Ġhate":4322,"ĠDew":4323,"ĠdaÃ©rah":4324,"ĠUtara":4325,"Ġcu":4326,"ĠCotton":4327,"met":4328,"Ġshots":4329,"Ġbung":4330,"indah":4331,"Ġsakuliah":4332,"ĠBlue":4333,"ines":4334,"ilik":4335,"Ġgeulis":4336,"ĠAmer":4337,"irah":4338,"ture":4339,"imbang":4340,"Ġbetween":4341,"Kom":4342,"ĠWalanda":4343,"mber":4344,"eld":4345,"Ġpangl":4346,"ador":4347,"eautiful":4348,"IV":4349,"ĠSim":4350,"Ġ33":4351,"Ġnanaon":4352,"Ġsakali":4353,"ĠPrabu":4354,"ĠBang":4355,"ogikeun":4356,"Man":4357,"Ã©hatan":4358,"bat":4359,"Ġmotor":4360,"mah":4361,"Ġmaranehna":4362,"ambahkeun":4363,"ĠSabah":4364,"lusif":4365,"ĠKAOS":4366,"Ġest":4367,"Ġngajaga":4368,"Ġsaan":4369,"Ġblo":4370,"ĠwÃ©":4371,"Ġcocog":4372,"ĠJanuary":4373,"ĠVal":4374,"me":4375,"isis":4376,"Ġputra":4377,"Ġsec":4378,"Ġkos":4379,"73":4380,"Ġbed":4381,"Ġdianggo":4382,"ĠAP":4383,"mh":4384,"ĠUniversitas":4385,"eupas":4386,"Ġbeureum":4387,"Ġorang":4388,"ova":4389,"Ġsurabaya":4390,"kat":4391,"ĠNegeri":4392,"put":4393,"Ġungg":4394,"Ġud":4395,"dress":4396,"abang":4397,"urahan":4398,"yat":4399,"paat":4400,"Ġmature":4401,"Ġfirst":4402,"ÄĽ":4403,"Ġtok":4404,"ĠGed":4405,"alahan":4406,"Ã©nÃ©":4407,"IB":4408,"Ġngajalankeun":4409,"84":4410,"udeureun":4411,"ĠSah":4412,"ĠSalwar":4413,"MA":4414,"bab":4415,"Ġpamajikan":4416,"eund":4417,"ior":4418,"Å¡":4419,"ĠAgen":4420,"antan":4421,"ĠCi":4422,"istik":4423,"China":4424,"ohor":4425,"Ġpid":4426,"ikut":4427,"Ġngalaman":4428,"TER":4429,"aza":4430,"ĠUN":4431,"Ġî":4432,"ĠSep":4433,"enna":4434,"net":4435,"Ã©nging":4436,"Ġmayar":4437,"Ġ36":4438,"ategori":4439,"ujud":4440,"Ġkec":4441,"ĠNasional":4442,"Ġlauk":4443,"sk":4444,"inter":4445,"ĠKidul":4446,"atural":4447,"Ġkasebut":4448,"akw":4449,"Ġusum":4450,"Ġtunai":4451,"Ġbus":4452,"Pikeun":4453,"ĠKumaha":4454,"ester":4455,"Ġ[[":4456,"uarkeun":4457,"Ġcat":4458,"Ġbabaturan":4459,"ox":4460,"ĠBa":4461,"Ġwungkul":4462,"anÃ©":4463,"Ġpaj":4464,"Ġolah":4465,"ez":4466,"ĠCip":4467,"Ġbear":4468,"uwuhan":4469,"aily":4470,"Ġabad":4471,"Ġnon":4472,"Dipidangkeun":4473,"mart":4474,"ĠTags":4475,"Ġsabenerna":4476,"Ġjudi":4477,"ender":4478,"Ġprom":4479,"Anu":4480,"Ġdipake":4481,"atih":4482,"].":4483,"Ġpati":4484,"Ġbik":4485,"Ġfitur":4486,"Ġlajeng":4487,"empatkeun":4488,"ĠBatu":4489,"Bal":4490,"Ġdet":4491,"Ġbuka":4492,"Or":4493,"Ġhi":4494,"ijina":4495,"kas":4496,"Ġso":4497,"Ġpernah":4498,"Ġbob":4499,"Ã©bat":4500,"jid":4501,"Ġpasang":4502,"oris":4503,"ebar":4504,"ĠKol":4505,"Ġapal":4506,"istim":4507,"abric":4508,"ĠNav":4509,"ĠRumah":4510,"sub":4511,"Ġpur":4512,"Â°":4513,"lop":4514,"Ġtadi":4515,"Cont":4516,"IH":4517,"Ġasli":4518,"Ġconto":4519,"emat":4520,"ĠBand":4521,"pinsi":4522,"Ġpikiran":4523,"Lain":4524,"ĠPasar":4525,"atform":4526,"Ġcicing":4527,"iar":4528,"Ġlamp":4529,"agged":4530,"Ġcust":4531,"Ġinst":4532,"Ġband":4533,"Ġngaranna":4534,"atangan":4535,"Ġibu":4536,"Ã©sidÃ©n":4537,"Ġapa":4538,"agai":4539,"Ġcons":4540,"Ġtaw":4541,"aksud":4542,"ĠMer":4543,"ĠMur":4544,"2016":4545,"ĠÙĪ":4546,"anga":4547,"Ġvar":4548,"UH":4549,"Ag":4550,"ner":4551,"Ġmilu":4552,"Ġnyarios":4553,"63":4554,"97":4555,"ĠCH":4556,"door":4557,"ĠgawÃ©":4558,"Ġhave":4559,"Ġsuba":4560,"Ġsib":4561,"ollow":4562,"ĠWall":4563,"Ġduanana":4564,"ĠAnal":4565,"rasi":4566,"olly":4567,"ĠJu":4568,"Ġactress":4569,"pos":4570,"eukeut":4571,"Ġalamat":4572,"omat":4573,"Ġdigital":4574,"ojong":4575,"Ġblack":4576,"resna":4577,"ading":4578,"ĠNet":4579,"iet":4580,"Ã©e":4581,"mir":4582,"ĠDua":4583,"Ġdaptar":4584,"Ġdipikawanoh":4585,"Ġngobrol":4586,"ĠSakola":4587,"ouse":4588,"ĠPink":4589,"oor":4590,"ANA":4591,"istan":4592,"83":4593,"loka":4594,"{\"":4595,"Pas":4596,"82":4597,"Indian":4598,"iling":4599,"Ġngamimitian":4600,"Ġpausahaan":4601,"aktor":4602,"tive":4603,"Ġmaw":4604,"euman":4605,"Ġmangka":4606,"Ġdj":4607,"antosan":4608,"din":4609,"ĠbÃ©r":4610,"Ġmaster":4611,"Ġkum":4612,"ction":4613,"ĠhatÃ©":4614,"Ġsay":4615,"lay":4616,"ujan":4617,"Ġservice":4618,"azy":4619,"Ġsabudeureun":4620,"Naha":4621,"ĠFull":4622,"Ġkand":4623,"ĠPR":4624,"oks":4625,"arget":4626,"ĠSÃ©p":4627,"Ø¹":4628,"tures":4629,"Ġgetih":4630,"Ġkursi":4631,"Ġfuck":4632,"ency":4633,"coin":4634,"aktip":4635,"OG":4636,"Ġwani":4637,"ĠHome":4638,"ty":4639,"dis":4640,"hs":4641,"usun":4642,"alusna":4643,"ormat":4644,"aksa":4645,"ĠMuhammad":4646,"ude":4647,"Ġtanda":4648,"Ġsia":4649,"Ġdilakukeun":4650,"aksana":4651,"enj":4652,"Ġlam":4653,"usive":4654,"ĠRad":4655,"asih":4656,"ĠCent":4657,"cul":4658,"Ġyoung":4659,"Ġngalaksanakeun":4660,"alkeun":4661,"Ġbit":4662,"ĠPert":4663,"Ġsalam":4664,"uns":4665,"leng":4666,"ĠPÃ©bruari":4667,"Ã©y":4668,"ĠStasion":4669,"Ġayat":4670,"une":4671,"Tapi":4672,"ps":4673,"Ġubar":4674,"ĠBukit":4675,"Ġadalah":4676,"pan":4677,"yana":4678,"ALAN":4679,"oja":4680,"ĠTech":4681,"murah":4682,"Ġinternasional":4683,"Ġ90":4684,"Ġnaked":4685,"Ġgaya":4686,"Sunda":4687,"ĠCam":4688,"Ġkalah":4689,"Ġnawarkeun":4690,"Ġsari":4691,"Ġakan":4692,"ĻŁ":4693,"ARI":4694,"SKU":4695,"Ġpanungtungan":4696,"Ġkut":4697,"Tag":4698,"arana":4699,"ellow":4700,"Ġbareng":4701,"luk":4702,"Ã©st":4703,"ĠBarang":4704,"Âº":4705,"Ġ~":4706,"jalanan":4707,"Ġaturan":4708,"inga":4709,"ĠDay":4710,"ĠPay":4711,"ukarkeun":4712,"ĠîĻŁ":4713,"ĠEuro":4714,"ĠBanj":4715,"ĠCil":4716,"rey":4717,"Ġtep":4718,"Ã±":4719,"Phone":4720,"Ġago":4721,"pack":4722,"agang":4723,"Ġfungsi":4724,"ided":4725,"anto":4726,"Ġpeny":4727,"ĠAnyar":4728,"Ġpangan":4729,"ting":4730,"ertas":4731,"ÃĥÆĴ":4732,"Malaysia":4733,"rid":4734,"Â£":4735,"ĠAbdi":4736,"ĠDJ":4737,"agering":4738,"Ġcamp":4739,"Ġnilai":4740,"itakeun":4741,"ĠKantor":4742,"Ġcm":4743,"tÃ©mber":4744,"ersey":4745,"Ġrunt":4746,"ĠDil":4747,"Î±Ï":4748,"artos":4749,"EB":4750,"las":4751,"Ġindung":4752,"we":4753,"Product":4754,"Ġair":4755,"isional":4756,"Ġlol":4757,"amatloka":4758,"Ġtahun":4759,"91":4760,"Con":4761,"vi":4762,"Ġinf":4763,"alse":4764,"Ġdiperl":4765,"ĠMe":4766,"ĠPasang":4767,"clusive":4768,"vent":4769,"iburan":4770,"ualitas":4771,"Ġistilah":4772,"iks":4773,"Ġpink":4774,"Ġia":4775,"Ġgo":4776,"jadi":4777,"Ġsl":4778,"ĠtÃ©a":4779,"Ġtips":4780,"zon":4781,"ĠureuÃ«ng":4782,"ĠJul":4783,"Ġkil":4784,"ĠRe":4785,"Ġmeuli":4786,"ĠGambar":4787,"Ġkembang":4788,"Ġpangaw":4789,"Ġsanes":4790,"CS":4791,"ĠCart":4792,"Ġwomen":4793,"ĠGarut":4794,"eker":4795,"Ġnet":4796,"orial":4797,"Ġmastikeun":4798,"Ġngarobah":4799,"Ġ32":4800,"ĠKet":4801,"ĠAfrika":4802,"Ġkabeh":4803,"ĠServ":4804,"ipe":4805,"ative":4806,"akwa":4807,"agram":4808,"stanbul":4809,"ĠCirebon":4810,"orang":4811,"Ġati":4812,"Ġ\\":4813,"Ġpuguh":4814,"ategory":4815,"rown":4816,"ĠUSD":4817,"Ġnarima":4818,"back":4819,"ĠPu":4820,"ĠRusia":4821,"ĠShow":4822,"Ġpangh":4823,"ados":4824,"ĠCap":4825,"ajumper":4826,"Ġjudul":4827,"uhkeun":4828,"ĠLog":4829,"Ġmore":4830,"ely":4831,"Ġmangga":4832,"Ġnut":4833,"ĠSP":4834,"mun":4835,"Ø³":4836,"ĠManÃ©hna":4837,"Ġnan":4838,"Ġdos":4839,"ĠGeus":4840,"undi":4841,"Ġdong":4842,"ĠPrice":4843,"Ġmanaj":4844,"odo":4845,"Ġwarga":4846,"ĠnÃ©angan":4847,"ĠSari":4848,"aftar":4849,"ambarkeun":4850,"Ã©nten":4851,"akon":4852,"Ġabout":4853,"pat":4854,"Ġfl":4855,"YA":4856,"ĠKaj":4857,"ited":4858,"Ġkarasa":4859,"go":4860,"ĠCol":4861,"ĠMent":4862,"OH":4863,"ĠMes":4864,"Ã©kÃ©":4865,"anci":4866,"ĠPemb":4867,"mon":4868,"ĠDaily":4869,"inum":4870,"nam":4871,"ene":4872,"iness":4873,"ĠBandar":4874,"ĠTemb":4875,"pas":4876,"ï»":4877,"Ġmaysa":4878,"itakan":4879,"kara":4880,"ĠPAS":4881,"ĠPER":4882,"untungan":4883,"Ġmenit":4884,"Sar":4885,"ists":4886,"GCC":4887,"elu":4888,"ĠSMP":4889,"Ġxxx":4890,"Ġ150":4891,"ĠFacebook":4892,"ĠrÃ©":4893,"ĠDiakses":4894,"edik":4895,"Ġ44":4896,"Ġsadia":4897,"che":4898,"ĠSong":4899,"Ġgata":4900,"Ġdistr":4901,"Ġgeura":4902,"ĠâĢĿ":4903,"ĠpamakÃ©an":4904,"ĠKayu":4905,"Ġkes":4906,"Ġmund":4907,"ĠBulan":4908,"âĢ¦âĢ¦âĢ¦âĢ¦":4909,"Ġsaya":4910,"ered":4911,"Ġwork":4912,"ĠKac":4913,"ayaran":4914,"angna":4915,"Ġcer":4916,"Kode":4917,"ĠrÃ©s":4918,"ĠOriginal":4919,"Ñĥ":4920,"rag":4921,"uu":4922,"ĠAlam":4923,"ĠBib":4924,"71":4925,"ĠBapa":4926,"Ġgrup":4927,"ĠCollection":4928,"Da":4929,"arib":4930,"cel":4931,"Ġbank":4932,"Ġseg":4933,"Ġcoll":4934,"Ġpagaw":4935,"Ġkarajaan":4936,"asiswa":4937,"ĠUpami":4938,"Ġsalajengna":4939,"Ġngabalukarkeun":4940,"ĠRaj":4941,"itis":4942,"Ġhawa":4943,"con":4944,"Ġsupaya":4945,"61":4946,"BN":4947,"uki":4948,"Ġaing":4949,"Ġsoftware":4950,"tim":4951,"Ġngaronjatkeun":4952,"Ġkn":4953,"Ġmov":4954,"ĠJohn":4955,"embangkeun":4956,"ä¸":4957,"Ġsieun":4958,"cb":4959,"ÙİÙĳ":4960,"odiak":4961,"iskeun":4962,"ĠPag":4963,"Ġher":4964,"Ġpaka":4965,"EW":4966,"Ġcomics":4967,"Ġenya":4968,"alaman":4969,"Ġhur":4970,"ĠÃ©ng":4971,"Car":4972,"ĠMÃ©i":4973,"estasi":4974,"evel":4975,"ĠMul":4976,"Ġkita":4977,"Ġdoor":4978,"Ġdiperlukeun":4979,"ĠKaw":4980,"72":4981,"cal":4982,"eumpang":4983,"apur":4984,"irkeun":4985,"Ġleuweung":4986,"For":4987,"ĠPrinting":4988,"ĠTag":4989,"Ġ70":4990,"uality":4991,"ĠAceh":4992,"ĠSed":4993,"Ã¬":4994,"Ġreg":4995,"ahu":4996,"ition":4997,"amelan":4998,"Ter":4999,"ĠMy":5000,"SMK":5001,"ĠReply":5002,"lit":5003,"Sub":5004,"Ġdal":5005,"ĠDen":5006,"ĠBisa":5007,"Ġjih":5008,"ĠLtd":5009,"ĠNext":5010,"Ġarah":5011,"ico":5012,"ianjur":5013,"Ġjacket":5014,"Basa":5015,"KI":5016,"cu":5017,"ĠSarawak":5018,"ĠtÃ©r":5019,"Ġdew":5020,"intang":5021,"artment":5022,"ĠpamarÃ©ntah":5023,"ange":5024,"Ġtusing":5025,"ĠWear":5026,"ĠSÃ©ptÃ©mber":5027,"alat":5028,"Ġsuk":5029,"Ġsilk":5030,"Ġsigana":5031,"Ġpic":5032,"iaomi":5033,"âĢ¢":5034,"Ġramatloka":5035,"Ġshop":5036,"ĠEta":5037,"ideos":5038,"Si":5039,"Ġkanyataan":5040,"Ay":5041,"ista":5042,"96":5043,"KA":5044,"ĠPul":5045,"ĠLatin":5046,"Ġnasional":5047,"ĠMalang":5048,"Ġkidul":5049,"Ġsaid":5050,"ĠAirport":5051,"isir":5052,"Ġalesan":5053,"iptakeun":5054,"roe":5055,"Ġlatihan":5056,"ĠCompany":5057,"ĠPaj":5058,"incin":5059,"ized":5060,"Ġotomatis":5061,"istro":5062,"ĠNur":5063,"fir":5064,"isas":5065,"ibu":5066,"ĠTurn":5067,"ĠUng":5068,"ĠSanggeus":5069,"Ġbeda":5070,"umen":5071,"XL":5072,"fikasi":5073,"Ġkir":5074,"Ġditulis":5075,"ulasi":5076,"Ġsimb":5077,"Ġngirim":5078,"EMB":5079,"ille":5080,"edness":5081,"rolan":5082,"unkeun":5083,"Ġbebas":5084,"New":5085,"okep":5086,"Ġkonci":5087,"GCT":5088,"ĠRail":5089,"Ġtungtung":5090,"aser":5091,"Ġsampurna":5092,"ibak":5093,"oul":5094,"ĠhÃ©bat":5095,"Ġvari":5096,"yek":5097,"umutkeun":5098,"Ġngahubungan":5099,"Ġterbaru":5100,"ĠSupplier":5101,"Lat":5102,"SS":5103,"ĠvÃ©k":5104,"ĠBlouse":5105,"Ġmand":5106,"Ġpangaruh":5107,"Ġahir":5108,"cast":5109,"Ġkahayang":5110,"ipan":5111,"ĠEks":5112,"amik":5113,"ekarkeun":5114,"Ġdom":5115,"Ġningkatkeun":5116,"ĠDur":5117,"unty":5118,"Ġcomment":5119,"Ġbursa":5120,"ihar":5121,"ACT":5122,"Ġbangk":5123,"Ġ65":5124,"Ġnyarita":5125,"Ġtabuh":5126,"Ġpohara":5127,"Ġsastra":5128,"Ġwangunan":5129,"Ġover":5130,"ĠSystem":5131,"enta":5132,"adiah":5133,".)":5134,"ĠJal":5135,"ĠGuru":5136,"ĠKabupaten":5137,"ĠCinta":5138,"ream":5139,"KC":5140,"ĠPower":5141,"IST":5142,"round":5143,"ĠHotel":5144,"Strict":5145,"Dis":5146,"ĠMart":5147,"rew":5148,"Ġbasajan":5149,"Ġpuseur":5150,"Ġolahraga":5151,"ĠID":5152,"elaskeun":5153,"ĠMarch":5154,"ĠAbdul":5155,"ĠEs":5156,"obahan":5157,"Ġ2005":5158,"Ġlir":5159,"Ġsato":5160,"ĠPhone":5161,"ken":5162,"Ġwat":5163,"Ġyakin":5164,"bur":5165,"rong":5166,"isik":5167,"arge":5168,"isah":5169,"ple":5170,"ĠFeb":5171,"ĠKin":5172,"ĠIl":5173,"ĠKameez":5174,"egah":5175,"Ġsering":5176,"Ã©rsi":5177,"ĠKart":5178,"upan":5179,"Ġmere":5180,"ollywood":5181,"aktu":5182,"PT":5183,"Ġngak":5184,"Ã©ngÃ©":5185,"uruh":5186,"ĠLine":5187,"aiib":5188,"apor":5189,"ĠKursi":5190,"gy":5191,"iden":5192,"ume":5193,"Ġ34":5194,"Ġked":5195,"ĠHind":5196,"Ġvis":5197,"ott":5198,"Ġtentang":5199,"essional":5200,"Ġsawatara":5201,"Ġngadamel":5202,"Ġnunjukkeun":5203,"akonan":5204,"ogoh":5205,"indows":5206,"ĠDress":5207,"AHA":5208,"Ġkaamanan":5209,"ieu":5210,"Ã©kan":5211,"âĢļ":5212,"Ġpres":5213,"Ġped":5214,"Ġ..":5215,"ĠHe":5216,"anggal":5217,"94":5218,"hotograp":5219,"ĠNop":5220,"Total":5221,"Ġkamp":5222,"Ġparusahaan":5223,"ajo":5224,"Ġfull":5225,"RM":5226,"Ġcik":5227,"egas":5228,"anyol":5229,"otna":5230,"du":5231,"ĠEm":5232,"ĠTina":5233,"lar":5234,"Ġtaman":5235,"agad":5236,"Unpack":5237,"ĠPOL":5238,"MetaSel":5239,"81":5240,"ekt":5241,"Unpackedness":5242,"pal":5243,"ĠNas":5244,"Î¹":5245,"aker":5246,"adeg":5247,"umbang":5248,"ĠBuku":5249,"abana":5250,"aci":5251,"Ġtub":5252,"ĠBekasi":5253,"ĠRom":5254,"Ġsiap":5255,"Mas":5256,"Ġsateuacan":5257,"Ġngurangan":5258,"ĠNyi":5259,"Strictness":5260,"Ġwarta":5261,"ĠEmb":5262,"Ġtil":5263,"Ġpusat":5264,"ublic":5265,"Ã©ngsÃ©":5266,"ĠCas":5267,"Ġkata":5268,"ift":5269,"Ġtugas":5270,"adwal":5271,"Ġjuga":5272,"ĠkabÃ©h":5273,"ulungan":5274,"Lazy":5275,"akaan":5276,"Ġhan":5277,"aaaaaaaaaaaaaaaa":5278,"à¯":5279,"ĠTahun":5280,"ĠDios":5281,"ultan":5282,"ĠWagering":5283,"ĠAj":5284,"euwih":5285,"unia":5286,"ihat":5287,"utusan":5288,"tivitas":5289,"ormasi":5290,"apt":5291,"Ġngarah":5292,"Ġemail":5293,"idedLazy":5294,"ĠMac":5295,"ĠMaximum":5296,"Ġ300":5297,"Ã©ran":5298,"Ġlayanan":5299,"Ġposisi":5300,"okol":5301,"ï¿½ï¿½":5302,"ungs":5303,"amar":5304,"Ġdaytoy":5305,"andingkeun":5306,"ajat":5307,"limited":5308,"SP":5309,"Ġorganisasi":5310,"Ġnyal":5311,"Ġnampi":5312,"TV":5313,"ĠJa":5314,"à¥":5315,"ĠPerang":5316,"ĠÃ©y":5317,"ĠKaca":5318,"intas":5319,"Ġred":5320,"ĠParty":5321,"ĠDeposit":5322,"Ġdilaksanakeun":5323,"Ġdem":5324,"Ġgumantung":5325,"Ġjer":5326,"ems":5327,"ogy":5328,"ords":5329,"Ġplatform":5330,"Ġcheat":5331,"ĠMi":5332,"CD":5333,"Ġprodus":5334,"pliers":5335,"ĠTamb":5336,"ĠTime":5337,"hal":5338,"antun":5339,"arm":5340,"Alamat":5341,"Ġdaya":5342,"Ġjsb":5343,"imbangan":5344,"Ã©to":5345,"ataun":5346,"mina":5347,"ican":5348,"ungkas":5349,"nan":5350,"alian":5351,"ĠNoSourceUnpackedness":5352,"ĠDel":5353,"eusina":5354,"asaran":5355,"ball":5356,"ĠWorld":5357,"Ġsuks":5358,"aharan":5359,"xi":5360,"Ġtunggal":5361,"ĠKitu":5362,"ayon":5363,"anging":5364,"Ġwisata":5365,"ĠNoSourceStrictness":5366,"âĨĲ":5367,"Ġkamamp":5368,"ĠIns":5369,"Ã©ktur":5370,"inium":5371,"ren":5372,"Com":5373,"Ġgeup":5374,"entara":5375,"Ġcur":5376,"play":5377,"undeur":5378,"Ġangin":5379,"ĠAut":5380,"Ġkasampak":5381,"Ġlangit":5382,"ijab":5383,"ther":5384,"ĠIbu":5385,"raz":5386,"ĠSH":5387,"ĠPes":5388,"igir":5389,"apu":5390,"apana":5391,"AGG":5392,"ild":5393,"Ġdulur":5394,"ĠTurki":5395,"erat":5396,"--------":5397,"ĠDecidedLazy":5398,"93":5399,"amina":5400,"Ġsolusi":5401,"zh":5402,"ungkinkeun":5403,"Ġph":5404,"eureum":5405,"bus":5406,"Ġmung":5407,"cara":5408,"ĠÃł":5409,"áº":5410,"Ġoperasi":5411,"ĠRatu":5412,"Ġdadi":5413,"uti":5414,"ĠEnd":5415,"ÑĮ":5416,"Ġsen":5417,"Ġpe":5418,"Jl":5419,"Ġsabaraha":5420,"ababkeun":5421,"Ġdel":5422,"Ġminyak":5423,"Ġwebsite":5424,"ido":5425,"apura":5426,"anca":5427,"Ġawan":5428,"onda":5429,"ĠMap":5430,"oli":5431,"Ġpasangan":5432,"efer":5433,"Ġciri":5434,"ĠArchives":5435,"ĠNi":5436,"iba":5437,"Ġstandar":5438,"ĠKod":5439,"Ġback":5440,"ĠHard":5441,"á¹":5442,"à¦":5443,"ususna":5444,"baik":5445,"ĠChe":5446,"igur":5447,"ampilan":5448,"ĠFilip":5449,"pasar":5450,"Ġdeung":5451,"Ġdipasang":5452,"ĠWilujeng":5453,"ĠSuper":5454,"ĠAngk":5455,"Ġpanc":5456,"eries":5457,"dana":5458,"Ġnanya":5459,"umpulkeun":5460,"Ġkapal":5461,"Ġ--":5462,"Ġlag":5463,"Ġdat":5464,"Ġmuter":5465,"awatan":5466,"Ġageung":5467,"Ġninggalkeun":5468,"ikiran":5469,"Ġmeny":5470,"Ġbarat":5471,"amatan":5472,"ĠUniversity":5473,"Ġgeuning":5474,"ĠÎ":5475,"ikmin":5476,"Ġmenc":5477,"Ġcek":5478,"rad":5479,"ĠEmas":5480,"ĠDesigner":5481,"Ġmani":5482,"ĠPara":5483,"impin":5484,"ody":5485,"ĠPo":5486,"ĠView":5487,"pir":5488,"ART":5489,"ider":5490,"ĠSec":5491,"ĠTinggi":5492,"Pangalusna":5493,"ĠÅ":5494,"Ġhade":5495,"Ġfile":5496,"set":5497,"itut":5498,"Ð°Ð":5499,"ĠBit":5500,"ehe":5501,"Ġkheueh":5502,"ĠAustralia":5503,"ĠCO":5504,"Ġnibak":5505,"icial":5506,"xy":5507,"ĠKos":5508,"Ġfilm":5509,"amo":5510,"Ġpolos":5511,"Mun":5512,"loor":5513,"enian":5514,"price":5515,"Ġserv":5516,"Ġheubeul":5517,"ĠCianjur":5518,"uksi":5519,"ĠSalaku":5520,"Dicomot":5521,"Ġkakaw":5522,"ft":5523,"ĠCamp":5524,"Ġversi":5525,"mana":5526,"ĠDunya":5527,"imbaran":5528,"Ġpand":5529,"ĠFl":5530,"ĠUmum":5531,"Ġtemp":5532,"rot":5533,"Ġpac":5534,"Ġpanyakit":5535,"itam":5536,"ĠÂ«":5537,"loth":5538,"vin":5539,"Ġimp":5540,"Ġkomunikasi":5541,"ĠAB":5542,"Pam":5543,"ĠPuter":5544,"Ġlanc":5545,"Ġlega":5546,"Ġtradisional":5547,"Ġer":5548,"ĠJuan":5549,"Ã©hkeun":5550,"2013":5551,"Ġinget":5552,"aruhan":5553,"Ġ2000":5554,"undan":5555,"orth":5556,"ĠDesa":5557,"Ġmaju":5558,"ĠAugust":5559,"ĠSung":5560,"areta":5561,"Ġmes":5562,"Ã©sÃ©":5563,"icks":5564,"ces":5565,"Ġkeb":5566,"ister":5567,"ĠBL":5568,"Ġra":5569,"ĠHenteu":5570,"Ġjiga":5571,"Ġkodiak":5572,"ĠLive":5573,"ĠJUAL":5574,"ĠSe":5575,"jalma":5576,"==":5577,"enge":5578,"tival":5579,"Ã¤":5580,"umpang":5581,"ĠIsland":5582,"Ġlahir":5583,"Ã©nan":5584,"Ġ38":5585,"inton":5586,"cont":5587,"elang":5588,"Ã©ntang":5589,"aring":5590,"ĠSitus":5591,"Ġjuj":5592,"anggan":5593,"ambaran":5594,"ĠBiografi":5595,"Ġjiwa":5596,"nt":5597,"ĠBahan":5598,"here":5599,"Ġjapanese":5600,"anji":5601,"alana":5602,"ĠRas":5603,"angtu":5604,"Ġsch":5605,"owongan":5606,"Mod":5607,"Ġmaka":5608,"Ġmir":5609,"get":5610,"Ġnel":5611,"illah":5612,"Ġpab":5613,"igawÃ©":5614,"ĠMalah":5615,"ĠPok":5616,"Sab":5617,"etkeun":5618,"ref":5619,"Ġdiperc":5620,"EH":5621,"Ġkirang":5622,"egal":5623,"embangan":5624,"ĠTut":5625,"ĠNatural":5626,"Ġlaeng":5627,"Kat":5628,"ĠBlowjobs":5629,"Ġjurusan":5630,"Ġreal":5631,"Ġeureun":5632,"Ġbol":5633,"Ġcahaya":5634,"Ġwilayah":5635,"ampahan":5636,"ĠManufacturer":5637,"Ġraj":5638,"tory":5639,"Ġpep":5640,"ĠAli":5641,"Ġpoto":5642,"Ġcerita":5643,"ãĢ":5644,"obat":5645,"Ġaf":5646,"Ġindi":5647,"ÄĹ":5648,"emon":5649,"ote":5650,"Ġsakitu":5651,"HD":5652,"ĠPlafon":5653,"ĠCand":5654,"Ġkayu":5655,"Ġpanties":5656,"ector":5657,"Ùĥ":5658,"ĠUjang":5659,"Ġtato":5660,"Â¬":5661,"uban":5662,"arak":5663,"ombol":5664,"ĠStar":5665,"thumbs":5666,"Ã©jo":5667,"quet":5668,"ĠSMA":5669,"Hot":5670,"kin":5671,"ĠSaf":5672,"ĠIstanbul":5673,"iklop":5674,"Ġpercaya":5675,"win":5676,"ĠLeb":5677,"asia":5678,"ĠHa":5679,"Ġ39":5680,"ĠElec":5681,"yt":5682,"Ġnawiskeun":5683,"minal":5684,"pad":5685,"ompok":5686,"Ġdokter":5687,"yarna":5688,"Ġlink":5689,"Ġnempatkeun":5690,"Ġgypsum":5691,"count":5692,"ĠkÃ©nging":5693,"Ġwand":5694,"ohong":5695,"Cart":5696,"Ġkadaharan":5697,"Nya":5698,"ĠMedia":5699,"Ġ37":5700,"hareupan":5701,"Ø©":5702,"ĠIsa":5703,"dy":5704,"mark":5705,"Ġcor":5706,"ĠDigital":5707,"Ġdam":5708,"ĠOt":5709,"Ġkarakter":5710,"Ġkai":5711,"ĠStory":5712,"Ġsataun":5713,"ĠSarah":5714,"Ġnurutkeun":5715,"ĠPL":5716,"Ġperjalanan":5717,"olescent":5718,"world":5719,"Ġden":5720,"Ġnomer":5721,"ule":5722,"Ġbor":5723,"ĠDim":5724,"Ġneangan":5725,"ĠTI":5726,"euneu":5727,"sel":5728,"Ġmurid":5729,"iang":5730,"Ġloans":5731,"oni":5732,"Ġhandapeun":5733,"Ġdek":5734,"ĠDav":5735,"Co":5736,"Ġsejenna":5737,"arÃ©ntahan":5738,"ekal":5739,"SAR":5740,"amas":5741,"alem":5742,"Ġanti":5743,"Ġprop":5744,"Ġnikah":5745,"Ã©di":5746,"ĠIT":5747,"Ã©sÃ©r":5748,"Ġdapat":5749,"128":5750,"ĠBut":5751,"................":5752,"kÃ©":5753,"Ġsatengah":5754,"Ġlayar":5755,"idit":5756,"ĠTanah":5757,"Kur":5758,"ordan":5759,"Ġsangg":5760,"Ġparabot":5761,"ux":5762,"Ġkeun":5763,"2020":5764,"ditional":5765,"sit":5766,"vert":5767,"Ġdia":5768,"ĠTasik":5769,"alog":5770,"Ġdang":5771,"Ġmic":5772,"Ġuing":5773,"Ġwill":5774,"Ġngatur":5775,"Ã£":5776,"Ġdeuih":5777,"ØŃ":5778,"ĠKeb":5779,"Ġ...]":5780,"Lainna":5781,"gi":5782,"Â«":5783,"idad":5784,"Ġbrand":5785,"ĠKL":5786,"ebu":5787,"ĠDesain":5788,"ondon":5789,"ĠÙħ":5790,"ĠTek":5791,"enti":5792,"Ġdob":5793,"Ġgun":5794,"Ġav":5795,"ĠTER":5796,"ingo":5797,"Ġtool":5798,"Ġberk":5799,"Ġcanada":5800,"Ġtujuh":5801,"Ġditer":5802,"OC":5803,"ĠSouth":5804,"ĠKl":5805,"Ġuang":5806,"ĠÃ©lmu":5807,"Ġhujan":5808,"epas":5809,"oi":5810,"Ġom":5811,"Ã©sional":5812,"abut":5813,"Ġdiro":5814,"ĠMore":5815,"ito":5816,"Ġpuluh":5817,"ĠGer":5818,"Ġfun":5819,"omba":5820,"Ġpindah":5821,"ĠCare":5822,"ns":5823,"ÂŃ":5824,"iland":5825,"agat":5826,"ayogikeun":5827,"ulÃ©":5828,"anjeunna":5829,"ever":5830,"Ġkantos":5831,"OW":5832,"Ġsiaran":5833,"aria":5834,"Ġkop":5835,"ĠMem":5836,"Ġkulon":5837,"tan":5838,"ĠDÃ©w":5839,"Ġrak":5840,"Ġras":5841,"Ġnangtukeun":5842,"ves":5843,"URAH":5844,"ĠBy":5845,"Ġsirah":5846,"ĠKen":5847,"92":5848,"pis":5849,"ĠSaj":5850,"Br":5851,"Ġ//":5852,"Ġkatilu":5853,"ĠWedding":5854,"ĠSEO":5855,"2012":5856,"teu":5857,"Ġmeun":5858,"Ġpikaresep":5859,"ngÃ©":5860,"inj":5861,"ĠTul":5862,"ward":5863,"Top":5864,"pt":5865,"ĠTechn":5866,"Ġben":5867,"Ġbeungeut":5868,"Ġmasing":5869,"140":5870,"300":5871,"ĠSareng":5872,"Ġunik":5873,"Ġmasterbating":5874,"Ġbatan":5875,"Ġapan":5876,"Ġkey":5877,"Ġlant":5878,"Ġrib":5879,"ĠGa":5880,"ĠIsra":5881,"wangunan":5882,"ĠMei":5883,"!!!":5884,"ĠRemix":5885,"ones":5886,"ANGK":5887,"mbol":5888,"Ġhard":5889,"ĠTravel":5890,"itter":5891,"ĠJune":5892,"Ġadda":5893,"Ġperkara":5894,"Ġsignup":5895,"Ġsiswa":5896,"asari":5897,"ĠMaha":5898,"ASI":5899,"Ġ48":5900,"Ġmaksud":5901,"akuan":5902,"ĠKalurahan":5903,"ĠMuslim":5904,"ĠBook":5905,"Ġisu":5906,"ser":5907,"ĠPapan":5908,"ĠsamÃ©mÃ©hna":5909,"uminium":5910,"olak":5911,"Ġmit":5912,"Ã©ngk":5913,"Ġleumpang":5914,"Ġmikir":5915,"yl":5916,"Ġlab":5917,"ĠPC":5918,"ĠBesar":5919,"gÃ©":5920,"rik":5921,"Ġtangan":5922,"ESS":5923,"Ġcash":5924,"UG":5925,"adar":5926,"roh":5927,"ĠChrist":5928,"anna":5929,"Ġmasa":5930,"Ġcac":5931,"ĠgorÃ©ng":5932,"itif":5933,"Ġkasalahan":5934,"jaan":5935,"Ah":5936,"adak":5937,"ĠAma":5938,"Ġdosa":5939,"des":5940,"Ġding":5941,"Ġmadthumbs":5942,"ĠLib":5943,"Ùģ":5944,"Ġnomor":5945,"ĠPop":5946,"Ġsajabana":5947,"amak":5948,"ittle":5949,"Ġtiis":5950,"ĠProgram":5951,"Ġ0812":5952,"ĠKacamata":5953,"ĠAsli":5954,"Ġtib":5955,"uble":5956,"ĠDecember":5957,"Ġngarojong":5958,"Ġnaskah":5959,"adia":5960,"ĠKeur":5961,"Ġatikan":5962,"ĠJang":5963,"Ġ400":5964,"ACC":5965,"Ġmangpaat":5966,"oci":5967,"entah":5968,"inar":5969,"Ġprice":5970,"ĠSamp":5971,"Ġagen":5972,"pons":5973,"Ġ250":5974,"ication":5975,"Ħ¢":5976,"Ġngir":5977,"Sarees":5978,"Ġbisi":5979,"orit":5980,"ĠTum":5981,"Ġandroid":5982,"imbal":5983,"ĠVol":5984,"ĠSaw":5985,"Ġdibuka":5986,"Ġsadar":5987,"Ġkhusus":5988,"ier":5989,"ajang":5990,"name":5991,"rÃ©":5992,"zz":5993,"ĠFS":5994,"Ġpangaweruh":5995,"Ġsid":5996,"itle":5997,"ĠIND":5998,"Sakola":5999,"ĠTanjung":6000,"imitina":6001,"Jumlah":6002,"Mang":6003,"ANGG":6004,"Ġcoup":6005,"ĠKong":6006,"akÃ©an":6007,"product":6008,"obnyan":6009,"ibusi":6010,"Ġluyu":6011,"Ġkek":6012,"ĠSize":6013,"engi":6014,"kon":6015,"Ñĭ":6016,"Ġlaw":6017,"raft":6018,"Hiji":6019,"ĠTemp":6020,"Ġpery":6021,"olusi":6022,"ĠKarajaan":6023,"ĠAY":6024,"Ġkauntungan":6025,"oklat":6026,"iesta":6027,"Ġspank":6028,"uyan":6029,"Ġstrateg":6030,"ĠNopÃ©mber":6031,"alif":6032,"dina":6033,"ss":6034,"Ġbaru":6035,"crip":6036,"AF":6037,"ĠmanÃ©h":6038,"ĠIndah":6039,"ĠCum":6040,"ĠTurnamÃ©n":6041,"Ġprint":6042,"enno":6043,"Ġmol":6044,"Ġtitans":6045,"ĠTempat":6046,"Ġindivid":6047,"Ġbest":6048,"Ġcam":6049,"riend":6050,"jong":6051,"Äį":6052,"ĠBola":6053,"ilis":6054,"ĠNG":6055,"phone":6056,"ĠAR":6057,"IX":6058,"Ġasih":6059,"ĠFakta":6060,"Ġparobahan":6061,"Ġpanto":6062,"ĠContact":6063,"ĠAnggota":6064,"ambut":6065,"Ġrata":6066,"fil":6067,"Ġrun":6068,"Ġsatu":6069,"Ġsimp":6070,"Ġibadah":6071,"ubah":6072,"Ġdaerah":6073,"ĠGirl":6074,"Ġnyat":6075,"Ġkatingal":6076,"Ġnyeb":6077,"uard":6078,"ĠJobs":6079,"akil":6080,"Ġey":6081,"Ġstories":6082,"Ġimages":6083,"ĠAgung":6084,"ision":6085,"ĠNag":6086,"Ġngajak":6087,"hu":6088,"ahang":6089,"Ġtiava":6090,"Ã©ngkah":6091,"angkalan":6092,"enging":6093,"Ġplay":6094,"Ġcocok":6095,"ke":6096,"pormasi":6097,"aming":6098,"ĠGol":6099,"Ġdibawa":6100,"ĠBanarasi":6101,"yc":6102,"ÄŁ":6103,"Ġpilem":6104,"ĠUntold":6105,"Ġalso":6106,"Ġditangt":6107,"Ã©wa":6108,"PP":6109,"for":6110,"rea":6111,"Ġengine":6112,"long":6113,"Ġmanuk":6114,"sex":6115,"Ġ75":6116,"ĠDesember":6117,"ĠBahru":6118,"ĠMenengah":6119,"Ġoriginal":6120,"Ġ42":6121,"ĠprofÃ©sional":6122,"Ġnangtung":6123,"ìķ":6124,"Ġklik":6125,"umahan":6126,"ĠCeuk":6127,"Ġrob":6128,"Ġdamel":6129,"ĠCel":6130,"ĠMc":6131,"Ġngem":6132,"ĠWisata":6133,"Ġ::":6134,"Ġngarasakeun":6135,"(\"":6136,"Ã©publik":6137,"otan":6138,"SD":6139,"Äĵ":6140,"ĠnÃ©mbongkeun":6141,"Ġone":6142,"ĠJerman":6143,"Ġwalungan":6144,"Ġmult":6145,"ĠTL":6146,"Ġgallery":6147,"adem":6148,"ĠBB":6149,"caya":6150,"Ġnip":6151,"uny":6152,"Ġtog":6153,"Ġvia":6154,"untu":6155,"ĠSababaraha":6156,"Cara":6157,"ĠBroad":6158,"entot":6159,"ĠWanita":6160,"ĠBumi":6161,"upati":6162,"Ġlokasi":6163,"Ġnami":6164,"mac":6165,"Ġos":6166,"ungi":6167,"Ġtime":6168,"ĠGames":6169,"ĠKabayan":6170,"malaya":6171,"Ġnyeri":6172,"ĠBud":6173,"Ġnyiptakeun":6174,"Ġrac":6175,"Ġ2004":6176,"aton":6177,"ĠTits":6178,"ĠGR":6179,"Ġditar":6180,"Ġexp":6181,"ĠMotor":6182,"Tumbu":6183,"oskeun":6184,"core":6185,"vers":6186,"Ġbulu":6187,"PL":6188,"Ġngarti":6189,"Ġporno":6190,"Ġlaptop":6191,"Ġpanang":6192,"ĠYork":6193,"cing":6194,"Ġtw":6195,"Ġmom":6196,"Ġvs":6197,"erty":6198,"Is":6199,"Ġnyump":6200,"Ã©lÃ©k":6201,"Ġpint":6202,"iger":6203,"sive":6204,"Ġeur":6205,"Ġrag":6206,"ĠTH":6207,"ĠReal":6208,"ecut":6209,"Ġhartosna":6210,"ipat":6211,"][":6212,"iah":6213,"Ġ((":6214,"lime":6215,"estival":6216,"Ġobat":6217,"ĠÃ©konomi":6218,"isna":6219,"Ġgug":6220,"uch":6221,"val":6222,"Ġrahayat":6223,"be":6224,"asina":6225,"angkang":6226,"ĠNgar":6227,"Åį":6228,"Ġhours":6229,"urid":6230,"akang":6231,"Ġ46":6232,"Ġadd":6233,"Ġsurf":6234,"Ġdisebutkeun":6235,"Par":6236,"size":6237,"Ġsm":6238,"Ġcasinos":6239,"ĠtekÃ©n":6240,"ampura":6241,"ogyakarta":6242,"ĠDong":6243,"ross":6244,"ĠWest":6245,"ĠMir":6246,"ĠNalika":6247,"ĠVegas":6248,"item":6249,"Ġisuk":6250,"oca":6251,"embar":6252,"ipsum":6253,"Ġgenep":6254,"ĠSMS":6255,"ella":6256,"ehatan":6257,"uzu":6258,"CE":6259,"Ġseri":6260,"read":6261,"Ġlengkepna":6262,"ĠRel":6263,"arikna":6264,";&":6265,"ĠSW":6266,"GAG":6267,"Ġngembangkeun":6268,"work":6269,"atihan":6270,"Ġsahingga":6271,"erland":6272,"ĠTha":6273,"ĠRoh":6274,"inda":6275,"Ġsapop":6276,"erk":6277,"Ġdiant":6278,"anggung":6279,"TM":6280,"apeung":6281,"akhir":6282,"esna":6283,"ching":6284,"Ġsipat":6285,"Ġpanganyarna":6286,"Ġmerek":6287,"ĠPendidikan":6288,"ĠDepok":6289,"ĠJL":6290,"Komentar":6291,"ĠTw":6292,"Ġters":6293,"PA":6294,"Ġtag":6295,"ĠSud":6296,"ĠkÃ©":6297,"ĠrÃ©ngsÃ©":6298,"ÑģÐº":6299,"GGT":6300,"Ġning":6301,"ĠTun":6302,"lÃ©":6303,"Ġbil":6304,"Ġsyarat":6305,"Ġbola":6306,"ĠContona":6307,"Ã©o":6308,"ĠAf":6309,"col":6310,"itor":6311,"Ġ->":6312,"Ġ47":6313,"oÃ«":6314,"ĠRoulette":6315,"ekut":6316,"Ġumumna":6317,"ergi":6318,"erna":6319,"Ġtol":6320,"ĠNational":6321,"Ġjah":6322,"eon":6323,"Ġtutuwuhan":6324,"Kas":6325,"Kaca":6326,"ĠÄ°":6327,"PC":6328,"ege":6329,"jual":6330,"pur":6331,"ATA":6332,"atik":6333,"rive":6334,"inah":6335,"Ġbh":6336,"ipta":6337,"yarakat":6338,"Ġberb":6339,"hana":6340,"ĠUlah":6341,"can":6342,"enting":6343,"ĠPria":6344,"ria":6345,"ĠSalah":6346,"ĠtÃ©knologi":6347,"ĠPoÃ©":6348,"ehan":6349,"Ġ120":6350,"led":6351,"ĠGen":6352,"ants":6353,"ĠKo":6354,"uah":6355,"Ġkuna":6356,"amm":6357,"oritas":6358,"Ġperyogi":6359,"ĠTips":6360,"Ġdipercaya":6361,"END":6362,"alikna":6363,"taw":6364,"Ġhigh":6365,"omas":6366,"ropol":6367,"Ġpikaresepeun":6368,"ĠTal":6369,"idinan":6370,"lag":6371,"ĠOper":6372,"ĠLal":6373,"ĠkasÃ©hatan":6374,"emium":6375,"Ġ43":6376,"Ġsublime":6377,"ĠOb":6378,"ĠDistributor":6379,"ĠKes":6380,"Ġcut":6381,"engkap":6382,"istrasi":6383,"Ġsamping":6384,"Ã¨n":6385,"DÃ©sa":6386,"ĠSand":6387,"Ġloc":6388,"ede":6389,"Ġnyet":6390,"ĠProducts":6391,"isip":6392,"ĠMaran":6393,"Ġsaur":6394,"Am":6395,"Ġtinggal":6396,"ĠMetal":6397,"Ġumat":6398,"Ġed":6399,"Ġangka":6400,"sar":6401,"Ġngaku":6402,"Apr":6403,"Ġhatur":6404,"ĠGor":6405,"Ġprakt":6406,"ĠÃ©lÃ©k":6407,"ampa":6408,"Ġgas":6409,"Ã©ter":6410,"ĠLot":6411,"Big":6412,"Balas":6413,"unu":6414,"ĠbadÃ©":6415,"ability":6416,"Kang":6417,"Ġphoto":6418,"Ġeusina":6419,"Ġpah":6420,"adilan":6421,"wah":6422,"Ġkerja":6423,"ĠCouple":6424,"ror":6425,"eme":6426,"Ġdikirim":6427,"Ġpentru":6428,"Ġpapan":6429,"utra":6430,"ĠYesus":6431,"hh":6432,"Ġpinter":6433,"lien":6434,"eneran":6435,"Ġmodern":6436,"Ä±n":6437,"2010":6438,"Ñı":6439,"Ġdur":6440,"keting":6441,"andungan":6442,"eundeun":6443,"Ġwenno":6444,"Ġdaging":6445,"ĠBanten":6446,"ãĤ":6447,"ĠData":6448,"idal":6449,"gg":6450,"angu":6451,"kur":6452,"Ġkatresna":6453,"euran":6454,"400":6455,"Ġjacking":6456,"Ġlogam":6457,"ĠMand":6458,"ILL":6459,"okal":6460,"ias":6461,"ĠwÃ©b":6462,"oys":6463,"Ġlalampahan":6464,"eading":6465,"ĠUnd":6466,"Ġpromosi":6467,"rib":6468,"Ġsenang":6469,"Pol":6470,"Ġunivers":6471,"Ngam":6472,"Ġmangk":6473,"ĠrÃ©b":6474,"Ġdayeuh":6475,"Ã©lÃ©hkeun":6476,"Ġeuy":6477,"Ġpoho":6478,"ĠParis":6479,"Ġdog":6480,"ĠhÃ©sÃ©":6481,"ĠKaulinan":6482,"ijakan":6483,"udayaan":6484,"Actress":6485,"anggu":6486,"ungkinan":6487,"Ġurut":6488,"Ġngus":6489,"opedia":6490,"ĠSlots":6491,"pi":6492,"eaf":6493,"ason":6494,"Ġnit":6495,"epat":6496,"Ġangkat":6497,"van":6498,"ĠDib":6499,"ĠyÃ©k":6500,"ĠInfo":6501,"FF":6502,"2011":6503,"Ġpool":6504,"Ġgenerator":6505,"Ġten":6506,"SE":6507,"Ġtotal":6508,"Ã´h":6509,"nal":6510,"ĠLain":6511,"uja":6512,"Ġsakit":6513,"ĠPutih":6514,"agna":6515,"ĠLaut":6516,"ĠPrÃ©sidÃ©n":6517,"Ġnat":6518,"ĠTangan":6519,"ĠList":6520,"Ġvol":6521,"Ġindonesia":6522,"eusian":6523,"ï»¿":6524,"ĠTe":6525,"Ġshow":6526,"ĠKons":6527,"umum":6528,"ĠNar":6529,"AMP":6530,"Ġmm":6531,"Ġjuara":6532,"ĠSUN":6533,"ucky":6534,"Ġnav":6535,"ĠKuningan":6536,"ĠLin":6537,"ĠPAN":6538,"Ġdiuk":6539,"ĠEdit":6540,"asiun":6541,"ATC":6542,"ĠmÃ©d":6543,"ĠIst":6544,"Ġxiaomi":6545,"Ġkontak":6546,"big":6547,"harga":6548,"ears":6549,"ĠPajajaran":6550,"ĠJALAN":6551,"ustom":6552,"ĠCur":6553,"Ã³n":6554,"Ġnutup":6555,"enteuna":6556,"Ġbiaya":6557,"ihkeun":6558,"Ġperhat":6559,"Ġnambahan":6560,"ĠPed":6561,"ĠiPhone":6562,"ections":6563,"ĠÃ©f":6564,"awis":6565,"Ġoutlet":6566,"Tina":6567,"Â·":6568,"eureuh":6569,"Ġwhich":6570,"Ġcalon":6571,"Ġpikir":6572,"Ġtimb":6573,"________________":6574,"Ġdec":6575,"âĢĭ":6576,"Ġpass":6577,"Ġsaatos":6578,"ĠaksÃ©s":6579,"Ġngayakeun":6580,"iro":6581,"reg":6582,"ĠCafe":6583,"ĠGener":6584,"ombang":6585,"Ġtimur":6586,"Ġpapanggih":6587,"ĠJay":6588,"Ġval":6589,"ĠPillow":6590,"Ġdijual":6591,"Ġglobal":6592,"ĠPulo":6593,"ĠSymbol":6594,"Ġngap":6595,"ĠModel":6596,"ĠRak":6597,"Ġento":6598,"Ġkamari":6599,"ĠSerikat":6600,"ĠItalia":6601,"andap":6602,"ĠAtuh":6603,"Ġsabung":6604,"Ġaut":6605,"];":6606,"Ġbing":6607,"cer":6608,"argaan":6609,"ĠWindows":6610,"Ġngamungkinkeun":6611,"IAN":6612,"arosan":6613,"Ġcel":6614,"ìķĦ":6615,"ĠkonsumÃ©n":6616,"ily":6617,"Ġsapanjang":6618,"ĠTembongkeun":6619,"Ġbay":6620,"taf":6621,"Ġhadir":6622,"ky":6623,"Ġsaja":6624,"Ġbeulah":6625,"Ġstruktur":6626,"mod":6627,"Ġngadegkeun":6628,"ehat":6629,"ĠAdmin":6630,"ray":6631,"ĠAks":6632,"ĠSarta":6633,"Ġhayu":6634,"Ġhayam":6635,"ĠSeries":6636,"EE":6637,"ĠSul":6638,"ĠspÃ©si":6639,"ĠMusic":6640,"Ġemp":6641,"ĠHol":6642,"adina":6643,"Ġworld":6644,"anyak":6645,"ĠPabrik":6646,"Ġunsur":6647,"Ġlaporan":6648,"jeung":6649,"Ġsystem":6650,"Ġkomentar":6651,"PSN":6652,"ĠpÃ©r":6653,"ĠPorn":6654,"Ġep":6655,"Ġkebon":6656,"ante":6657,"ĠkalÃ©r":6658,"Ġefek":6659,"fat":6660,"ĠEy":6661,"ĠSurat":6662,"ÙĤ":6663,"Ġtemb":6664,"Ġngel":6665,"inyal":6666,"Ġcartoon":6667,"Dr":6668,"Ġengg":6669,"Ġklub":6670,"ful":6671,"dn":6672,"masing":6673,"Ġcurang":6674,"tik":6675,"ĠHer":6676,"ĠNgaliwatan":6677,"ĠHouse":6678,"Ġpangb":6679,"ĠCategories":6680,"uel":6681,"ampil":6682,"engka":6683,"Ġkenging":6684,"fe":6685,"ident":6686,"ebo":6687,"asupkeun":6688,"ĠSpanyol":6689,"AV":6690,"angbang":6691,"ĠPD":6692,"igi":6693,"Ġpulo":6694,"Ġkakara":6695,"Ġkadi":6696,"ĠBob":6697,"Pa":6698,"ĠBAR":6699,"Ġcontona":6700,"ĠSag":6701,"SH":6702,"apore":6703,"Ġditu":6704,"Ġfant":6705,"uba":6706,"ĠNPSN":6707,"service":6708,"Ġ2003":6709,"Amat":6710,"tis":6711,"Ġsimbol":6712,"igan":6713,"undund":6714,"Res":6715,"ĠSusan":6716,"ĠNagara":6717,"Ġdatangna":6718,"Ġdununun":6719,"Fil":6720,"Ġtepi":6721,"itak":6722,"antri":6723,"ĠSabun":6724,"USD":6725,"atas":6726,"Ġiraha":6727,"ĠKe":6728,"ĠExpress":6729,"ìĿ":6730,"ĠColor":6731,"Ġclick":6732,"eugah":6733,"ĠSadaya":6734,"dan":6735,"ĠKing":6736,"elar":6737,"ible":6738,"ĠPutra":6739,"Ġpamingpin":6740,"ĠLatest":6741,"Ġany":6742,"ĠSearch":6743,"ĠPup":6744,"ARAN":6745,"Ġjinis":6746,"Ġngagambarkeun":6747,"euen":6748,"Ġmuslim":6749,"Ġvan":6750,"anja":6751,"asha":6752,"ĠDitambah":6753,"BA":6754,"eunah":6755,"ĠFalse":6756,"Ġbutuh":6757,"ĠJisas":6758,"Ġviews":6759,"jack":6760,"ĠIp":6761,"ĠBroadcast":6762,"ĠMov":6763,"formation":6764,"Ġkuk":6765,"Ġsaban":6766,"ĠManufacturers":6767,"paatkeun":6768,"Ġpadamelan":6769,"ĠKawas":6770,"ĠWa":6771,"Ġunder":6772,"ĠNumber":6773,"ĠJumlah":6774,"Distance":6775,"Ã©ksi":6776,"uce":6777,"arger":6778,"alina":6779,"ĠName":6780,"ĠInternet":6781,"ming":6782,"Ġport":6783,"ãģ":6784,"ĠDoor":6785,"ml":6786,"ï¼Į":6787,"iding":6788,"Ã©kwa":6789,"oven":6790,"ĠAv":6791,"ĠRoy":6792,"ĠSay":6793,"yd":6794,"ĠRT":6795,"ĠFloor":6796,"ifikasi":6797,"erluan":6798,"oday":6799,"apus":6800,"ĠmÃ©t":6801,"ectory":6802,"Ġpokna":6803,"Ġkertas":6804,"ĠThailand":6805,"lok":6806,"ĠWild":6807,"AMAN":6808,"Blog":6809,"Ġkaula":6810,"ĠSungai":6811,"EX":6812,"Ġguy":6813,"imat":6814,"*:":6815,"Ġgeut":6816,"ĠCardinal":6817,"Ġsimkuring":6818,"Hal":6819,"antai":6820,"argana":6821,"ĠPET":6822,"Ġ99":6823,"lock":6824,"Ġ77":6825,"Ġcustomer":6826,"Ġbeg":6827,"engh":6828,"Ġradio":6829,"Ġkanu":6830,"ĠSign":6831,"ĠAranjeunna":6832,"Taman":6833,"ĠÃ©ns":6834,"agÃ©":6835,"Ġdigunakeun":6836,"Ġdibaca":6837,"Ġngajawab":6838,"Ġberg":6839,"Ġinc":6840,"ĠKarangan":6841,"ÈĽ":6842,"ipsi":6843,"ĠAD":6844,"ilar":6845,"ĠNak":6846,"Ġ66":6847,"Ġanjing":6848,"ullah":6849,"ĠmodÃ©l":6850,"itna":6851,"Ġwel":6852,"ĠNgal":6853,"pm":6854,"ĠrÃ©a":6855,"jana":6856,"astr":6857,"Ġnajan":6858,"Ġadat":6859,"Ġmotong":6860,"ĠÃ©nsiklop":6861,"imon":6862,"Ġdayta":6863,"ĠPic":6864,"ampi":6865,"Ġkarir":6866,"Ġlakar":6867,"ĠTin":6868,"Ġhow":6869,"ĠdipigawÃ©":6870,"El":6871,"Ta":6872,"ĠThis":6873,"Ġseks":6874,"Ġprot":6875,"WA":6876,"rit":6877,"ĠÃ©nd":6878,"tric":6879,"oread":6880,"ambu":6881,"ĠMini":6882,"Ġmulang":6883,"????":6884,"Ġrat":6885,"Ġlucu":6886,"Ġklien":6887,"ĠKusabab":6888,"imalayan":6889,"ĠYun":6890,"Bar":6891,"the":6892,"ĠLyrics":6893,"ĠSale":6894,"Ġsis":6895,"ERI":6896,"MS":6897,"ĠBak":6898,"Ġasam":6899,"raw":6900,"Ġlagi":6901,"Ġhadiah":6902,"Ġulin":6903,"ayasan":6904,"Ġwad":6905,"Ġkend":6906,"Ġgu":6907,"Sat":6908,"adegan":6909,"abama":6910,"AMB":6911,"Ġelmu":6912,"ĠGad":6913,"ĠISBN":6914,"ĠÃ©ks":6915,"eue":6916,"ĠBudaya":6917,"Ġmaids":6918,"Ġbeut":6919,"order":6920,"ĠTor":6921,"Ġmedia":6922,"ĠTak":6923,"ubuk":6924,"Ġfinal":6925,"ĠComments":6926,"Ġbaba":6927,"ĠLukisan":6928,"ĠON":6929,"Ġyo":6930,"iff":6931,"Ġagoread":6932,"ĠRacing":6933,"lina":6934,"unaan":6935,"Ġplafon":6936,"paper":6937,"ĠYang":6938,"bol":6939,"ÃĨ":6940,"Ġlib":6941,"Toko":6942,"ĠPhoto":6943,"ĠWÃ©tan":6944,"Ġdisimpen":6945,"ĠOffice":6946,"ambi":6947,"uta":6948,"idd":6949,"Ġputri":6950,"ĠPurw":6951,"aliwat":6952,"ĠUSA":6953,"ĠSeni":6954,"ĠGM":6955,"eave":6956,"TS":6957,"Ġsurvey":6958,"igireun":6959,"ogja":6960,"ĠYah":6961,"Ġiphone":6962,"ving":6963,"Ġchat":6964,"ĠmÃ©nta":6965,"ĠGroup":6966,"Ġstat":6967,"Ġnormal":6968,"Ġpamil":6969,"Ġdijadikeun":6970,"Ġlolobana":6971,"TR":6972,"ĠBor":6973,"ĠEX":6974,"Ġcoba":6975,"Ngamimitian":6976,"ĠSl":6977,"Ġongk":6978,"mba":6979,"eve":6980,"Ġlami":6981,"otong":6982,"Ġide":6983,"Ġkundi":6984,"orks":6985,"Ġbapana":6986,"utat":6987,"ĠNon":6988,"Ġoper":6989,"***":6990,"Artikel":6991,"Ġseuri":6992,"Ġbokep":6993,"Ġthrough":6994,"Ġkampung":6995,"uha":6996,"ĠRailway":6997,"Bet":6998,"ĠMont":6999,"ulum":7000,"ĠLong":7001,"ĠFÃ©bruari":7002,"ĠClub":7003,"æľ":7004,"Ġkabel":7005,"Ġsend":7006,"cription":7007,"Ber":7008,"Ġpir":7009,"ĠAII":7010,"Ġjalmi":7011,"ĠAki":7012,"ihi":7013,"ship":7014,"Ġkatelah":7015,"Ġsemu":7016,"ario":7017,"Ġngalakonan":7018,"Ġrohangan":7019,"Ġkakawasaan":7020,"ĠNU":7021,"otes":7022,"ÛĮ":7023,"ĠSon":7024,"Ġder":7025,"Ġwant":7026,"ĠSalt":7027,"ĠPiece":7028,"olan":7029,"erto":7030,"ropolitan":7031,"Bah":7032,"Ġbot":7033,"agon":7034,"Ġfilter":7035,"Item":7036,"Ġbec":7037,"Ġarticle":7038,"ĠTasikmalaya":7039,"enahna":7040,"oms":7041,"ajuan":7042,"Bab":7043,"ĠÃ©nsiklopÃ©di":7044,"lad":7045,"Ġbaca":7046,"à°":7047,"ĠKed":7048,"ĠId":7049,"ocog":7050,"ĠTechnology":7051,"GR":7052,"You":7053,"osis":7054,"Ġwall":7055,"Ġnyi":7056,"ĠPropinsi":7057,"Post":7058,"ĠDildo":7059,"MI":7060,"Ġpamuter":7061,"ĠFL":7062,"insip":7063,"Ã©tÃ©":7064,"anyi":7065,"log":7066,"ĠTid":7067,"Ġstasion":7068,"Ġkilom":7069,"ĠKim":7070,"GGC":7071,"ĠTambahan":7072,"ĠEmbroid":7073,"Ġsudah":7074,"Ġdidi":7075,"odas":7076,"ĠtÃ©mb":7077,"Ġgawe":7078,"ĠSok":7079,"Ġkawin":7080,"Ġsawah":7081,"uloan":7082,"Ġour":7083,"Ak":7084,"San":7085,"Ġtamb":7086,"Ġpami":7087,"yu":7088,"ĠPerdana":7089,"ebruary":7090,"nagar":7091,"awuh":7092,"Ġmalang":7093,"OTA":7094,"ores":7095,"imba":7096,"Ġtuah":7097,"had":7098,"ĠPri":7099,"ople":7100,"aniz":7101,"ements":7102,"ĠDem":7103,"adahal":7104,"olesale":7105,"ordin":7106,"Ġpuasa":7107,"pol":7108,"Ġpakas":7109,"Ġgelar":7110,"ĠBAN":7111,"ĠPaul":7112,"Ġpeta":7113,"Ġbud":7114,"Ġdating":7115,"ĠMURAH":7116,"iyah":7117,"ĠmÃ©ter":7118,"PD":7119,"ĠDistance":7120,"ĠNap":7121,"Amateur":7122,"ĠPasir":7123,"uction":7124,"ĠEU":7125,"ĠEv":7126,"ĠKalung":7127,"sik":7128,"ĠDunia":7129,"ĠContoh":7130,"ekat":7131,"Ġputih":7132,"ĠBisnis":7133,"Ġmutuskeun":7134,"ĠSubang":7135,"ĠPhil":7136,"ĠCD":7137,"ĠNgaran":7138,"JA":7139,"umumkeun":7140,"nes":7141,"ĠPres":7142,"Ġistri":7143,"Ġnyimpen":7144,"ĠnaÃ©k":7145,"Ġakang":7146,"Ġnuturkeun":7147,"Author":7148,"lukeun":7149,"Ġ%":7150,"Ġhareupeun":7151,"Ġpics":7152,"ĠWin":7153,"ough":7154,"Ġjangkung":7155,"ĠTO":7156,"antong":7157,"board":7158,"Ġtahan":7159,"ĠInc":7160,"ĠAnda":7161,"ĠApa":7162,"Ġinpormasi":7163,"Ġnyayogikeun":7164,"Ġteuma":7165,"ĠGaluh":7166,"cam":7167,"kap":7168,"iklan":7169,"amÃ©m":7170,"Ġparajumper":7171,"Kam":7172,"ĠImages":7173,"Be":7174,"Ġtombol":7175,"ĠngÃ©lÃ©hkeun":7176,"Ġhasilna":7177,"engse":7178,"Sabab":7179,"ĠPEN":7180,"ĠGrup":7181,"Ġgaw":7182,"Tah":7183,"jongan":7184,"Ġpunika":7185,"ĠWeight":7186,"kit":7187,"temp":7188,"ĠwÃ©tan":7189,"Ġapp":7190,"Ġendah":7191,"Ġwanoja":7192,"ĠPe":7193,"rana":7194,"ĠKomputer":7195,"alig":7196,"Ġhil":7197,"Ġmuncul":7198,"!!!!":7199,"Ġinternet":7200,"150":7201,"ĠTri":7202,"ĠBox":7203,"BD":7204,"ĠTaya":7205,"ĠYus":7206,"Ġnov":7207,"Ġribs":7208,"Ġwanita":7209,".....":7210,"Ġfisik":7211,"Ġhalaman":7212,"Ġlebah":7213,"jian":7214,"exe":7215,"ĠPiala":7216,"ĠÃīl":7217,"Ġmahluk":7218,"On":7219,"ĠCerita":7220,"bag":7221,"Ã©c":7222,"ĠCab":7223,"aktos":7224,"ĠJersey":7225,"Ġnyanghareupan":7226,"ues":7227,"Ġseuneu":7228,"ĠpamarÃ©ntahan":7229,"eller":7230,"ĠSastra":7231,"Ġhij":7232,"Ġiwal":7233,"ĠtÃ©hnologi":7234,"Ġsambungan":7235,"Ġngaluarkeun":7236,"ffany":7237,"ĠsÃ©k":7238,"taun":7239,"Ġec":7240,"Ġendog":7241,"ĠWord":7242,"Rep":7243,"uatan":7244,"Ġdiayakeun":7245,"ĠUkuran":7246,"ĠLemb":7247,"ope":7248,"Ġother":7249,"ĠMotif":7250,"angpaatkeun":7251,"ĠPRO":7252,"Ġlump":7253,"anyaho":7254,"Ġmuk":7255,"ains":7256,"ĠAhmad":7257,"rina":7258,"ĠDeal":7259,"enga":7260,"Ġdahareun":7261,"eph":7262,"Kad":7263,"Sup":7264,"Ġwanci":7265,"Ġtiffany":7266,"ĠPerak":7267,"Ġhari":7268,"red":7269,"ĠdÃ©sa":7270,"asti":7271,"ures":7272,"âĢ¦..":7273,"Ġpig":7274,"Ġaktivitas":7275,"Ġdress":7276,"By":7277,"angkungan":7278,"ÑģÑĤ":7279,"ĠSDN":7280,"NC":7281,"ĠOl":7282,"ĠDAN":7283,"SC":7284,"Ġsung":7285,"ds":7286,"Ġjuru":7287,"Ġif":7288,"asilitas":7289,"Ġaksara":7290,"Pand":7291,"ĠdÃ©w":7292,"Ġmerlukeun":7293,"ĠBed":7294,"Ġbeunang":7295,"ĠJob":7296,"ernur":7297,"Ġment":7298,"ĠÃ©fÃ©k":7299,"nap":7300,"Ġmig":7301,"ios":7302,"eurik":7303,"Kap":7304,"Ġbib":7305,"tt":7306,"Ġsperm":7307,"ĠDok":7308,"Ġ49":7309,"artemen":7310,"Ġalbum":7311,"unjul":7312,"Ġdon":7313,"olo":7314,"arankeun":7315,"ĠÃ©m":7316,"All":7317,"ĠKorea":7318,"intonkeun":7319,"eueus":7320,"Ġlight":7321,"ÐµÐ":7322,"Ġcab":7323,"Ġcatetan":7324,"ĠHideung":7325,"iwangi":7326,"Ġdipikaresep":7327,"Ġping":7328,"Ġnyamp":7329,"ARD":7330,"Ġpagawean":7331,"Ġlar":7332,"apunten":7333,"ĠTet":7334,"Jun":7335,"ĠRa":7336,"ĠHair":7337,"Ġindungna":7338,"Cons":7339,"Ġkatingali":7340,"ĠFSX":7341,"Ġway":7342,"Ġ2002":7343,"ĠInstagram":7344,"Ġkalebet":7345,"ORT":7346,"Ġtipe":7347,"fic":7348,"Ġcloset":7349,"Ġaktip":7350,"eupaskeun":7351,"ĠPics":7352,"Ġgobi":7353,"ĠGeorg":7354,"arin":7355,"igo":7356,"alleries":7357,"Ġawakna":7358,"Ġpit":7359,"ĠLuh":7360,"ĠIndustri":7361,"Ġluhureun":7362,"Ġcir":7363,"truksi":7364,"Ġkabut":7365,"ĠMA":7366,"sup":7367,"Ø¬":7368,"ising":7369,"ĠRock":7370,"Ġtas":7371,"Ġindividu":7372,"Sum":7373,"Ġhis":7374,"ĠPerusahaan":7375,"Ġpengiriman":7376,"Ġdimaksud":7377,"Ġtiap":7378,"ĠBerita":7379,"osearch":7380,"Ġtapno":7381,"ilor":7382,"imasi":7383,"Ġbengk":7384,"owok":7385,"Ġulang":7386,"Ġbali":7387,"ĠMam":7388,"ring":7389,"ĠAbu":7390,"Ġsul":7391,"ĠBeach":7392,"Ġnyoe":7393,"Ġlil":7394,"Ġ((:":7395,"anye":7396,"ilbab":7397,"Ġnyegah":7398,"ĠkamÃ©ra":7399,"Ġgur":7400,"irit":7401,"Ġgoreng":7402,"378":7403,"Sem":7404,"Ġmilarian":7405,"MB":7406,"2000":7407,"UC":7408,"VC":7409,"Ġsistim":7410,"ĠSund":7411,"ĠLab":7412,"Ġurusan":7413,"Ġasing":7414,"Ġkotak":7415,"Ġpor":7416,"agement":7417,"ikum":7418,"ukut":7419,"ĠdigawÃ©":7420,"ĠOs":7421,"bay":7422,"ĠNepi":7423,"amily":7424,"View":7425,"ĠLondon":7426,"ancara":7427,"ĠJalma":7428,"arancang":7429,"aliz":7430,"ĠSurya":7431,"Ġbantuan":7432,"ĠPS":7433,"ĠUntuk":7434,"900":7435,"rut":7436,"ĠPaket":7437,"ĠTÃ©k":7438,"tawa":7439,"lia":7440,"ubur":7441,"Ġpendidikan":7442,"MAN":7443,"ĠÏ":7444,"euteup":7445,"ected":7446,"vari":7447,"Ġjaj":7448,"Ġwayang":7449,"ologis":7450,"ites":7451,"Ã©ja":7452,"Ġdipilih":7453,"Extra":7454,"Ġuy":7455,"okus":7456,"endah":7457,"ĠDin":7458,"Ġhususna":7459,"ete":7460,"ĠPutri":7461,"ekaran":7462,"ric":7463,"alengka":7464,"anget":7465,"Ġmemang":7466,"Categories":7467,"ĠkÃ©to":7468,"Ġtor":7469,"Ġnulungan":7470,"Ġmemp":7471,"ĠHad":7472,"ĠSultan":7473,"ĠCloset":7474,"ĠTelepon":7475,"Wh":7476,"âĦ¢":7477,"Ġ1000":7478,"ogohan":7479,"Ġmaksimal":7480,"ĠPOLOS":7481,"ĠÃ©s":7482,"onia":7483,"Ġhom":7484,"AKAR":7485,"Ġball":7486,"agn":7487,"Ġanj":7488,"ĠHaji":7489,"Jeung":7490,"Ġjip":7491,"ĠJac":7492,"zi":7493,"esa":7494,"ĠMangga":7495,"fiesta":7496,"Ġrap":7497,"Ã©san":7498,"Ġkasohor":7499,"Ġupama":7500,"ĠCanada":7501,"Free":7502,"Ġpinkworld":7503,"Ġkimia":7504,"ĠhÃ©jo":7505,"ĠRay":7506,"ĠKalÃ©r":7507,"engganu":7508,"lic":7509,"Just":7510,"ĠPrevious":7511,"Ġkateg":7512,"Ġngajelaskeun":7513,"att":7514,"ITA":7515,"Ġkontrol":7516,"Ġfucking":7517,"ĠEst":7518,"Ġkatempo":7519,"2009":7520,"imalis":7521,"ĠUtama":7522,"ekna":7523,"Ġiman":7524,"Ġdick":7525,"Ġcry":7526,"Ġrencana":7527,"ĠNama":7528,"Ġsarupa":7529,"uksak":7530,"ĠRoad":7531,"Ġngajual":7532,"ĠCahaya":7533,"Ġgay":7534,"Ġwis":7535,"ĠHasil":7536,"Ġsemp":7537,"ouquet":7538,"Ġangger":7539,"ĠMetro":7540,"bet":7541,"ĠSle":7542,"ĠBeauty":7543,"ejaan":7544,"Ġnarik":7545,"kom":7546,"iasaan":7547,"ĠPH":7548,"eki":7549,"ĠBagian":7550,"Å£":7551,"entral":7552,"Ġngabantosan":7553,"ĠLoba":7554,"ĠImp":7555,"Ð¸Ð":7556,"ĠnÃ©ma":7557,"Ġjen":7558,"Ġnyababkeun":7559,"ĠKir":7560,"achi":7561,"oke":7562,"iya":7563,"ĠSpr":7564,"ĠWork":7565,"ĠLeg":7566,"Ġaki":7567,"ĠUnggal":7568,"ĠNik":7569,"eunangkeun":7570,"Ġblouse":7571,"yn":7572,"Ġkuda":7573,"pool":7574,"Ġinfo":7575,"Ġdisadiakeun":7576,"Ġpakasaban":7577,"ĠAND":7578,"AGC":7579,"Ġahirna":7580,"Ġsens":7581,"ĠtÃ©ks":7582,"Ġpangged":7583,"Î½":7584,"Ġsugan":7585,"Ġcil":7586,"Ġata":7587,"pork":7588,"ano":7589,"kripsi":7590,"Ġnam":7591,"Ġkasenian":7592,"ĠDinas":7593,"ĠKak":7594,"sak":7595,"erangan":7596,"ĠUR":7597,"ĠAlabama":7598,"ĠJuly":7599,"Ġjej":7600,"enal":7601,"dip":7602,"Ġharatis":7603,"Ġkre":7604,"atak":7605,"Ġobrolan":7606,"ĠPangeran":7607,"{{":7608,"ĠKelas":7609,"Ġcumfiesta":7610,"Ġbutts":7611,"Ġlemes":7612,"Bi":7613,"ĠAbah":7614,"Ġstrategi":7615,"Ġtatan":7616,"sun":7617,"elkeun":7618,"rata":7619,"Ġsitu":7620,"inyur":7621,"ĠpopulÃ©r":7622,"ĠMinyak":7623,"Ġcoins":7624,"MP":7625,"ĠKC":7626,"inder":7627,"Ġilahar":7628,"Ġsebagai":7629,"konomi":7630,"Ġkond":7631,"ĠSport":7632,"Ġpasukan":7633,"INE":7634,"ĠUni":7635,"))))":7636,"erta":7637,"Ġkiridit":7638,"Ã¡n":7639,"TI":7640,"apter":7641,"Ġkalimah":7642,"urs":7643,"Ġtokoh":7644,"Ġmix":7645,"ĠJat":7646,"Ġsurfers":7647,"ides":7648,"Jam":7649,"arapkeun":7650,"Ġbalan":7651,"utang":7652,"Ã©v":7653,"Ġsih":7654,"Ã©la":7655,"Prof":7656,"Ġlemah":7657,"pam":7658,"Ġsun":7659,"Ã©nta":7660,"pen":7661,"Ġkay":7662,"Ġ56":7663,"Ġkeramik":7664,"iharep":7665,"ĠDavid":7666,"utin":7667,"AMA":7668,"ults":7669,"aligus":7670,"fin":7671,"nud":7672,"ĠTR":7673,"spir":7674,"Ġlin":7675,"ĠBird":7676,"ĠJeh":7677,"Ġulasan":7678,"Ġhirupna":7679,"ĠDog":7680,"Latina":7681,"igasi":7682,"ĠMahar":7683,"ĠMinggu":7684,"osting":7685,"ĠmÃ©sÃ©r":7686,"ĠDEP":7687,"irik":7688,"landia":7689,"Ġbukan":7690,"ĠCS":7691,"gt":7692,"Ġlyrics":7693,"ĠChar":7694,"ending":7695,"inci":7696,"ĠTamil":7697,"Â¡":7698,"ĠLove":7699,"Ġpatarosan":7700,"abad":7701,"ĠSant":7702,"ootball":7703,"GAT":7704,"ĠSI":7705,"ollar":7706,"Ġnamb":7707,"ubaran":7708,"Ġ110":7709,"Ġdana":7710,"Ġbuat":7711,"apuk":7712,"Ġperan":7713,"Ġditarikna":7714,"Ġmilik":7715,"icy":7716,"Ġ;":7717,"Ġdibagi":7718,"ĠmaÃ©nkeun":7719,"ĠBitcoin":7720,"ĠKn":7721,"Ġsarat":7722,"ĠMesir":7723,"Ġmandi":7724,"Ġmendakan":7725,"urangan":7726,"ĠÂ©":7727,"ALL":7728,"Ġadu":7729,"AJU":7730,"sir":7731,"uhna":7732,"Ġmahasiswa":7733,"Ġ600":7734,"Ġkompon":7735,"Ġhanj":7736,"engkepan":7737,"arden":7738,"sat":7739,"ĠPage":7740,"ils":7741,"ĠJapan":7742,"pada":7743,"alaikat":7744,"older":7745,"Ġwaragad":7746,"ĠSedengkeun":7747,"Ġtuang":7748,"ipud":7749,"ibatkeun":7750,"ejarah":7751,"BB":7752,"oa":7753,"ĠFabric":7754,"quir":7755,"May":7756,"OV":7757,"Ġcond":7758,"jualan":7759,"Ġsud":7760,"ĠNY":7761,"TH":7762,"iles":7763,"Ġraga":7764,"ersa":7765,"Ġadi":7766,"isar":7767,"embleng":7768,"ĠPetaling":7769,"ercayaan":7770,"Ġtacan":7771,"Ġbert":7772,"Ġorok":7773,"Ġlebih":7774,"bound":7775,"cak":7776,"ĠGipsum":7777,"ĠUSB":7778,"rd":7779,"Ã©ro":7780,"ĠCai":7781,"ffic":7782,"ĠWebsite":7783,"Ġret":7784,"faat":7785,"ĠdÃ©ku":7786,"ĠAku":7787,"ĠCiamis":7788,"ĠKanggo":7789,"Ġatas":7790,"uhurna":7791,"abol":7792,"Ġdada":7793,"Ġspeed":7794,"hop":7795,"ĠProm":7796,"ĠAst":7797,"usu":7798,"ĠGod":7799,"Ġalami":7800,"Ġsapi":7801,"Ġkawentar":7802,",,,":7803,"Ġtinimbang":7804,"ots":7805,"ĠForex":7806,"sible":7807,"ĠYogyakarta":7808,"Ġunggul":7809,"Ġbabaen":7810,"GB":7811,"ele":7812,"ifi":7813,"ĺħ":7814,"Ġnama":7815,"aster":7816,"ukung":7817,"ĠFestival":7818,"Pal":7819,"ĠKedah":7820,"Ġwajib":7821,"Ġperi":7822,"jan":7823,"Ġperhatian":7824,"ahal":7825,"Ġmisalna":7826,"Ġ''":7827,"Ġmain":7828,"ĠPenc":7829,"ĠPref":7830,"Detail":7831,"Ing":7832,"pet":7833,"obian":7834,"Ġmasyarakat":7835,"Ġaudio":7836,"PM":7837,"ĠManaj":7838,"ĠCarita":7839,"ariwisata":7840,"adegkeun":7841,"PK":7842,"Ġmenta":7843,"Ġshopping":7844,"Ġtangga":7845,"ĠCa":7846,"Ġwedding":7847,"Ġcontoh":7848,"kun":7849,"ĠSoc":7850,"Ã¨k":7851,"Ġpulsa":7852,"ĠGood":7853,"uarga":7854,"Sap":7855,"ĠHi":7856,"ĠOgÃ©":7857,"Ġsuci":7858,"Baju":7859,"Eng":7860,"Ġ41":7861,"special":7862,"Ġtanggung":7863,"ĠengkÃ©":7864,"hamdul":7865,"sara":7866,"elum":7867,"ATAN":7868,"ĠProject":7869,"Press":7870,"Ġgagasan":7871,"entingan":7872,"ĠBanjar":7873,"Ġbeen":7874,"Ġglory":7875,"Ġnembongkeun":7876,"ĠSir":7877,"esional":7878,"ĠBlok":7879,"ĠArtikel":7880,"ĠBlock":7881,"Col":7882,"Ġpayun":7883,"ahas":7884,"ambat":7885,"Ġucing":7886,"agikeun":7887,"unggulan":7888,"den":7889,"ĠPid":7890,"ultas":7891,"ĠBhd":7892,"Ñĩ":7893,"ĠDam":7894,"ĠTerminal":7895,"ength":7896,"Ġstatus":7897,"ĠJur":7898,"ĠBudak":7899,"Har":7900,"ebah":7901,"Ġbukti":7902,"asah":7903,"uruk":7904,"ĠLi":7905,"udag":7906,"Ġpann":7907,"Ġwengi":7908,"ĠFood":7909,"Ã©rman":7910,"Ġbasisir":7911,"ambungkeun":7912,"chi":7913,"ĠtiangÃ©":7914,"Ġnyaritakeun":7915,"type":7916,"Ġsinyal":7917,"ĠSabung":7918,"buk":7919,"stal":7920,"indungan":7921,"ĠAplikasi":7922,"aterusna":7923,"Ġseperti":7924,"lac":7925,"Ġkamungkinan":7926,"ilingan":7927,"Ã©dah":7928,"ĠDupi":7929,"Ġtheir":7930,"ĠdibÃ©rÃ©":7931,"ĠDaerah":7932,"ĠBill":7933,"iday":7934,"ĠGet":7935,"ĠÃĩ":7936,"Kategori":7937,"Ġits":7938,"Ġlembaga":7939,"Ġod":7940,"Ġnepikeun":7941,"Ġlis":7942,"abet":7943,"Qu":7944,"ĠCA":7945,"ediksi":7946,"Ġbeli":7947,"ĠIde":7948,"ĠTokopedia":7949,"ealth":7950,"à¯į":7951,"dag":7952,"klusif":7953,"Ġye":7954,"intaro":7955,"Nov":7956,"mumbai":7957,"iver":7958,"Ġkaliwat":7959,"Ġmovies":7960,"taur":7961,"Ġpamadegan":7962,"Ġsajak":7963,"Ã£o":7964,"600":7965,"visual":7966,"Sanggeus":7967,"via":7968,"tin":7969,"Ġparka":7970,"Ġngadaptar":7971,"Jan":7972,"Ġngor":7973,"Comp":7974,"Ġgand":7975,"indi":7976,"ĠRÃ©publik":7977,"ĠCup":7978,"ardi":7979,"ĠPolos":7980,"new":7981,"imana":7982,"Ġdirancang":7983,"cos":7984,"orge":7985,"ady":7986,"Ġlu":7987,"ĠÃ©nggal":7988,"ĠSUK":7989,"isk":7990,"Ġgeu":7991,"ikir":7992,"Ġnganc":7993,"ĠSpin":7994,"ĠSdn":7995,"Ġhenti":7996,"Ġpagun":7997,"udy":7998,"Ġsalaki":7999,"ĠPlus":8000,"Ġurutan":8001,"var":8002,"unction":8003,"âĢĺ":8004,"Ġpulitik":8005,"Ġdibikeun":8006,"Ġtungtungna":8007,"erja":8008,"Ġpener":8009,"elek":8010,"anaos":8011,"ĠHatur":8012,"Ãīta":8013,"ĠKomun":8014,"250":8015,"ĠAmerika":8016,"ĠLo":8017,"Ġnand":8018,"uning":8019,"ĠVi":8020,"PNS":8021,"ĠCons":8022,"ĠVis":8023,"ym":8024,"idik":8025,"Ġngidinan":8026,"agal":8027,"Ngaran":8028,"ialis":8029,"ahlian":8030,"ington":8031,"ĠTom":8032,"ĠMature":8033,"Taya":8034,"XX":8035,"âĢ¦âĢĿ":8036,"ĠTerengganu":8037,"Ġbungk":8038,"ĠMetropolitan":8039,"Ã©is":8040,"ahlawan":8041,"ĠdiÃ©dit":8042,"La":8043,"ĠFactory":8044,"Ulah":8045,"Â²":8046,"ument":8047,"ofa":8048,"Ġlampah":8049,"BS":8050,"ĠGun":8051,"ĠForum":8052,"ĠJehova":8053,"Tanggal":8054,"ĠKursus":8055,"Ġsearch":8056,"toon":8057,"ĠLamp":8058,"ĠLife":8059,"ĠEA":8060,"ĠClass":8061,"Ġkadang":8062,"ĠDÃ©sa":8063,"Ġgaring":8064,"Ġningal":8065,"ĠMor":8066,"ĠGallery":8067,"Ġdoors":8068,"Ġmb":8069,"ĠMeng":8070,"oph":8071,"ĠKatun":8072,"Ã©hat":8073,"ights":8074,"Ġsuper":8075,"Ġgula":8076,"ĠOutdoor":8077,"Ãľ":8078,"Ġkarangan":8079,"Ġgam":8080,"Ġgolongan":8081,"EST":8082,"Ġantukna":8083,"uet":8084,"ether":8085,"Ġvirus":8086,"ĠKecamatan":8087,"ĠKristus":8088,"iano":8089,"ific":8090,"Ġawaknyan":8091,"empatan":8092,"Ġmeg":8093,"ĠSUNDA":8094,"fect":8095,"ĠÄ":8096,"Ġbeautiful":8097,"idah":8098,"ijaya":8099,"Ġtiti":8100,"Ġgraf":8101,"Ġraraga":8102,"venir":8103,"ĠBusiness":8104,"ĠSip":8105,"ĠOrang":8106,"Ġrojongan":8107,"Ġtest":8108,"enn":8109,"add":8110,"Ġpatut":8111,"Ġfacial":8112,"Pi":8113,"ĠYoung":8114,"Ġsapuluh":8115,"Ġtulang":8116,"erbal":8117,"Rel":8118,"ĠAuto":8119,"ĠTÃ©h":8120,"Ġyg":8121,"NS":8122,"ĠWay":8123,"Ġdidieu":8124,"rain":8125,"Ġ2001":8126,"Ùī":8127,"Ġamat":8128,"ĠSuci":8129,"Ġpangwangunan":8130,"Ġjati":8131,"Ġnasi":8132,"Ġagu":8133,"ĠKomo":8134,"Ġlatinos":8135,"off":8136,"Produk":8137,"ĠSmart":8138,"Ġserius":8139,"Kon":8140,"ĠKus":8141,"ait":8142,"Ġtangk":8143,"Ġbesar":8144,"ĠPanc":8145,"ibat":8146,"IND":8147,"ANGAN":8148,"Ġganj":8149,"Exclusive":8150,"Ġharta":8151,"ify":8152,"Ø§ÙĨ":8153,"Ġhd":8154,"ĠJenis":8155,"Ġiya":8156,"ê°":8157,"Ġbac":8158,"ĠBrown":8159,"Ã©han":8160,"Ġsampun":8161,"ĠDuit":8162,"Ġlittle":8163,"Ġnatural":8164,"Î¿":8165,"ĠJos":8166,"ĠComm":8167,"800":8168,"Ġtingali":8169,"Ġ85":8170,"PAS":8171,"urung":8172,"ongg":8173,"Ġsagalana":8174,"Ġlawan":8175,"ĠDat":8176,"okasi":8177,"Ġngahaja":8178,"Ġdah":8179,"urni":8180,"ĠKategori":8181,"Ġgaj":8182,"euleum":8183,"outube":8184,"ished":8185,"sc":8186,"ville":8187,"atah":8188,"unÈĽ":8189,"Ġhel":8190,"Ġcolor":8191,"Ġrate":8192,"Ġpanty":8193,"aporkeun":8194,"ĠØ¨":8195,"imantan":8196,"ĠKAR":8197,"Ġwho":8198,"Ġcollection":8199,"Cai":8200,"Ġtih":8201,"ĠFashion":8202,"ĠDewi":8203,"ĠSS":8204,"ĠLoss":8205,"Type":8206,"ĠBAND":8207,"ĠDate":8208,"aranan":8209,"ĠTrad":8210,"amÃ©mÃ©hna":8211,"Ġcredit":8212,"Jasa":8213,"Ġdown":8214,"Ġpangajaran":8215,"ĠEnglish":8216,"En":8217,"Ġmundur":8218,"ecutive":8219,"Ġbij":8220,"ĠMr":8221,"Ġsaat":8222,"ĠStills":8223,"Ġbahwa":8224,"atra":8225,"illus":8226,"Ġkaputusan":8227,"Ġbuleud":8228,"Ã¶n":8229,"2007":8230,"Ġsama":8231,"Peng":8232,"Ġsize":8233,"ĠKarÃ©ta":8234,"alikota":8235,"ĠKum":8236,"Ġname":8237,"olina":8238,"Ġmerenah":8239,"Ġubak":8240,"Geus":8241,"dong":8242,"Ġschool":8243,"Åŀ":8244,"ouvenir":8245,"Ġupacara":8246,"ENGAN":8247,"ĠKepala":8248,"Ġtamu":8249,"ĠKecap":8250,"Ġhunter":8251,"IVE":8252,"Ġlet":8253,"ĠMill":8254,"ĠDKI":8255,"Ġkarena":8256,"Â®":8257,"Ġland":8258,"imini":8259,"Ġdicokot":8260,"bonus":8261,"Ġserat":8262,"ĠYour":8263,"Ġkapas":8264,"Ġbungah":8265,"'t":8266,"ĠDaman":8267,"Ġfantasy":8268,"ĠSimp":8269,"ija":8270,"gar":8271,"Ġlist":8272,"ĠDiy":8273,"Ayeuna":8274,"inkeun":8275,"Ġ88":8276,"ĠXL":8277,"ĠUlÃ´n":8278,"ĠSin":8279,"awarkeun":8280,"Ġkopi":8281,"ander":8282,"Ġlalu":8283,"Ġawi":8284,"Ġnagri":8285,"Ġnumber":8286,"Ġlatest":8287,"Ġturunan":8288,"ĠTambih":8289,"ĠFort":8290,"Ġkapan":8291,"fik":8292,"Ġnad":8293,"Ġhiburan":8294,"ĠDaptar":8295,"Ġsakaligus":8296,"Ġbabi":8297,"Ġcoklat":8298,"Ġproduct":8299,"Ġkaperluan":8300,"Ġidiay":8301,"hers":8302,"Ġsolat":8303,"KS":8304,"Ġtuk":8305,"olat":8306,"itania":8307,"ĠmawulÃ©":8308,"ĠQuality":8309,"ĠKm":8310,"VD":8311,"ĠShirt":8312,"Kota":8313,"Ġpangsa":8314,"ĠFebruari":8315,"uduk":8316,"Additional":8317,"Euro":8318,"ĠHart":8319,"ĠPosts":8320,"Ġmaip":8321,"ĠCre":8322,"umpul":8323,"Ġpayday":8324,"ĠLas":8325,"udung":8326,"ĠFlorida":8327,"ĠbÃ©ntang":8328,"not":8329,"Ġmasi":8330,"grosir":8331,"kab":8332,"Ġngumpulkeun":8333,"Ġpakakas":8334,"othing":8335,"ĠLeuwih":8336,"iaan":8337,"Ġamin":8338,"EURO":8339,"Im":8340,"Jadi":8341,"Ġref":8342,"Ġratu":8343,"Ã©rÃ©k":8344,"Ġeksp":8345,"ĠNude":8346,"ĠFir":8347,"ipp":8348,"Ġmiw":8349,"ĠKUR":8350,"ĠCry":8351,"Dec":8352,"UA":8353,"Ġcode":8354,"Ġminuhan":8355,"blog":8356,"unggu":8357,"ungguhan":8358,"eget":8359,"enggara":8360,"ĠØ¹":8361,"Ġbangun":8362,"basa":8363,"Ġdiatur":8364,"ĠAnkara":8365,"ategor":8366,"Wil":8367,"},":8368,"Ġbaku":8369,"Ġangkutan":8370,"nic":8371,"ĠLoc":8372,"Ġnyak":8373,"Ã©sus":8374,"Ġngalangkungan":8375,"ĠEURO":8376,"Ġnia":8377,"ungkulan":8378,"Ġwarung":8379,"101":8380,"Ġgalleries":8381,"Ġduk":8382,"ouch":8383,"Ġunlimited":8384,"Ġpaket":8385,"Ġnin":8386,"Ġjani":8387,"eces":8388,"Upami":8389,"ageur":8390,"ĠNot":8391,"ĠHat":8392,"Ġjawa":8393,"box":8394,"urity":8395,"Ġ\"$":8396,"Ġsunt":8397,"Ġside":8398,"Ġcol":8399,"aktur":8400,"Ġdial":8401,"ĠUd":8402,"Ġsupl":8403,"ĠAlbum":8404,"mud":8405,"ĠPeny":8406,"ĠÃ©lÃ©ktron":8407,"GAC":8408,"Ġmimitina":8409,"zan":8410,"Ġsalwar":8411,"Ġcantik":8412,"Ġpamasaran":8413,"ĠStore":8414,"INT":8415,"orts":8416,"Ġkabupat":8417,"etting":8418,"ĠJackpot":8419,"ĠMari":8420,"empeng":8421,"ĠDesi":8422,"ĠDeep":8423,"Ġnyambung":8424,"Ġsupados":8425,"eti":8426,"Ġsalira":8427,"lum":8428,"Ġbeurang":8429,"Ġajak":8430,"ĠDoors":8431,"iksimini":8432,"ĠØ£":8433,"ht":8434,"Ġmimitian":8435,"epend":8436,"ego":8437,"Ġpola":8438,"abase":8439,"Ġperenahna":8440,"ĠMos":8441,"lahraga":8442,"ĠGrand":8443,"Ġdiantara":8444,"Ġceurik":8445,"iku":8446,"ayungan":8447,"ĠBeng":8448,"Ġsakapeung":8449,"Ġtelah":8450,"Ġbatik":8451,"ĠFilm":8452,"mhcb":8453,"mhcbmh":8454,"Ġanakna":8455,"NG":8456,"Ġih":8457,"arya":8458,"ubernur":8459,"Ġdibandingkeun":8460,"ente":8461,"Ã©ntah":8462,"ĠFin":8463,"Ġdihasilkeun":8464,"ĠJudi":8465,"ĠSistem":8466,"Ġasp":8467,"ancy":8468,"Ġsuka":8469,"untr":8470,"ĠVir":8471,"Contoh":8472,"kul":8473,"ĠKW":8474,"tÃ©in":8475,"ituduh":8476,"Ġbon":8477,"ĠKerja":8478,"ĠKhusus":8479,"Ġmasjid":8480,"Ġmakan":8481,"ĠAlex":8482,"ĠTuluy":8483,"Sarah":8484,"Ġcangk":8485,"ĠcÃ©k":8486,"Ġbeuteung":8487,"Cat":8488,"Ġneng":8489,"Ġmor":8490,"uwan":8491,"Ġlook":8492,"Ġmindahkeun":8493,"ĠMenteri":8494,"ĠPack":8495,"Ġje":8496,"Ġnyer":8497,"ĠFit":8498,"ĠInternasional":8499,"ould":8500,"ĠSWT":8501,"=\"":8502,"alaxy":8503,"Show":8504,"Web":8505,"ĠJag":8506,"Jawa":8507,"Nama":8508,"ĠÃ©p":8509,"Ġkalapa":8510,"ĠHandjob":8511,"Ġnganjang":8512,"oning":8513,"ĠKilang":8514,"ĠIII":8515,"arth":8516,"asing":8517,"FI":8518,"Ġnud":8519,"KEUN":8520,"ĠFebruary":8521,"Ġwater":8522,"Ġjarak":8523,"inget":8524,"ĠanunÈĽ":8525,"ulation":8526,"Îº":8527,"Ġmoy":8528,"Ġclass":8529,"ĠMakan":8530,"ĠNus":8531,"ĠJo":8532,"razil":8533,"ewek":8534,"Ġ125":8535,"ixI":8536,"Ġliar":8537,"MetaCons":8538,"ield":8539,"CO":8540,"ĠPrinted":8541,"aging":8542,"ĠPanas":8543,"Ġkontribusi":8544,"AKARTA":8545,"ĠTukang":8546,"Ġmanah":8547,"ĠPondok":8548,"edar":8549,"amad":8550,"ĠCasinos":8551,"ĠGobnyan":8552,"ĠNgab":8553,"jp":8554,"Ġcase":8555,"shirt":8556,"jet":8557,"ĠStand":8558,"Ġaktif":8559,"det":8560,"Ã¥":8561,"ĠSelect":8562,"Ġdikal":8563,"Ġnampa":8564,"Ġkabiasaan":8565,"Ġfacebook":8566,"entos":8567,"Ġtongg":8568,"aribasa":8569,"km":8570,"sip":8571,"Ġnen":8572,"ugikeun":8573,"ution":8574,"riving":8575,"elit":8576,"Ġkabutuhan":8577,"Ġpintonan":8578,"bs":8579,"ĠCL":8580,"Ġnaek":8581,"Ġ800":8582,"ĠSalian":8583,"Ġinvestasi":8584,"ĠPrefixI":8585,"ĠJati":8586,"Ġbakar":8587,"Ġreply":8588,"ford":8589,"spot":8590,"ĠÙģ":8591,"äº":8592,"usty":8593,"ngah":8594,"Ġsong":8595,"Sur":8596,"ahah":8597,"Ġnyingk":8598,"indo":8599,"Ġwell":8600,"incess":8601,"engkah":8602,"ĠProp":8603,"Ġpesawat":8604,"Ġafter":8605,"dut":8606,"Ġteuas":8607,"Ġparam":8608,"ĠPinang":8609,"ĠArm":8610,"ĠShopping":8611,"ĠHow":8612,"Ġunit":8613,"Ġtohan":8614,"ĠTik":8615,"ĠKarang":8616,"Sing":8617,"euet":8618,"Ġkilang":8619,"Ġpri":8620,"ĠBER":8621,"ĠOrgan":8622,"Ġsingle":8623,"ĠmanajemÃ©n":8624,"Ġdewasa":8625,"HT":8626,"law":8627,"angguan":8628,"Ġlangg":8629,"Ġsabalikna":8630,"ĠBung":8631,"assar":8632,"anyakeun":8633,"ĠKU":8634,"BC":8635,"ĠMimiti":8636,"Å«":8637,"ĠsuksÃ©s":8638,"Pad":8639,"ĠSER":8640,"ĠBir":8641,"ĠTab":8642,"ĠNajan":8643,"ĠWah":8644,"2008":8645,"ĠMoh":8646,"ampah":8647,"Ġaway":8648,"Nothing":8649,"ycl":8650,"ĠPhotograp":8651,"ĠBingo":8652,"Ġnginum":8653,"Ġmangaruhan":8654,"ĠKalayan":8655,"Ġbook":8656,"Ġmenjadi":8657,"rosoft":8658,"áĢ":8659,"Ġlalajo":8660,"ĠServices":8661,"AE":8662,"ress":8663,"ĠMuk":8664,"odeu":8665,"ĠViews":8666,"Ġtarik":8667,"ilakaan":8668,"atera":8669,"ĠSingapore":8670,"ĠDon":8671,"style":8672,"sab":8673,"ĠBack":8674,"osen":8675,"Ġperm":8676,"ĠMuter":8677,"adies":8678,"Ġbeunghar":8679,"jar":8680,"Ġsif":8681,"Ġleupas":8682,"Ġselatan":8683,"Ġtambah":8684,"olobaan":8685,"ĠJÃ©rman":8686,"ĠJel":8687,"Ġ]":8688,"Ġok":8689,"Ġkapentingan":8690,"Ġnabi":8691,"sial":8692,"HA":8693,"1000":8694,"Ġkompet":8695,"Ġkorsi":8696,"çļ":8697,"Ã©lan":8698,"Ã©mba":8699,"ftar":8700,"iture":8701,"ĠCut":8702,"ianak":8703,"Prop":8704,"link":8705,"ĠAnti":8706,"euleu":8707,"ormon":8708,"Ģì":8709,"ĠmÃ©ng":8710,"ĠSeb":8711,"ĠRS":8712,"ĠGel":8713,"ĠProt":8714,"Ġwear":8715,"ĠBeli":8716,"Ġsund":8717,"Ġbro":8718,"Ġdiangkat":8719,"Ġjand":8720,"lakuan":8721,"epung":8722,"egara":8723,"ĠTerbaik":8724,"ĠPantai":8725,"Ġartis":8726,"April":8727,"ĠCer":8728,"ĠLink":8729,"And":8730,"jad":8731,"jung":8732,"ĠMartin":8733,"ĠYÃ©sus":8734,"AGT":8735,"ĠSekolah":8736,"wana":8737,"late":8738,"ĠOne":8739,"tions":8740,"Ġweh":8741,"Ġkaahlian":8742,"aru":8743,"Ġfind":8744,"ĠProduksi":8745,"ĠdÃ©n":8746,"Abdi":8747,"Oct":8748,"ĠCR":8749,"ĠUnited":8750,"eungitkeun":8751,"euwas":8752,"Ġpras":8753,"+'":8754,"KL":8755,"Tempo":8756,"ĠWir":8757,"ĠSarikat":8758,"ĠGolden":8759,"Gambar":8760,"sch":8761,"Ġline":8762,"evisi":8763,"****":8764,"ĠYunani":8765,"Aw":8766,"Ġkelompok":8767,"Stasion":8768,"fied":8769,"Sun":8770,"Ġpriv":8771,"Ġngiring":8772,"ĠWomen":8773,"ĠÃ©nergi":8774,"Ġmaraneh":8775,"Ġwithout":8776,"kn":8777,"Ġkari":8778,"ehi":8779,"ugia":8780,"Ġsakur":8781,"uai":8782,"Ġsalami":8783,"Daftar":8784,"Ġbanyak":8785,"Ġmanggih":8786,"oos":8787,"Ġpeg":8788,"ĠPadahal":8789,"ĠdaÃ©k":8790,"split":8791,"Ġlanceuk":8792,"Ġkategori":8793,"ĠBangk":8794,"Ġfat":8795,"Pot":8796,"ĠJum":8797,"Ġwong":8798,"ĠIda":8799,"akina":8800,"ayun":8801,"ĠYa":8802,"Ġjawaban":8803,"gen":8804,"ster":8805,"ovasi":8806,"AMAHA":8807,"words":8808,"areng":8809,"ĠJava":8810,"ĠSuits":8811,"bas":8812,"Ġlaku":8813,"udara":8814,"Ġnepika":8815,"ĠsapopoÃ©":8816,"alangan":8817,"Ġsaluran":8818,"onto":8819,"Ġmusuh":8820,"emblengna":8821,"Ġ....":8822,"odes":8823,"ucks":8824,"ĠFru":8825,"Ġpangarang":8826,"Ġproses":8827,"umba":8828,"ĠSteel":8829,"ĠPamarÃ©ntah":8830,"eluaran":8831,"Cartus":8832,"jah":8833,"Ġdetik":8834,"Ġmonth":8835,"Ġriw":8836,"Contact":8837,"Ġduka":8838,"Ġsig":8839,"ĠKeny":8840,"ĠAkang":8841,"ĠAmazon":8842,"acamata":8843,"sap":8844,"Ġpeur":8845,"Ġ58":8846,"ancing":8847,"Ġpangluhurna":8848,"Rem":8849,"ced":8850,"info":8851,"ĠCPNS":8852,"ĠJose":8853,"EA":8854,"Ġspes":8855,"Ġface":8856,"Ġinteg":8857,"ĠanunÈĽul":8858,"Ä«":8859,"ĠGotna":8860,"ĠmodÃ©r":8861,"ĠÙĦ":8862,"Ġkasa":8863,"Ġtind":8864,"Ġ54":8865,"Salaku":8866,"OKO":8867,"Ġmajalah":8868,"ĠMana":8869,"Ġwak":8870,"loy":8871,"Ass":8872,"Ġkuliah":8873,"laim":8874,"atesan":8875,"lis":8876,"ĠTap":8877,"ukota":8878,"emu":8879,"Ġcaang":8880,"021":8881,"Ġpangk":8882,"Ġtanaga":8883,"Ġgenerasi":8884,"Hatur":8885,"obatan":8886,"Kah":8887,"veksi":8888,"Ġ95":8889,"Ġharepan":8890,"ĠKop":8891,"ĠApp":8892,"Ġkepada":8893,"ijikeun":8894,"ahanan":8895,"ĠArg":8896,"çļĦ":8897,"ĠArea":8898,"uping":8899,"ekah":8900,"imbit":8901,"ĠSEL":8902,"Ġruntuyan":8903,"Ġnelepon":8904,"itional":8905,"Ġngahar":8906,"OMP":8907,"Ġlebet":8908,"ĠJames":8909,"ĠSAL":8910,"ĠTEL":8911,"Shirt":8912,"ĠCit":8913,"ĠSiliwangi":8914,"urrency":8915,"ĠIR":8916,"ĠRent":8917,"cript":8918,"iner":8919,"Ġtali":8920,"Ġft":8921,"ĠBerk":8922,"euntas":8923,"zo":8924,"Ġdibere":8925,"EY":8926,"sd":8927,"Ġujian":8928,"akkeun":8929,"Ġrer":8930,"ÃĥÆĴÃĨ":8931,"rim":8932,"ĠRasul":8933,"ĠBari":8934,"ucing":8935,"Ġlulus":8936,"Ġlas":8937,"ĠHan":8938,"Ġdetektor":8939,"Ġkaruhun":8940,"Ġtarot":8941,"ĠCg":8942,"ĠCocog":8943,"ĠWarna":8944,"Ġsuppliers":8945,"eujeung":8946,"Ġjangji":8947,"ĠMAL":8948,"Ġteb":8949,"ĠKode":8950,"Ġ64":8951,"ĠStock":8952,"ĠRead":8953,"Ġ59":8954,"Ġbouquet":8955,"ĠMaster":8956,"ĠBon":8957,"Ġpangaj":8958,"Ġbek":8959,"Ġsug":8960,"ĠsÃ©s":8961,"ulloh":8962,"Ġnyatakeun":8963,"Ġfasilitas":8964,"list":8965,"anjar":8966,"ĠÃ©ndah":8967,"ipal":8968,"Ð°ÑĢ":8969,"inyara":8970,"Ġpoker":8971,"Ġfollow":8972,"ĠGlobal":8973,"\")[":8974,"Ġdistro":8975,"hamdulillah":8976,"Ġspin":8977,"ahir":8978,"ĠSosial":8979,"Ġpercobaan":8980,"Ġbaja":8981,"EO":8982,"ruk":8983,"Ġonly":8984,"Ġkolotna":8985,"Ġhamb":8986,"ulau":8987,"âĸ":8988,"istory":8989,"ĠRobert":8990,"âĢ³":8991,"Ġincl":8992,"Ġlapisan":8993,"Ġekslusif":8994,"ĠUnit":8995,"Ġgagal":8996,"-\")[":8997,"ĠSaha":8998,"ikulum":8999,"euheung":9000,"Ġpostdate":9001,"(\"-\")[":9002,"Ġganda":9003,"onton":9004,"Ġdesigner":9005,"ĠMain":9006,"ĠâĢĭ":9007,"Ã©rÃ©s":9008,"ðĿ":9009,"urut":9010,"Ġngul":9011,"emahan":9012,"Ġfokus":9013,"Ġkomunitas":9014,"ogan":9015,"Ġnyalira":9016,"ĠHayu":9017,"ehenga":9018,"Ġbuin":9019,"room":9020,"Ġraya":9021,"hael":9022,"nas":9023,"Ġear":9024,"Ġjantung":9025,"ĠMeureun":9026,"aktipkeun":9027,"erry":9028,"Ġaliran":9029,"UAN":9030,"ikal":9031,"umasar":9032,"ACA":9033,"ariwang":9034,"gin":9035,"romo":9036,"CL":9037,"tah":9038,"ebetkeun":9039,"CCC":9040,"ury":9041,"Ġmiu":9042,"ĠsanÃ©sna":9043,"Ġtump":9044,"nang":9045,"Ġstock":9046,"ĠRosul":9047,"Ġngumumkeun":9048,"ĠTipe":9049,"Ġcit":9050,"ĠDasar":9051,"idas":9052,"ĠJon":9053,"omet":9054,"Ġheur":9055,"Ġaslina":9056,"INAL":9057,"ĠAwards":9058,"Ġtibatan":9059,"Ġgimbal":9060,"ubong":9061,"('":9062,"ĠDh":9063,"mak":9064,"erial":9065,"ĠEmail":9066,"Ġ57":9067,"Ġneruskeun":9068,"ĠFilipina":9069,"kang":9070,"ĠGamb":9071,"SMP":9072,"Saree":9073,"nw":9074,"ĠResort":9075,".âĢĻ":9076,"Ġmargi":9077,"ĠJanten":9078,"Ġpembekal":9079,"aaaaaaaaaaaaaaaaaaaaaaaaaaaaaaaa":9080,"ĠRi":9081,"Ġhidep":9082,"Ġstabil":9083,"ĠNgag":9084,"Ġkamu":9085,"Ã©ntrÃ©":9086,"ĠTumuwuh":9087,"zmir":9088,"Ġkosong":9089,"ĠBeureum":9090,"Ġcle":9091,"ĠKorÃ©a":9092,"BP":9093,"nc":9094,"atawa":9095,"Ġfak":9096,"Ġberes":9097,"Ġtir":9098,"ĠHip":9099,"ĠDenpasar":9100,"Ġpalsu":9101,"ĠSus":9102,"ĠSav":9103,"ĠkonÃ©ng":9104,"Ġwhat":9105,"Ġreviews":9106,"ĠTAN":9107,"Ġakhir":9108,"Ġnyebarkeun":9109,"ĠUlang":9110,"Ġserangan":9111,"ĠSajaba":9112,"acher":9113,"umaah":9114,"eureunkeun":9115,"Ġmonths":9116,"Ġdiantarana":9117,"ĠCAS":9118,"ĠCentre":9119,"Ð°ÑĤ":9120,"Ġdalapan":9121,"Ġmai":9122,"ĠSeri":9123,"Ġwah":9124,"Ġdunia":9125,"lace":9126,"Ġdiam":9127,"temple":9128,"elakan":9129,"Ġpolitik":9130,"Ġpengel":9131,"Ã¼r":9132,"ĠBuleuen":9133,"ehehe":9134,"ĠTujuan":9135,"ĠDom":9136,"Ġmetot":9137,"Forward":9138,"uruf":9139,"ĠKot":9140,"ais":9141,"umbar":9142,"Ġmaen":9143,"annel":9144,"Ġlak":9145,"upon":9146,"ĠRet":9147,"Ġatah":9148,"Ġtitiang":9149,"ĠKali":9150,"ĠNam":9151,"Ġgadis":9152,"ĠDaÃ©rah":9153,"ĠPortug":9154,"ĠBR":9155,"Ġcotton":9156,"ĠHam":9157,"anteu":9158,"Ġjangka":9159,"Ġana":9160,"Ġnyekel":9161,"Ġkapang":9162,"ĠKahirupan":9163,"eui":9164,"isma":9165,"eles":9166,"ĠIndustr":9167,"Ġdaftar":9168,"Ġsumanget":9169,"iD":9170,"Ġformat":9171,"Ġhog":9172,"Ġ||":9173,"Ġanjeuna":9174,"Ġngurus":9175,"ae":9176,"vd":9177,"embah":9178,"miah":9179,"rahim":9180,"aliforn":9181,"Ġkamajuan":9182,"Ġtam":9183,"Ġimahna":9184,"ĠspÃ©siÃ©s":9185,"ĠPadang":9186,"andia":9187,"loud":9188,"à¹":9189,"utu":9190,"Ġsae":9191,"ungguan":9192,"\":{\"":9193,"ĠQur":9194,"âĢº":9195,"Ġrub":9196,"ĠLand":9197,"ĠRadio":9198,"Ġfoto":9199,"Ġsoal":9200,"ĠSunan":9201,"ĠTir":9202,"ĠLoka":9203,"Ġdongeng":9204,"ĠÃ©t":9205,"onday":9206,"Ġamal":9207,"Ġ{{":9208,"ĠJar":9209,"kir":9210,"Ġkumpulan":9211,"Ġgeg":9212,"Teen":9213,"ares":9214,"Ġguna":9215,"Ġrup":9216,"Ġ52":9217,"Ġsand":9218,"Ġgold":9219,"awara":9220,"ĠDaftar":9221,"001":9222,"urniture":9223,"Ġtand":9224,"abalu":9225,"Ġwin":9226,"ĠFly":9227,"euhan":9228,"Ġacc":9229,"Ġhip":9230,"other":9231,"ĠLang":9232,"Ġkapercayaan":9233,"COM":9234,"Ġfashion":9235,"firm":9236,"ĠbÃ©n":9237,"ĠLucky":9238,"awai":9239,"ĠNyai":9240,"kes":9241,"ALA":9242,"ĠKamp":9243,"ĠKumpulan":9244,"Ġpamungkas":9245,"120":9246,"idan":9247,"ĠHel":9248,"oper":9249,"Ġkej":9250,"Ġcre":9251,"usiah":9252,"ĠPriv":9253,"orasi":9254,"Met":9255,"Ġprinsip":9256,"Bu":9257,"nxx":9258,"Â©":9259,"ujang":9260,"Ġongkos":9261,"Photos":9262,"Sanajan":9263,"Ġfound":9264,"Ġinstan":9265,"Mam":9266,"Ġjadwal":9267,"Buy":9268,"ĠJes":9269,"Ġkabag":9270,"Ġserver":9271,"Ġnini":9272,"},{\"":9273,"Ġngand":9274,"ĠDari":9275,"Ġpadahal":9276,"ĠMAN":9277,"ances":9278,"ĠEpis":9279,"Ġkawijakan":9280,"download":9281,"Original":9282,"ĠFre":9283,"Ġdesa":9284,"oho":9285,"mg":9286,"ten":9287,"Ã©al":9288,"ĠDic":9289,"ĠHung":9290,"awasan":9291,"Ġpantes":9292,"Ġsome":9293,"ampur":9294,"Ġtau":9295,"Ġlike":9296,"Ġpre":9297,"entes":9298,"arif":9299,"ches":9300,"ĠNor":9301,"Ġsarung":9302,"Ġkudi":9303,"Ġkitab":9304,"ige":9305,"Ngar":9306,"Pak":9307,"ĠWordPress":9308,"kot":9309,"yon":9310,"ĠHari":9311,"urrent":9312,"Ġhuntu":9313,"jeng":9314,"Ġsiya":9315,"aharna":9316,"ĠMake":9317,"Ġdipingpin":9318,"Ã©ngan":9319,"Ġapril":9320,"Ġrape":9321,"Ġracer":9322,"ĠHy":9323,"agung":9324,"ĠTagged":9325,"ility":9326,"ĠBrand":9327,"Ġsq":9328,"ĠDaya":9329,"Ġdirobah":9330,"Mat":9331,"ĠCantik":9332,"Î¹Îº":9333,"Sajarah":9334,"wat":9335,"ĠSAW":9336,"ayung":9337,"ento":9338,"Ġhuk":9339,"Ġcita":9340,"ĠDipingpin":9341,"cut":9342,"ĠCock":9343,"Ġpendek":9344,"posal":9345,"ĠkomponÃ©n":9346,"Set":9347,"bel":9348,"Ġconc":9349,"Ġngundeur":9350,"Ġsina":9351,"Ġpis":9352,"Ġmert":9353,"roÃ«":9354,"Ġray":9355,"Stok":9356,"Jakarta":9357,"kop":9358,"uangan":9359,"ĠMu":9360,"Ġbagi":9361,"tÃ©ng":9362,"Ġsabada":9363,"Ġhurup":9364,"Ġthey":9365,"UTC":9366,"Ġmulih":9367,"Ġmembuat":9368,"Ġdiadegkeun":9369,"ĠKey":9370,"ĠLum":9371,"Ġwilujeng":9372,"onald":9373,"sih":9374,"ĠYellow":9375,"arkali":9376,"Ġganjaran":9377,"ĠSemarang":9378,"eather":9379,"Ġded":9380,"ĠMemb":9381,"Ġpositif":9382,"Nalika":9383,"ging":9384,"akti":9385,"Ġpangiriman":9386,"Ġburuan":9387,"ĠHalf":9388,"110":9389,"abungkeun":9390,"ĠPress":9391,"Ġtata":9392,"ĠMata":9393,"elis":9394,"ĠWA":9395,"ewara":9396,"Ġbaik":9397,"Ġaranjeun":9398,"ĠKamar":9399,"ĠBatik":9400,"askeun":9401,"ety":9402,"Ġplastik":9403,"UMB":9404,"Ġnext":9405,"alaikum":9406,"ĠPasundan":9407,"LI":9408,"ukaan":9409,"acy":9410,"Ġkagungan":9411,"GP":9412,"Ġpangp":9413,"VS":9414,"fl":9415,"Ġà¤":9416,"osp":9417,"ektur":9418,"untut":9419,"ĠÐ²":9420,"ĠkÃ©nca":9421,"bz":9422,"ĠRobot":9423,"erhana":9424,"ĠHentai":9425,"Ġimage":9426,"Ġsahenteuna":9427,"ĠChat":9428,"ĠTLP":9429,"eungeun":9430,"Ġwr":9431,"ĠDR":9432,"Ġsabar":9433,"Ġngabejaan":9434,"ĠBot":9435,"Ġkoin":9436,"ponse":9437,"rin":9438,"Ġnaan":9439,"ĠRoyal":9440,"cat":9441,"ikator":9442,"Ġgul":9443,"ĠOlahraga":9444,"aterial":9445,"ĠIdeas":9446,"Ġbeus":9447,"ĠDPR":9448,"Ġpuisi":9449,"itana":9450,"ĠCak":9451,"Ġbersih":9452,"ĠShah":9453,"Ġmodal":9454,"Ġkinerja":9455,"ĠDealer":9456,"Ġsiki":9457,"Ġngom":9458,"ĠMajalengka":9459,"nia":9460,"Ġswasta":9461,"Ġsquirting":9462,"ĠDamansara":9463,"caiib":9464,"rÃ©s":9465,"ĠStation":9466,"Ġboat":9467,"Ġlantas":9468,"Ġì":9469,"ĠTatar":9470,"df":9471,"Ġmati":9472,"uktikeun":9473,"ĠWallpaper":9474,"zine":9475,"ĠNEG":9476,"endi":9477,"Ġpopular":9478,"Ġnanging":9479,"eunana":9480,"Ġfaktor":9481,"Ġanda":9482,"ĠBengk":9483,"ĠComb":9484,"Ġdisc":9485,"Ġzat":9486,"Ġburung":9487,"Åĭ":9488,"ĠAPK":9489,"variant":9490,"itamin":9491,"udin":9492,"Ġmany":9493,"Ã©gal":9494,"sung":9495,"ĠTeh":9496,"ĠFiksimini":9497,"Ġpesan":9498,"ĠpotÃ©nsi":9499,"Kalung":9500,"Ġgerakan":9501,"aransi":9502,"Ġdisney":9503,"ĠAssoci":9504,"aras":9505,"ĠsarÃ©":9506,"ampuh":9507,"Ġperlakuan":9508,"Ã¨ng":9509,"ĠulÃ´n":9510,"ĠBupati":9511,"32140":9512,"Ġ0812378":9513,"Ġ081237832140":9514,"ĠSAB":9515,"Ġpanumpang":9516,"Ġtempo":9517,"ĠHukum":9518,"Ġkasakit":9519,"ĠElectron":9520,"ando":9521,"Ġpanangan":9522,"illing":9523,"ĠSuppliers":9524,"ĠTanpa":9525,"Ġmust":9526,"acak":9527,"ipa":9528,"Ġmanipud":9529,"ĠManager":9530,"ĠBritania":9531,"Ġbingung":9532,"Beauty":9533,"jaiib":9534,"Ã©ma":9535,"tied":9536,"ondang":9537,"ĠAwak":9538,"pak":9539,"Ġnab":9540,"ĠKay":9541,"Ġbabagi":9542,"Ġmahal":9543,"ucung":9544,"jug":9545,"Ġpituduh":9546,"itoy":9547,"Ġgering":9548,"ĠHij":9549,"Ġinstr":9550,"antenkeun":9551,"ples":9552,"ĠSolar":9553,"Ġneu":9554,"Ġuninga":9555,"ĠLatinas":9556,"ĠControl":9557,"ination":9558,"Ġbis":9559,"ĠSatin":9560,"ĠRaden":9561,"Ik":9562,"ogo":9563,"Ġtoe":9564,"urg":9565,"Ġjemp":9566,"Ġsaris":9567,"Ã©nder":9568,"Ġngiringan":9569,"Ġnyangka":9570,"This":9571,"Ġbb":9572,"ĠType":9573,"Go":9574,"eunan":9575,"ĠBeat":9576,"Ġngarup":9577,"Ġpulisi":9578,"Ġ101":9579,"ĠGot":9580,"inggih":9581,"eaming":9582,"ĠpanggedÃ©na":9583,"agen":9584,"Ġ53":9585,"ĠAman":9586,"Adolescent":9587,"Video":9588,"Ġhese":9589,"ĠIran":9590,"ĠAturan":9591,"mus":9592,"Ġoks":9593,"asok":9594,"Ġucapan":9595,"Ġaltern":9596,"bitkeun":9597,"Ġsibawa":9598,"uridar":9599,"ĠWhite":9600,"Part":9601,"Sim":9602,"ĠGan":9603,"Ġbaraya":9604,"Min":9605,"PER":9606,"Ġkalungguhan":9607,"Ġpanj":9608,"hareup":9609,"ĠDalam":9610,"ĠVer":9611,"data":9612,"Ġtumb":9613,"GS":9614,"Ġml":9615,"Ġrent":9616,"overn":9617,"iwir":9618,"Ġcustom":9619,"æĹ":9620,"ĠTas":9621,"ĠKinabalu":9622,"mang":9623,"ĠSilver":9624,"anak":9625,"ĠAtawa":9626,"Ġkursus":9627,"aramid":9628,"ĠEth":9629,"ĠProdus":9630,"yawan":9631,"ĠNanging":9632,"Ġfit":9633,"Trans":9634,"acana":9635,"Ġthan":9636,"EUNG":9637,"Ġtakt":9638,"Ġnahan":9639,"opyr":9640,"Ġngalih":9641,"SMA":9642,"TD":9643,"uaran":9644,"even":9645,"sm":9646,"Ġnganggap":9647,"oker":9648,"Ġotot":9649,"ĠKanada":9650,"Î¿Ï":9651,"Ġdapur":9652,"oha":9653,"ohn":9654,"Ġsumebar":9655,"ĠSexy":9656,"Ġles":9657,"ĠEmp":9658,"Ġkabuka":9659,"ungkur":9660,"Ġimport":9661,"Ġjualan":9662,"Ġtradisi":9663,"wang":9664,"Ġnangk":9665,"ACK":9666,"ĠâĢĭâĢĭ":9667,"ĠWikipedia":9668,"Ġartist":9669,"rus":9670,"Ġsac":9671,"ĠLuhur":9672,"hiasan":9673,"ĠKacang":9674,"ĠCincin":9675,"Ġfem":9676,"Ġstand":9677,"ĠDistrict":9678,"uts":9679,"ĠHak":9680,"AGA":9681,"Ġbrab":9682,"PI":9683,"kota":9684,"Ġnyoba":9685,"Ġting":9686,"ĠRama":9687,"à¤¾":9688,"uwa":9689,"esis":9690,"ĠKhan":9691,"Ġyeuh":9692,"Ġdipas":9693,"iminal":9694,"Ġhogtied":9695,"dik":9696,"Ġtingal":9697,"ĠinternÃ©t":9698,"Ġton":9699,"Ġruang":9700,"ĠEnya":9701,"ungtung":9702,"ualan":9703,"ĠKAD":9704,"intah":9705,"OSIT":9706,"eling":9707,"ĠJabar":9708,"opt":9709,"Ġyan":9710,"Ã´t":9711,"ĠPanyambung":9712,"ĠAK":9713,"osh":9714,"unjungan":9715,"Ġbabe":9716,"Ġbaratos":9717,"ĠPakistan":9718,"Ġnawaran":9719,"Ġsusunan":9720,"book":9721,"euwihan":9722,"alifornia":9723,"ĠSoftware":9724,"Ġnguji":9725,"ĠWaktu":9726,"ĠKudu":9727,"ĠPilihan":9728,"Ġkanyaho":9729,"aksanaan":9730,"Ġlel":9731,"ĠFair":9732,"Î½Î¹Îº":9733,"Mus":9734,"tery":9735,"Ġ51":9736,"Ġpadagang":9737,"ĠyÃ©kun":9738,"unk":9739,"ĠMama":9740,"itius":9741,"ALI":9742,"ĠAdam":9743,"Ġdikaluarkeun":9744,"Ġjaga":9745,"anth":9746,"ĠKarawang":9747,"Ġbir":9748,"Ġgreat":9749,"Ġfot":9750,"ĠVan":9751,"ĠVid":9752,"Ġwaktuna":9753,"Ã¡s":9754,"ayasa":9755,"Ġhole":9756,"Ġnews":9757,"ĠMovie":9758,"url":9759,"upakan":9760,"à´":9761,"ĠAG":9762,"ĠlÃ©ngkah":9763,"Ġrus":9764,"Ġkacang":9765,"700":9766,"dam":9767,"prop":9768,"ĠØ§":9769,"Ġmeu":9770,"Ġhiber":9771,"papers":9772,"EV":9773,"Keur":9774,"asikeun":9775,"Ã©wan":9776,"ĠKalimantan":9777,"uluyna":9778,"figur":9779,"inf":9780,"Special":9781,"],":9782,"Ġbagja":9783,"ĠAMiD":9784,"ĠMicrosoft":9785,"Ġsanggup":9786,"edur":9787,"etails":9788,"Ġngara":9789,"News":9790,"vinsi":9791,"NI":9792,"andarÃ©n":9793,"ĠKajuruan":9794,"Rumah":9795,"awati":9796,"Ġnyobian":9797,"ereskeun":9798,"ane":9799,"Ġpake":9800,"ĠBerry":9801,"LO":9802,"koh":9803,"Ġmg":9804,"Ġfabric":9805,"ĠMajalah":9806,"Ġgerak":9807,"opyright":9808,"etah":9809,"ONT":9810,"aitun":9811,"Ġlim":9812,"ĠJapanese":9813,"Us":9814,"ilihan":9815,"tac":9816,"Ġcageur":9817,"Ġmasak":9818,"Ġuse":9819,"Ġbiru":9820,"ituna":9821,"Ġngas":9822,"onde":9823,"Ġjas":9824,"Ġsudut":9825,"iler":9826,"Ġ(+":9827,"dir":9828,"uler":9829,"nh":9830,"opat":9831,"Mag":9832,"ĠTenggara":9833,"ĠPromo":9834,"Ġextr":9835,"ĠmÃ©dis":9836,"Ġbant":9837,"Ġhor":9838,"Ġreujeung":9839,"ulak":9840,"elo":9841,"ĠDij":9842,"ĠJend":9843,"Ġtransport":9844,"ĠCanon":9845,"ĠYahudi":9846,"JUAL":9847,"zer":9848,"ë§":9849,"ĠSaran":9850,"ajiban":9851,"bak":9852,"Ġkok":9853,"Ġlawang":9854,"ĠKahiji":9855,"uritius":9856,"unakan":9857,"Ġproyek":9858,"tainless":9859,"ĠÃīlmu":9860,"ĠCle":9861,"opy":9862,"Ġpannak":9863,"Ġpamar":9864,"Ġprofil":9865,"ĠKAM":9866,"Ġ700":9867,"ĠTerus":9868,"ged":9869,"Ġlom":9870,"uyukeun":9871,"Hair":9872,"Ġedit":9873,"mur":9874,"ĠRek":9875,"Ġmassa":9876,"Ġstart":9877,"Ġngamekarkeun":9878,"ĠReviews":9879,"ĠCoupon":9880,"king":9881,"alikeun":9882,"aksÃ©s":9883,"onoman":9884,"ools":9885,"¡Ù":9886,"Ġanc":9887,"Ġkomb":9888,"ĠBiblia":9889,"Ġpengeluar":9890,"Ġkareta":9891,"Teras":9892,"ĠApartment":9893,"ĠMarketing":9894,"+:":9895,"::":9896,"Reg":9897,"ĠGalaxy":9898,"Ġditambahkeun":9899,"ĠSaudi":9900,"reatment":9901,"ECT":9902,"iu":9903,"ulah":9904,"Ġgudang":9905,"ĠGur":9906,"Ġmakeum":9907,"shack":9908,"berg":9909,"Ġå":9910,"Ġwalon":9911,"dom":9912,"ĠCitakan":9913,"Ġwere":9914,"ĠAwan":9915,"Ġtagged":9916,"star":9917,"ald":9918,"Ġtv":9919,"Ġngangg":9920,"ongton":9921,"ĠKenyon":9922,"Uk":9923,"ĠÃ©d":9924,"Ġganti":9925,"Ġapk":9926,"Sc":9927,"ĠTrain":9928,"ĠJalur":9929,"Sed":9930,"hel":9931,"ulintas":9932,"Pl":9933,"ĠShe":9934,"ĠSib":9935,"iral":9936,"opter":9937,"Ġuniversitas":9938,"ques":9939,"Ġcheap":9940,"High":9941,"Ġmeja":9942,"ĠSuit":9943,"uluykeun":9944,"san":9945,"ĠAyalon":9946,"hak":9947,"ĠText":9948,"ians":9949,"ĠPulsa":9950,"Gal":9951,"Ġsupplier":9952,"Pat":9953,"zim":9954,"ibah":9955,"ĠSov":9956,"emah":9957,"Ġimut":9958,"dar":9959,"Ġfikmin":9960,"Ġstasiun":9961,"Ġkacilakaan":9962,"ĠPaling":9963,"ĠGolf":9964,"tok":9965,"ĠPanel":9966,"Ġhome":9967,"ĠNorth":9968,"ĠFar":9969,"Ġspermshack":9970,"Äķ":9971,"ĠNgad":9972,"uriang":9973,"Ġjumlahna":9974,"Ġdepan":9975,"125":9976,"Ĺı":9977,"Ġdius":9978,"Ġterp":9979,"Ġniat":9980,"ĠkÃ©ngingkeun":9981,"ĠsÃ©m":9982,"abit":9983,"andaran":9984,"Ġterk":9985,"Ġtawaran":9986,"ĠTangtu":9987,"ĠJust":9988,"Ġkaunggulan":9989,"ĠApple":9990,"ĠSA":9991,"orama":9992,"Ġaja":9993,"asis":9994,"ĠMall":9995,"ĠFax":9996,"euhna":9997,"ishing":9998,"Ġanga":9999,"ĠTutorial":10000,"cart":10001,"ĠTat":10002,"Ġreels":10003,"esta":10004,"Ġgedong":10005,"ĠBrush":10006,"Ġmusic":10007,"ĠBuah":10008,"Tan":10009,"anian":10010,"ĠJimbaran":10011,"uyasha":10012,"Ġagar":10013,"Ġkacamatan":10014,"Ġcall":10015,"Ġharus":10016,"ĠBursa":10017,"Ã´ng":10018,"anjut":10019,"ĠAyat":10020,"Jul":10021,"Lagu":10022,"ĠORI":10023,"Ġ650":10024,"Ġbadan":10025,"Ġpilari":10026,"Ġgangguan":10027,"Ġlumpat":10028,"ĠBol":10029,"andÃ©n":10030,"ĠBoobs":10031,"ĠâĢİ[":10032,"ĠSaterusna":10033,"Ġlambang":10034,"ĠGas":10035,"ÙĦÙĩ":10036,"Ķ¨":10037,"Ġmengg":10038,"Ġngubaran":10039,"ĠEast":10040,"Ġtiket":10041,"Ġhere":10042,"abatan":10043,"Ġsagemblengna":10044,"ĠAhli":10045,"ĠDÃ©wi":10046,"Ġdiganti":10047,"Related":10048,"entr":10049,"Ġtogether":10050,"Tat":10051,"egi":10052,"Ġpanel":10053,"indahkeun":10054,"Ġkabogoh":10055,"omatic":10056,"uron":10057,"ĠJAKARTA":10058,"eungg":10059,"123":10060,"Ġkelly":10061,"jaman":10062,"ulisan":10063,"OSIR":10064,"Ġcomments":10065,"ĠSleeve":10066,"yi":10067,"ĠKarya":10068,"Fac":10069,"jal":10070,"inst":10071,"ĠCustom":10072,"ĠÂ»Â»":10073,"enyana":10074,"Ġajaran":10075,"erek":10076,"Ã©te":10077,"Tur":10078,"Ġmekar":10079,"Ġnight":10080,"Ã©ntar":10081,"Ġcontact":10082,"Lal":10083,"umsi":10084,"ĠCAR":10085,"emade":10086,"antin":10087,"Ġpropinsi":10088,"Und":10089,"Ġremen":10090,"ebutan":10091,"Ġlaun":10092,"Ġstaf":10093,"Ġsteel":10094,"Ġ180":10095,"bener":10096,"ĠPP":10097,"ĠObat":10098,"ĠVideos":10099,"Ġpamikiran":10100,"ĠCall":10101,"Ġusa":10102,"ences":10103,"ĠPir":10104,"Ġkasar":10105,"Ġsatia":10106,"bk":10107,"Ġenc":10108,"ĠBiru":10109,"Ġnyangk":10110,"lothing":10111,"zing":10112,"Ġrumaja":10113,"Ġjamb":10114,"ĠHAR":10115,"ipas":10116,"ĠAdd":10117,"anner":10118,"Ġdeungeun":10119,"ĠMC":10120,"Ġsalian":10121,"ĠYÃ©n":10122,"ramayu":10123,"esti":10124,"uleng":10125,"Ġngarupakeun":10126,"Ġkoma":10127,"Waler":10128,"ĠOS":10129,"Ġngagabung":10130,"ĠAdolescent":10131,"Ġcampuran":10132,"Fr":10133,"ropis":10134,"percaya":10135,"asian":10136,"Ġnear":10137,"Ġlaser":10138,"imi":10139,"ajur":10140,"udan":10141,"okolakeun":10142,"Sep":10143,"abhi":10144,"Ġsatuju":10145,"parent":10146,"ĠPeter":10147,"kk":10148,"Ġjagat":10149,"Ã©ron":10150,"Ngan":10151,"Ġlangu":10152,"je":10153,"imedia":10154,"Ġgood":10155,"Ġmineral":10156,"ocket":10157,"Ġho":10158,"hib":10159,"ĠSamb":10160,"Ġlad":10161,"Ġluh":10162,"ĠRoman":10163,"ĠNgah":10164,"Ġuli":10165,"Ġpentingna":10166,"ĠSemb":10167,"ĠPK":10168,"itive":10169,"parajumper":10170,"akukan":10171,"ĠTarot":10172,"Ġmum":10173,"Ġcamel":10174,"ĠInv":10175,"ejang":10176,"Ġdikaw":10177,"Ġpilih":10178,"ĠKembang":10179,"ĠBrasil":10180,"Ġilaharna":10181,"Ġframe":10182,"cus":10183,"Ġngartos":10184,"Sad":10185,"Ġtech":10186,"Ġmeta":10187,"ĠPac":10188,"Ġinuyasha":10189,"antenan":10190,"ĠResep":10191,"ĠBant":10192,"Ġwujud":10193,"ĠExp":10194,"ĠSqu":10195,"ĠBrazil":10196,"ĠPlastik":10197,"FC":10198,"Ġlembut":10199,"Ġrapat":10200,"Ġyate":10201,"istani":10202,"Ġnuk":10203,"ĠSumber":10204,"Ġcanggih":10205,"FA":10206,"How":10207,"uff":10208,"Ġnambahkeun":10209,"Ġfav":10210,"ivery":10211,"Ġused":10212,"Ġtidur":10213,"ĠpangsaÃ©na":10214,"ĠPanj":10215,"Ġ130":10216,"ombok":10217,"ĠnÃ©nten":10218,"apon":10219,"Ġ69":10220,"Ġngahiji":10221,"ĠAgama":10222,"ĠAbout":10223,"ĠMedan":10224,"atic":10225,"ĠSK":10226,"Ġyellow":10227,"Ġjalu":10228,"Ġilmiah":10229,"Ġpesen":10230,"ĠBapak":10231,"ĠRoll":10232,"ĠTrip":10233,"Ġpossible":10234,"ĠMelayu":10235,"Mobil":10236,"Ġlh":10237,"ĠTit":10238,"Ġsaboh":10239,"orean":10240,"ĠØ±":10241,"MaCai":10242,"ĠFat":10243,"Ġpangant":10244,"Ġnyarankeun":10245,"Ġ\".":10246,"Ġngagem":10247,"azaar":10248,"Sil":10249,"lek":10250,"ĠNgaj":10251,"ISI":10252,"Ġlahan":10253,"Ġnegeri":10254,"eukeutan":10255,"ĠDEPOSIT":10256,"ê°Ģì":10257,"cin":10258,"jpg":10259,"ĠManehna":10260,"ĠBall":10261,"Ġcad":10262,"ĠWid":10263,"Ġsepuh":10264,"Pany":10265,"hasil":10266,"may":10267,"Ġpanik":10268,"ariksa":10269,"Ġpakait":10270,"Ġvery":10271,"Ġspec":10272,"onna":10273,"Ġ1999":10274,"HI":10275,"tal":10276,"Ġjan":10277,"ĠBandara":10278,"abutuh":10279,"mit":10280,"Ġjust":10281,"ĠTen":10282,"indung":10283,"ĠAntib":10284,"ĠTong":10285,"ulat":10286,"Ġduaan":10287,"ĠBlackjack":10288,"adin":10289,"ĠBAJU":10290,"ĠChamp":10291,"ADI":10292,"Ġrobot":10293,"Ġtingk":10294,"Ġdiaj":10295,"Ġngolah":10296,"Ġpasir":10297,"Ġrong":10298,"Ġpupus":10299,"pe":10300,"ĠAW":10301,"undang":10302,"ography":10303,"kari":10304,"Ð¿":10305,"ĠLaw":10306,"ĠHom":10307,"ĠKasÃ©hatan":10308,"FL":10309,"Ġmud":10310,"isting":10311,"Ã¨Ã«":10312,"Ġdbz":10313,"otato":10314,"ashmina":10315,"incak":10316,"Ġsangu":10317,"Ġjackets":10318,"Ġpokemon":10319,"ĠHitam":10320,"Ġinj":10321,"aut":10322,"ĠmÃ©r":10323,"ulir":10324,"Ġfin":10325,"Ġmakeu":10326,"ADA":10327,"uhunkeun":10328,"ales":10329,"ĠCond":10330,"elaran":10331,"empuan":10332,"ĠResmi":10333,"Ð¾ÑĢ":10334,"Ġguys":10335,"ĠHirup":10336,"ĠBanjir":10337,"'m":10338,"nagara":10339,"itute":10340,"ĠPRI":10341,"otion":10342,"ailable":10343,"sing":10344,"Ġlove":10345,"Ġcamera":10346,"Ġinpo":10347,"Sex":10348,"ĠDal":10349,"ĠAudio":10350,"ĠFeu":10351,"pcs":10352,"Ġngentot":10353,"agra":10354,"antis":10355,"cha":10356,"Ġlalulintas":10357,"Ġsmart":10358,"ilin":10359,"Ġditutup":10360,"lass":10361,"ĠFrom":10362,"hijina":10363,"ĠnÃ©mb":10364,"antes":10365,"ĠWater":10366,"Ġditand":10367,"Ġbengkel":10368,"Ġmintonkeun":10369,"akilan":10370,"Ġpakarang":10371,"OLD":10372,"ĠKetua":10373,"kol":10374,"ses":10375,"Ġsle":10376,"abuhan":10377,"Ġngunt":10378,"ĠRum":10379,"Ġsaking":10380,"ĠApr":10381,"Ġsumur":10382,"Ġaunty":10383,"ĠYAMAHA":10384,"aft":10385,"ĠTea":10386,"Ġpanyadia":10387,"ĠEma":10388,"ejala":10389,"eueuh":10390,"ternal":10391,"nyataan":10392,"ĠRun":10393,"ANI":10394,"ĠSumatera":10395,"baju":10396,"Ġcook":10397,"ĠCT":10398,"ĠDistro":10399,"eungp":10400,"ĠÂ°":10401,"Ġthough":10402,"Ġngaganti":10403,"Ġtravel":10404,"Ġprodusen":10405,"Cina":10406,"Ġsit":10407,"Ġpopulasi":10408,"Ġrengse":10409,"reas":10410,"Ġngabentuk":10411,"ĠÙ¡Ù":10412,"ĠTwitter":10413,"ĠAtas":10414,"ĠÙĬ":10415,"hip":10416,"ĠGypsum":10417,"ĠYayasan":10418,"Ã©mp":10419,"Ġnerapkeun":10420,"íķ":10421,"Ġbaj":10422,"Ġsuhu":10423,"Ġadil":10424,"Ġjaminan":10425,"Ġipun":10426,"ukÃ©":10427,"Ġpanginten":10428,"ĠÏĢ":10429,"Tube":10430,"subway":10431,"Pin":10432,"ĠSora":10433,"ulator":10434,"trum":10435,"Ġmandiri":10436,"Target":10437,"ĠHarita":10438,"Ġkalakuan":10439,"ĠwandÃ©n":10440,"Sababaraha":10441,"Ġngeunah":10442,"Ġ68":10443,"ĠagÃ©n":10444,"ĠParad":10445,"Men":10446,"Ĥ¹":10447,"Ġditangtukeun":10448,"Ġjieun":10449,"Ġjimbaran":10450,"muwan":10451,"with":10452,"ĠpagawÃ©":10453,"Ġuyah":10454,"ĠKaayaan":10455,"Ġseragam":10456,"Enya":10457,"Ø£":10458,"ĠmÃ©g":10459,"ĠBAT":10460,"usar":10461,"ĠTown":10462,"Ã©rÃ©t":10463,"Ã©tik":10464,"Ġkarbon":10465,"Ġteknis":10466,"Ġdrama":10467,"ĠOpen":10468,"Ġseksual":10469,"Ġngala":10470,"ĠDik":10471,"Ġruntah":10472,"assi":10473,"Ġmisi":10474,"antikan":10475,"ĠFeuillus":10476,"Ġbeusi":10477,"anker":10478,"Pandora":10479,"key":10480,"ĠTembang":10481,"rav":10482,"Ġkapaksa":10483,"Ġkeuh":10484,"Ġmudah":10485,"Ġbeun":10486,"ĠTes":10487,"oku":10488,"terior":10489,"ĠÃĹ":10490,"ishna":10491,"Cal":10492,"anch":10493,"ĠLor":10494,"enteng":10495,"Ġpantai":10496,"ĠMelaka":10497,"Ġngakibatkeun":10498,"ĠCandra":10499,"hiji":10500,"ahya":10501,"unganana":10502,"ĠDiyos":10503,"Ġstory":10504,"Ġtersebut":10505,"Ġmula":10506,"ĠnÃ©nÃ©":10507,"ĠAsa":10508,"ĠDENGAN":10509,"Ġvid":10510,"Ġview":10511,"Ġdisk":10512,"Ġsalamet":10513,"Ġdistributor":10514,"Id":10515,"Ġneuteup":10516,"ĠSind":10517,"ĠHong":10518,"Ġinohong":10519,"unduk":10520,"Ġgroup":10521,"iau":10522,"ĠMural":10523,"Ġhaneut":10524,"ĠwÃ©nten":10525,"ĠLiga":10526,"ĠGi":10527,"ĠProyÃ©k":10528,"ague":10529,"Ġkombinasi":10530,"JI":10531,"iron":10532,"Ġdev":10533,"Lot":10534,"Ġmec":10535,"ĠDengan":10536,"inggang":10537,"ĠMES":10538,"ĠLuar":10539,"ĠRI":10540,"ĠNusantara":10541,"Ġisuzu":10542,"Ġnakeuh":10543,"eunteun":10544,"Tim":10545,"mara":10546,"Ġrand":10547,"oti":10548,"ĠWilayah":10549,"Ġpanggung":10550,"Ġmara":10551,"eless":10552,"cular":10553,"nn":10554,"ĠTam":10555,"alamu":10556,"ĠNovÃ©mber":10557,"Ð²":10558,"Ġgajih":10559,"ĠPeta":10560,"argo":10561,"Indonesia":10562,"Ġtinta":10563,"Ġbody":10564,"rod":10565,"Ġmulai":10566,"Lab":10567,"Ġngg":10568,"Ġmanusia":10569,"OME":10570,"Øµ":10571,"miu":10572,"ĠSkin":10573,"Ġcouple":10574,"Ġmade":10575,"ersihan":10576,"Ġâĸ":10577,"Ġkampanye":10578,"ĠrÃ©bu":10579,"Ġmiwah":10580,"ukar":10581,"Ġrujukan":10582,"Ġdipikanyaho":10583,"ĠpagawÃ©an":10584,"PU":10585,"Ser":10586,"ein":10587,"ĠMis":10588,"elasan":10589,"ĠKalawan":10590,"Ġdarat":10591,"ANGKAL":10592,"130":10593,"Ġnih":10594,"ĠCover":10595,"ijat":10596,"ĠÐ¿":10597,"NO":10598,"ĠJud":10599,"ĠFootball":10600,"Ġstudi":10601,"ĠProfesional":10602,"ĠBANK":10603,"Ġkantong":10604,"Ġsusu":10605,"astra":10606,"Ġlot":10607,"ĠÃ©ksp":10608,"Saha":10609,"akh":10610,"ĠSajarah":10611,"ingin":10612,"ĠToy":10613,"ĠLantaran":10614,"INO":10615,"Ġmoon":10616,"Ġpariksa":10617,"Ġagung":10618,"ĠShar":10619,"arso":10620,"ĠPAR":10621,"ulna":10622,"Ġcak":10623,"alametan":10624,"Ġdingaranan":10625,"ĠGirls":10626,"ĠCanc":10627,"imas":10628,"Ġalum":10629,"ĠSaatos":10630,"ertifikasi":10631,"ĠCour":10632,"ĠNusa":10633,"Ġ\"âĤ¬":10634,"ĠIndramayu":10635,"ĠngadÃ©ngÃ©":10636,"Ġdigimon":10637,"ĠÃ©fÃ©ktif":10638,"Aug":10639,"ĠTingkat":10640,"Ġcc":10641,"kitab":10642,"Ġanjog":10643,"Ġsoc":10644,"Ġtarget":10645,"Ġbakat":10646,"ejo":10647,"Ġdays":10648,"ĠBintaro":10649,"ĠFace":10650,"INS":10651,"ĠPETIR":10652,"Professional":10653,"Ġtonggong":10654,"eueng":10655,"ĠmÃ©mb":10656,"ĠDC":10657,"Ġartos":10658,"Ġkorban":10659,"Ġbogoh":10660,"awesi":10661,"ĠNeck":10662,"Ġinto":10663,"ense":10664,"ĠTrading":10665,"jen":10666,"zat":10667,"ikip":10668,"Ġai":10669,"Ġvideos":10670,"Ġcabang":10671,"Ġparip":10672,"Ġpenj":10673,"imahi":10674,"Ġcard":10675,"Ġkub":10676,"Ġsangat":10677,"DaMaCai":10678,"Ġtabel":10679,"Kac":10680,"adagna":10681,"ĠDown":10682,"Ġsedeng":10683,"Ġgelombang":10684,"isuk":10685,"Ġala":10686,"160":10687,"ĠSpecial":10688,"ufaktur":10689,"ganiz":10690,"ĠPangg":10691,"olding":10692,"Ġuntung":10693,"Su":10694,"zilla":10695,"okia":10696,"MT":10697,"Ġmeh":10698,"ĠBers":10699,"Ġngimpi":10700,"teri":10701,"Ġ350":10702,"âĨĴ":10703,"ĠKebon":10704,"usalem":10705,"lung":10706,"Ġabang":10707,"Ġleungitna":10708,"ĠmÃ©mang":10709,"Baca":10710,"pust":10711,"awarga":10712,"ĠAluminium":10713,"eulana":10714,"Ġbrush":10715,"Ġren":10716,"Ã©ktor":10717,"Email":10718,"Ġida":10719,"Ġhormat":10720,"ukt":10721,"ibet":10722,"Ġyus":10723,"Ġlalakon":10724,"Ġvisual":10725,"BR":10726,"ako":10727,"atuan":10728,"Ġmanual":10729,"px":10730,"Ġoh":10731,"ĠSoal":10732,"ĠMeg":10733,"Ġsapatu":10734,"Ġmimpi":10735,"Ġditawarkeun":10736,"Ġsemua":10737,"ĠPada":10738,"Ã©rÃ©n":10739,"Ġmassive":10740,"ĠBalik":10741,"Ġakar":10742,"unjabi":10743,"ytics":10744,"Ġobs":10745,"abal":10746,"Ġcas":10747,"uddin":10748,"antina":10749,"ĠTeras":10750,"ĠAddress":10751,"Ġarsit":10752,"hunter":10753,"ĠPremium":10754,"asur":10755,"ĠDE":10756,"reak":10757,"atuit":10758,"Ġanalisis":10759,"Ã©kuÃ©nsi":10760,"MC":10761,"Äħ":10762,"eber":10763,"ĠNgem":10764,"zona":10765,"Ġdate":10766,"ĠDest":10767,"IONAL":10768,"Ġjahat":10769,"Ur":10770,"nb":10771,"Ġcing":10772,"Ġ140":10773,"ĠAnime":10774,"ĠApi":10775,"ĠWilli":10776,"tein":10777,"Ġhead":10778,"ĠJordan":10779,"Ġdilarapkeun":10780,"frastr":10781,"ĠMenu":10782,"ĠFlorist":10783,"Ġsidang":10784,"eyuran":10785,"Pre":10786,"ĠDIST":10787,"ijan":10788,"Ġora":10789,"ĠhotÃ©l":10790,"Ġnice":10791,"ĠBU":10792,"ĠPint":10793,"aber":10794,"ĠKapuloan":10795,"Carita":10796,"Mangga":10797,"ĠSci":10798,"ĠEN":10799,"ATT":10800,"Ġwebtoon":10801,"Ġlarge":10802,"Ġgab":10803,"Ġios":10804,"Ġoperator":10805,"ulÃ©r":10806,"ĠCos":10807,"Ġapang":10808,"ruit":10809,"ĠKlang":10810,"apis":10811,"aiz":10812,"More":10813,"eness":10814,"eder":10815,"ostÃ©ron":10816,"ĠConto":10817,"ĠBUM":10818,"Ġatos":10819,"ĠState":10820,"Ġmiles":10821,"Ġdipikah":10822,"inner":10823,"Ġdosis":10824,"eskeun":10825,"ĠLook":10826,"ĠGarden":10827,"Ġbeuheung":10828,"lights":10829,"ĠTHE":10830,"Ġramp":10831,"ĠFt":10832,"Ġditinggalkeun":10833,"GTC":10834,"ĠPati":10835,"ademi":10836,"ĠFix":10837,"ĠMark":10838,"ĠMagic":10839,"Dit":10840,"orot":10841,"Ġcau":10842,"ĠCook":10843,"ĠLow":10844,"Ġthem":10845,"Ġkaterangan":10846,"etty":10847,"Ġkelamin":10848,"Ġprofessional":10849,"ĠLou":10850,"Ġngabantu":10851,"Ġakal":10852,"ĠIbrahim":10853,"Ã©stostÃ©ron":10854,"ĠOperasi":10855,"part":10856,"Ġambek":10857,"ĠGMN":10858,"ĠBON":10859,"olar":10860,"ĠUc":10861,"rar":10862,"ĠEc":10863,"ĠEye":10864,"ĠDouble":10865,",-":10866,"Dir":10867,"Ġpaw":10868,"Ġcent":10869,"Ġcomb":10870,"ĠwunÃ©":10871,"Î¿Ïħ":10872,"Ġmeus":10873,"adion":10874,"ends":10875,"Ġpilarian":10876,"umuman":10877,"Ġdeal":10878,"Ġdakwa":10879,"Ġbangbus":10880,"Ġragrag":10881,"Ġbawang":10882,"Ġprod":10883,"Ġ96":10884,"Ġoblong":10885,"Ġpulak":10886,"???":10887,"Price":10888,"ĠPoker":10889,"Ed":10890,"aritakeun":10891,"ERS":10892,"Ġberita":10893,"Ġkelir":10894,"ĠKomentar":10895,"Ġbikang":10896,"âĢļÂ¬":10897,"category":10898,"akin":10899,"ĠTilu":10900,"ĠSakit":10901,"Ġwhite":10902,"Ġbalanja":10903,"Yamaha":10904,"Ġnonoman":10905,"cd":10906,"now":10907,"ÅĤ":10908,"Ġjarang":10909,"ĠArtist":10910,"ÃĥÆĴÃ¢":10911,"Ġnun":10912,"ĠBuka":10913,"abas":10914,"Ġgapu":10915,"Ġwadah":10916,"ĠLeaf":10917,"LC":10918,"ĠPilih":10919,"Ġngaliwat":10920,"ops":10921,"Ġdrive":10922,"opa":10923,"hern":10924,"ĠTuhan":10925,"obih":10926,"eken":10927,"Ġrekening":10928,"ĠGedong":10929,"Ġsos":10930,"ĠDVD":10931,"Ã©dana":10932,"Ġlebaran":10933,"DI":10934,"pers":10935,"Ġkway":10936,"Ġnyerat":10937,"Ġmaung":10938,"ĠRemaja":10939,"Pink":10940,"Ġread":10941,"baikan":10942,"ÃĻ":10943,"edalkeun":10944,"ĠWash":10945,"ĠUAE":10946,"Ġkabagjaan":10947,"bh":10948,"ĠSUR":10949,"ĠKOTA":10950,"ĠUM":10951,"Ġthere":10952,"aksian":10953,"ĠAcai":10954,"Ġsagara":10955,"sw":10956,"alis":10957,"enk":10958,"ĠMAK":10959,"Ġmarvel":10960,"Ġkaum":10961,"ĠHimalayan":10962,"iban":10963,"Ġprocess":10964,"itasi":10965,"Ġrev":10966,"Ġbum":10967,"Ġdiff":10968,"ĠanakÃ©":10969,"hor":10970,"Ġic":10971,"itz":10972,"ĠTokyo":10973,"ĠKristen":10974,"ZE":10975,"ĠCOL":10976,"etak":10977,"GGCC":10978,"Ġpangbadagna":10979,"ĠDinten":10980,"ĠLengan":10981,"atoan":10982,"ĠPure":10983,"ancana":10984,"ĠCollege":10985,"upun":10986,"Ġtindakan":10987,"ĠBeautiful":10988,"Ġhanya":10989,"Ġutara":10990,"Ġsikep":10991,"ucapkeun":10992,"asting":10993,"Ġdaek":10994,"Ġblue":10995,"crib":10996,"Black":10997,"Ġmass":10998,"ĠSuara":10999,"ĠÃ©pÃ©k":11000,"Citakan":11001,"ways":11002,"Ġhormon":11003,"ujur":11004,"Ġroulette":11005,"ĠUnlimited":11006,"GTT":11007,"Ġ115":11008,"ĠNegara":11009,"ĠEpisode":11010,"rÃ©n":11011,"eutan":11012,"Ġtempatna":11013,"ĠGeorgette":11014,"Mad":11015,"gn":11016,"ictor":11017,"Ġsalt":11018,"Ġeye":11019,"ĠStudi":11020,"pustakaan":11021,"raj":11022,"Ġinform":11023,"zhen":11024,"Sumber":11025,"ĠLee":11026,"ijieun":11027,"ĠBalan":11028,"ĠRich":11029,"Ġfir":11030,"duksi":11031,"Ġrutin":11032,"ĠWakil":11033,"Ġë":11034,"ultur":11035,"irtual":11036,"Ġsekolah":11037,"ĠMund":11038,"erie":11039,"Ġmereka":11040,"Ġnum":11041,"Ġcaket":11042,"Ġgambaran":11043,"ĠHasan":11044,"ustaka":11045,"Red":11046,"Ð´":11047,"Ġpc":11048,"ĠKata":11049,"eurat":11050,"ĠOver":11051,"adiun":11052,"aturah":11053,"105":11054,"Ġbahaya":11055,"Ġkoran":11056,"ĠOh":11057,"istics":11058,"Ġmassal":11059,"ahoo":11060,"Ġpamilon":11061,"eep":11062,"ĠPeg":11063,"ĠCalifornia":11064,"ĠSMK":11065,"burg":11066,"Ġspanking":11067,"Ġsalakina":11068,"ĠLukis":11069,"Ġsecara":11070,"Ġpunten":11071,"ĠNumutkeun":11072,"ĠÎ´":11073,"Day":11074,"samÃ©mÃ©hna":11075,"rogÃ©n":11076,"ngan":11077,"asai":11078,"Ġkasta":11079,"Ġlulusan":11080,"ĠKeun":11081,"ĠMaks":11082,"ĠGrey":11083,"ĠSchool":11084,"Ġmolek":11085,"tech":11086,"Ġklasik":11087,"alun":11088,"Ġwun":11089,"ĠIV":11090,"epe":11091,"Ġngajantenkeun":11092,"Ġdimekarkeun":11093,"Air":11094,"Fax":11095,"×Ļ":11096,"anoh":11097,"ĠMusa":11098,"artikeun":11099,"Ã¨r":11100,"taurant":11101,"epatan":11102,"ĠonÃ©":11103,"alau":11104,"Ġgrafik":11105,"gmail":11106,"Ġpon":11107,"Ġnger":11108,"ĠCAT":11109,"euleuman":11110,"Ã¼n":11111,"Ġext":11112,"Ġbend":11113,"ĠNow":11114,"opment":11115,"ĠOm":11116,"ĠpÃ©s":11117,"udra":11118,"Ġ78":11119,"Ġngawujud":11120,"ĠTours":11121,"ĠBANDUNG":11122,"Ey":11123,"Ġci":11124,"Ġpuja":11125,"ĠNEW":11126,"ĠLucu":11127,"ĠBadan":11128,"Ġtouch":11129,"Ġtraining":11130,"rec":11131,"Ġfix":11132,"anyataan":11133,"Ġakh":11134,"AGCT":11135,"Ġevery":11136,"ĠIsrael":11137,"nat":11138,"ĠHerbal":11139,"anggar":11140,"ucuk":11141,"engker":11142,"ĠPoly":11143,"awakil":11144,"pag":11145,"Ġnow":11146,"online":11147,"ĠPenang":11148,"ĠKareta":11149,"ĠMik":11150,"Ġamis":11151,"Î±ÏĦ":11152,"ĠsÃ©sana":11153,"Ġsasar":11154,"Ġhaji":11155,"idin":11156,"Ġperl":11157,"Ġngaleungitkeun":11158,"ĠPersib":11159,"ĠAcne":11160,"apati":11161,"ĠTotal":11162,"Ġ160":11163,"rylic":11164,"Ġmulti":11165,"ĠFilter":11166,"ĠPromosi":11167,"GD":11168,"gia":11169,"ĠLIVE":11170,"entasi":11171,"ĠNgeunaan":11172,"angsang":11173,"ĠprotÃ©in":11174,"Ġbagus":11175,"Ġtepung":11176,"andÃ©ka":11177,"ĠWatch":11178,"Ġaff":11179,"ERT":11180,"anyaan":11181,"Ġlumayan":11182,"ĠPASANG":11183,"cle":11184,"Å¾":11185,"Ġjag":11186,"ĠForm":11187,"astic":11188,"Ġpaguneman":11189,"ategorized":11190,"CAD":11191,"pong":11192,"ĠHonda":11193,"Ġfeet":11194,"Ġmau":11195,"Ġengke":11196,"ĠAmerican":11197,"olong":11198,"ubungi":11199,"ources":11200,"Ġblok":11201,"Ġasians":11202,"Ġnanyakeun":11203,"imbangkeun":11204,"ĠâĢ¦.":11205,"Salah":11206,"Ġnipples":11207,"Ben":11208,"ĠPerk":11209,"ĠPass":11210,"Univers":11211,"ikna":11212,"Ġdiubah":11213,"ĠRev":11214,"Ġsaluhur":11215,"ĠTeens":11216,"rel":11217,"atujuan":11218,"agas":11219,"Ġbau":11220,"ustralia":11221,"ĠPuisi":11222,"Ġkus":11223,"ĠLam":11224,"Ġpages":11225,"2006":11226,"Ġnjang":11227,"ĠMAR":11228,"170":11229,"ĠBridal":11230,"ĠÑģ":11231,"ĠAtl":11232,"Ġidin":11233,"reng":11234,"onster":11235,"Ġ1998":11236,"Ġsukses":11237,"lr":11238,"âĢ¦]":11239,"ĠKartu":11240,"----------------":11241,"Ge":11242,"Ġradi":11243,"Ġmini":11244,"rogaming":11245,"flow":11246,"ĠPahang":11247,"ĠKai":11248,"ĠRat":11249,"TUK":11250,"uturkeun":11251,"ampal":11252,"Ġ1990":11253,"Ø§Ø±":11254,"ë§Ī":11255,"Ġtot":11256,"erba":11257,"Ġprob":11258,"estoran":11259,"agoan":11260,"untry":11261,"fac":11262,"alih":11263,"chure":11264,"Ġditarima":11265,"alo":11266,"ĠtÃ¡":11267,"ĠWood":11268,"Ġngarang":11269,"ĠBiasana":11270,"Ġinternal":11271,"eungitan":11272,"Ã©ling":11273,"Ġminimalis":11274,"iving":11275,"Ġindia":11276,"Ġpassword":11277,"ĠPENANGKAL":11278,"urungkeun":11279,"Ġhum":11280,"main":11281,"ĠPerumahan":11282,"imble":11283,"ORN":11284,"Ġlempeng":11285,"osisi":11286,"ĠTÃ©hnologi":11287,"'.":11288,"ĠKR":11289,"Ġiy":11290,"ĠOld":11291,"Ġmanis":11292,"ongkok":11293,"Pet":11294,"Rob":11295,"andra":11296,"Ġsablon":11297,"Ġmariksa":11298,"Î±Ïģ":11299,"CDD":11300,"barang":11301,"Ġbeh":11302,"Ġgigireun":11303,"endar":11304,"pres":11305,"Ġseger":11306,"bud":11307,"vy":11308,"ĠPU":11309,"ĠTimb":11310,"ukuran":11311,"acap":11312,"entina":11313,"ĠDrama":11314,"Ġtekanan":11315,"ĠMakassar":11316,"FT":11317,"ĠTegal":11318,"eungkeut":11319,"ebruari":11320,"Ġsobat":11321,"ĠPEMB":11322,"ĠNagar":11323,"ĠFX":11324,"ĠÃīd":11325,"ĠFlyer":11326,"ĩÎ":11327,"Ġkaki":11328,"Ġbandar":11329,":\"":11330,"Ġbanda":11331,"ĠKids":11332,"aps":11333,"eeds":11334,"Ġnguntungkeun":11335,"jaya":11336,"Ġshirt":11337,"ibi":11338,"impal":11339,"hul":11340,"Ġbutt":11341,"atalog":11342,"LD":11343,"bing":11344,"duma":11345,"rama":11346,"Ġtai":11347,"ĠKH":11348,"ĠLuc":11349,"itÃ©r":11350,"Ġjeg":11351,"ĠMach":11352,"ĠOR":11353,"ĠSolo":11354,"Ġsailor":11355,"esoris":11356,"ĠFacial":11357,"OU":11358,"Po":11359,"baj":11360,"ÑĪ":11361,"ĠBHD":11362,"Ġkonstruksi":11363,"Ġkamampuhan":11364,"Taun":11365,"Ġperiode":11366,"Ġmost":11367,"Ġbeng":11368,"Ġword":11369,"ĠExecutive":11370,"Ġitem":11371,"Ġbasis":11372,"Ġefisi":11373,"nudas":11374,"ĠWalikota":11375,"izi":11376,"ĠCiburuan":11377,"Ġblock":11378,"time":11379,"Ġomong":11380,"Ġjak":11381,"Ġcenter":11382,"Ġnyir":11383,"ugar":11384,"ĠDiam":11385,"Ġkawilang":11386,"Ġpadum":11387,"dagangan":11388,"To":11389,"Ġdipap":11390,"Ġpoli":11391,"hic":11392,"raman":11393,"ĠSarung":11394,"Ġnaruto":11395,"pop":11396,"å¤":11397,"Ġngeusian":11398,"ĠBabe":11399,"ĠFakultas":11400,"ĠORIG":11401,"FD":11402,"Tar":11403,"Ġparan":11404,"Ġbilih":11405,"imu":11406,"ĠLul":11407,"ompa":11408,"ĠSenÃ©n":11409,"igu":11410,"Ġpamanggih":11411,"Ġdomain":11412,"ĠTÃ©knik":11413,"We":11414,"ngi":11415,"ĠPÃ©r":11416,"usion":11417,"ĠTIM":11418,"Ġputrana":11419,"enzhen":11420,"Ġ111":11421,"ĠJung":11422,"ĠGaya":11423,"umbuhan":11424,"ĠPANG":11425,"Ġdisebutna":11426,"onÃ©":11427,"Ġ220":11428,"uncat":11429,"ĠALL":11430,"ĠmÃ©kan":11431,"ilia":11432,"Ġsakay":11433,"inansial":11434,"ombie":11435,"ĠBrochure":11436,"Port":11437,"kl":11438,"Ġkeus":11439,"Ġmuru":11440,"ĠBeg":11441,"usul":11442,"Ġinterior":11443,"ĠPictures":11444,"aning":11445,"atip":11446,"ĠTCDD":11447,"awaran":11448,"Ġsupir":11449,"ĠBil":11450,"ĠFikmin":11451,"ĠtÃ©hnik":11452,"ATI":11453,"Ġkompl":11454,"ĠÎ´Î¹":11455,"rojong":11456,"Ġweruh":11457,"Ġnaf":11458,"ĠCardinals":11459,"ĠÏĢÎ±":11460,"arsa":11461,"ĠSistim":11462,"Ġlobana":11463,"ĠShare":11464,"Ġmeni":11465,"house":11466,"Ġreuwas":11467,"Ġplug":11468,"rg":11469,"ĠSIL":11470,"area":11471,"Ġ72":11472,"appy":11473,"Ġnambihan":11474,"Ġdiatara":11475,"ilian":11476,"elak":11477,"Î±ÏĩÎ":11478,"Ġbangkok":11479,"Ġnungguan":11480,"ĠMT":11481,"Ġxnxx":11482,"Ġdesnudas":11483,"UMP":11484,"ĠANT":11485,"Ġpanasaran":11486,"ĠSystems":11487,"Î±ÏĦÎ±Ïģ":11488,"Î±ÏĦÎ±ÏģÎ±ÏĩÎ":11489,"ners":11490,"estern":11491,"Ġngumb":11492,"Ġsabagian":11493,"Ġkatun":11494,"ÃŃn":11495,"////":11496,"Ġjudulna":11497,"Ġpanikou":11498,"adat":11499,"river":11500,"ĠSarat":11501,"ĠAyakk":11502,"Ġperkawis":11503,"ĠÏĢÎ±Î½Î¹Îº":11504,"Play":11505,"Ø¶":11506,"Ġkeuna":11507,"rob":11508,"Ġdiper":11509,"ĠManual":11510,"Design":11511,"TML":11512,"ĠÎ´Î¹Î±ÏĦÎ±ÏģÎ±ÏĩÎ":11513,"ĠÏĢÎ±Î½Î¹ÎºÎ¿Ïħ":11514,"My":11515,"Ġji":11516,"Ġkaping":11517,"anka":11518,"361":11519,"eunteu":11520,"ĠMicrogaming":11521,"Ġmiara":11522,"Ġnasabah":11523,"ĠDisc":11524,"tags":11525,"æĸ":11526,"ĠBin":11527,"evan":11528,"ĠPelatihan":11529,"was":11530,"itia":11531,"ĠGajah":11532,"Ġaluminium":11533,"shop":11534,"ĠNaskah":11535,"Do":11536,"ocal":11537,"Ġhotel":11538,"Ġskala":11539,"ìķĦê°Ģì":11540,"ìķĦê°ĢìĶ¨":11541,"rÃ©t":11542,"ongo":11543,"angkar":11544,"bmhcbmh":11545,"ĠTon":11546,"ĠAmp":11547,"Ġbabak":11548,"Ġusing":11549,"ÐµÐ½":11550,"ĠKesehatan":11551,"Ġdunununu":11552,"Data":11553,"rr":11554,"ĠJumaah":11555,"Ġalit":11556,"ðĿĳ":11557,"Hasil":11558,"isten":11559,"Ġkamana":11560,"ĠPoster":11561,"Ġkontrak":11562,"Ġomongan":11563,"oice":11564,"edÃ©":11565,"Ġrefer":11566,"ublished":11567,"ĠHindu":11568,"Bunga":11569,"Ġsayang":11570,"ĠLian":11571,"Ġ98":11572,"2005":11573,"Ġwatesan":11574,"Kaj":11575,"Ġramo":11576,"Ġkaya":11577,"ĠSor":11578,"ĠÃ¨":11579,"Ġ1997":11580,"Terakhir":11581,"med":11582,"ĠMult":11583,"ĠBollywood":11584,"Ġbox":11585,"Ceuk":11586,"euÃ«k":11587,"ĠKulit":11588,"amoan":11589,"arep":11590,"iller":11591,"ĠdongÃ©ng":11592,"Ġbrow":11593,"atani":11594,"aturkeun":11595,"ĠÃīkonomi":11596,"Ġngadukung":11597,"Ġhambalan":11598,"kam":11599,"sunda":11600,"ĠORIGINAL":11601,"Ġmiharep":11602,"ĠTreatment":11603,"ĠCabang":11604,"Ġsusah":11605,"ĠSimkuring":11606,"Ġnyiapkeun":11607,"FO":11608,"adda":11609,"tao":11610,"ĠpencÃ©t":11611,"Bag":11612,"Ġtentara":11613,"ĠSejarah":11614,"ilt":11615,"Ġfeed":11616,"umption":11617,"ĠMary":11618,"ĠUmar":11619,"Ġama":11620,"abÄ±":11621,"agaan":11622,"ĠCC":11623,"Ġ360":11624,"ibution":11625,"ĠInsinyur":11626,"Ġimpian":11627,"undut":11628,"ktop":11629,"ĠmÃ©ja":11630,"Ð¾Ð²":11631,"ĠMaranÃ©hanana":11632,"Ġinyana":11633,"Ġ1945":11634,"ĠKunci":11635,"ĠKitab":11636,"ĠGag":11637,"ĠBarudak":11638,"ĠFruity":11639,"ĠLeaflet":11640,"hanc":11641,"title":11642,"Ġug":11643,"Ġnor":11644,"encan":11645,"ĠJamnagar":11646,"Sku":11647,"UE":11648,"Ġreb":11649,"Ġagt":11650,"Ġnikki":11651,"ĠRakyat":11652,"ĠLag":11653,"Ġmenu":11654,"Tempat":11655,"rab":11656,"vasna":11657,"Ġdoc":11658,"Ġadministrasi":11659,"Ġpanggih":11660,"abÃ©h":11661,"ĠRaw":11662,"Ġspasi":11663,"ÐµÐ»":11664,"AWA":11665,"Ġpeople":11666,"sen":11667,"ahaha":11668,"ĠPun":11669,"Ġngembang":11670,"ĠMasjid":11671,"ĠCikarang":11672,"Angg":11673,"Ġpitulung":11674,"ĠJASA":11675,"Ġflor":11676,"ĠVers":11677,"efore":11678,"Ġembung":11679,"tapi":11680,"Ġhair":11681,"Ġ86":11682,"ĠZaitun":11683,"eaker":11684,"tip":11685,"Ġhudang":11686,"Ġpanar":11687,"Ġtao":11688,"Ġngamangpaatkeun":11689,"upsi":11690,"Ġorder":11691,"ĠAward":11692,"Ġlisan":11693,"Ġpangab":11694,"quest":11695,"ĠItem":11696,"ĠWed":11697,"ĠEropa":11698,"ĠAsep":11699,"Ġbabar":11700,"Mac":11701,"UST":11702,"ĠModern":11703,"Ġpepelakan":11704,"Ġalternatif":11705,"Ġingg":11706,"ungkus":11707,"Ġsedih":11708,"Ġbuta":11709,"Ġsifat":11710,"180":11711,"ĠÃ©tÃ©":11712,"Ġpannaka":11713,"Ġgan":11714,"Ġgem":11715,"Ġrit":11716,"Ġmotif":11717,"Ġsom":11718,"agem":11719,"ilities":11720,"Ġmerupakan":11721,"rasÄ±":11722,"ĠCentral":11723,"Ġasi":11724,"alla":11725,"versi":11726,"Ġkeuk":11727,"Ġngen":11728,"ĠHo":11729,"ashtra":11730,"upaning":11731,"Ġnumutkeun":11732,"ĠFR":11733,"Ġbatin":11734,"Ġkampus":11735,"ĠSonrasÄ±":11736,"Ġimb":11737,"Ġtari":11738,"ayangkeun":11739,"Ġjackpot":11740,"Ġanimasi":11741,"ĠHor":11742,"Ġpalebah":11743,"Ġcontrol":11744,"BI":11745,"Ġrambut":11746,"yaan":11747,"intage":11748,"ATE":11749,"ĠMicro":11750,"Ġpower":11751,"ĠSta":11752,"ungtik":11753,"Ġtahu":11754,"ĠrÃ©siko":11755,"Ġmaan":11756,"ĠDad":11757,"Gen":11758,"Nomor":11759,"ĠHanj":11760,"2004":11761,"akkel":11762,"Ġsuntik":11763,"Ð³":11764,"Ġphotograp":11765,"uduna":11766,"Ġdirty":11767,"ĠMinuman":11768,"Ġdesi":11769,"Address":11770,"Ġmilfhunter":11771,"Ġnging":11772,"mos":11773,"wear":11774,"ĠSigana":11775,"ĠHil":11776,"udd":11777,"irlines":11778,"ĠMESIN":11779,"Bandung":11780,"Ġnangg":11781,"igin":11782,"Ġmaksimum":11783,"Semalt":11784,"Net":11785,"Ġtangerang":11786,"Ġtropis":11787,"Ġnyaah":11788,"hur":11789,"idge":11790,"izer":11791,"ilat":11792,"utuhkeun":11793,"Ġkatukang":11794,"Ġmanajer":11795,"HS":11796,"Ã©ang":11797,"ĠStudio":11798,"INI":11799,"Ġngadon":11800,"ĠlagÃ©e":11801,"Oh":11802,"Sam":11803,"Ul":11804,"ĠPariwisata":11805,"ĠKAL":11806,"ĠServer":11807,"ĠAngkatan":11808,"sia":11809,"Ġkayak":11810,"Ġdiseb":11811,"CTV":11812,"Ġtablet":11813,"Ġperson":11814,"ĠDirÃ©ktur":11815,"ĠBaby":11816,"ĠInstitute":11817,"ĠIndustrial":11818,"Mon":11819,"Pel":11820,"ONES":11821,"Dj":11822,"ayoran":11823,"terest":11824,"ubby":11825,"map":11826,"Ġà®":11827,"ective":11828,"ival":11829,"ĠBONUS":11830,"IAL":11831,"RT":11832,"Ġsite":11833,"ĠOFF":11834,"endak":11835,"Ġnikmat":11836,"Ġbelas":11837,"ĠBug":11838,"ĠLangsung":11839,"UND":11840,"ĠSwiss":11841,"ĠSecurity":11842,"Ġteks":11843,"Ġver":11844,"ojo":11845,"Ġlini":11846,"Ġngangkat":11847,"ĠChuridar":11848,"ubi":11849,"ĠPerm":11850,"ULA":11851,"ĠSingapura":11852,"Ġwawancara":11853,"ĠPab":11854,"Ġlew":11855,"ĠLayanan":11856,"ĠInformasi":11857,"ĠEngine":11858,"lothes":11859,"ĠBangkok":11860,"AZ":11861,"iap":11862,"quip":11863,"Tepas":11864,"pasan":11865,"arung":11866,"Ġpage":11867,"naon":11868,"omo":11869,"ĠFirst":11870,"Ø§Ø":11871,"Ġraray":11872,"ĠMerah":11873,"ematika":11874,"Ġtimbul":11875,"Ġkemb":11876,"Ġtungg":11877,"Ġmadu":11878,"andy":11879,"ĠGubernur":11880,"ĠImah":11881,"itkeun":11882,"ĠKAB":11883,"ĠBangsa":11884,"ujug":11885,"Ġ62":11886,"Ġsababna":11887,"Ġtatangkalan":11888,"brand":11889,"Ġosok":11890,"Card":11891,"Desi":11892,"Ġrump":11893,"ĠStyle":11894,"Info":11895,"ELL":11896,"Pant":11897,"åı":11898,"ĠMaya":11899,"ĠBac":11900,"engahan":11901,"angkala":11902,"Ġpalanggan":11903,"Ġpanjangna":11904,"jamahkeun":11905,"ĠTang":11906,"ĠDES":11907,"ocor":11908,"anium":11909,"Ġplus":11910,"Ġpictures":11911,"amid":11912,"abkeun":11913,"anggakeun":11914,"ĠajÃ©n":11915,"Kabupat":11916,"Book":11917,"Lowongan":11918,"Pop":11919,"Ð¼":11920,"ĠKalam":11921,"Ġbeja":11922,"ici":11923,"ĠAcÃ¨h":11924,"Ġsetelan":11925,"vap":11926,"umur":11927,"acional":11928,"ĠMilf":11929,"Ġkompetisi":11930,"Ġdakw":11931,"Ġtatu":11932,"ĠBead":11933,"ĠBakal":11934,"ĠAmb":11935,"Ġ978":11936,"Sy":11937,"Ġkuw":11938,"Ġsalapan":11939,"Pu":11940,"Ġmalam":11941,"ĠkapÃ©r":11942,"BL":11943,"Ġkula":11944,"isaran":11945,"olf":11946,"ĠWi":11947,").[":11948,"hyang":11949,"ĠMusik":11950,"Ġnovel":11951,"aktif":11952,"ajinan":11953,"ontak":11954,"ĠâĪ":11955,"Ġngaronjat":11956,"ĠBaca":11957,"ĠGreat":11958,"Ġinuman":11959,"ifold":11960,"Ġoutdoor":11961,"ĠFoto":11962,"ATS":11963,"ĠâĹı":11964,"Ġkapasitas":11965,"Pus":11966,"Sen":11967,"ĠstÃ©roid":11968,"Ġ[âĢ¦]":11969,"frastruktur":11970,"akah":11971,"Ġningkat":11972,"Bahasa":11973,"SL":11974,"ges":11975,"ĠPulau":11976,"ĠRing":11977,"ehun":11978,"Ġkasad":11979,"Ġsubway":11980,"Ġsignif":11981,"Ġkecil":11982,"Ġmaksudna":11983,"Ġtwo":11984,"sare":11985,"Ġtampilan":11986,"Ġlife":11987,"unjung":11988,"iyang":11989,"âĢ¦âĢ¦âĢ¦âĢ¦âĢ¦âĢ¦âĢ¦âĢ¦":11990,"bazaar":11991,"ĠrÃ©g":11992,"Ġ:*:":11993,"Ġ105":11994,"Ġtatangga":11995,"Ġmabalin":11996,"Ġmuterkeun":11997,"ĠAyakkabÄ±":11998,"kum":11999,"ĠTAMAN":12000,"ĠLampung":12001,"Ġadv":12002,"ĠING":12003,"gp":12004,"jin":12005,"Ġmampuh":12006,"Ġdiasupkeun":12007,"Ġrank":12008,"ĠLima":12009,"Ġident":12010,"ĠBub":12011,"icas":12012,"Ġngarop":12013,"Ġtuh":12014,"Ġmony":12015,"ĠVari":12016,"Ġtahap":12017,"Ġpidato":12018,"ĠnÃ©g":12019,"ĠTai":12020,"Ġgram":12021,"Ġkamerd":12022,"pto":12023,"ĠMI":12024,"Ġrarancang":12025,"ĠRod":12026,"Ġnyep":12027,"Ġthumb":12028,"Ġpej":12029,"ĠAsi":12030,"Ġjunction":12031,"edug":12032,"ĠHus":12033,"AHAN":12034,"Hand":12035,"ORE":12036,"Ġpoly":12037,"Ġrequir":12038,"Ġpemasok":12039,"ĠPublic":12040,"ĠAda":12041,"trik":12042,"Ġditur":12043,"ĠTerb":12044,"kad":12045,"ĠWis":12046,"Ġ:)":12047,"Ġkamekaran":12048,"Ġngadadak":12049,"âĤ¬âĦ¢":12050,"Ġinstall":12051,"Ġkunaon":12052,"Kul":12053,"ĠNat":12054,"ĠRen":12055,"Ġâľ":12056,"115":12057,"Ġcarpon":12058,"ĠRus":12059,"ARE":12060,"lier":12061,"ĠMuseum":12062,"ĠImam":12063,"ĠprodusÃ©n":12064,"Ġprinted":12065,"[[":12066,"quard":12067,"rep":12068,"yal":12069,"ĠÃ©wan":12070,"Ġbun":12071,"Ġhindi":12072,"Ġasak":12073,"ohon":12074,"alaunan":12075,"ingguan":12076,"Ġstone":12077,"Ġhidup":12078,"Ġhilap":12079,"Ġkreatif":12080,"240":12081,"ls":12082,"rujukan":12083,"Ġjogja":12084,"Ġcoat":12085,"Ġconsumption":12086,"Ġmaterial":12087,"Ġratusan":12088,"firmasi":12089,"ĠCis":12090,"under":12091,"Ġalias":12092,"Ġmasang":12093,"antenna":12094,"Ġnalungtik":12095,"Ġpesta":12096,"hai":12097,"andu":12098,"mol":12099,"oin":12100,"pha":12101,"itaan":12102,"ĠjÃ©ntrÃ©":12103,"olia":12104,"Ġappro":12105,"ĠMaria":12106,"ĠUkur":12107,"Ġspesialis":12108,"FR":12109,"Ġtembang":12110,"ectang":12111,"AJA":12112,"Ġnganteurkeun":12113,"Ġlawon":12114,"atiaan":12115,"aken":12116,"amping":12117,"eff":12118,"ĠAdministrasi":12119,"ĠSoft":12120,"ĠPUT":12121,"ĠBodas":12122,"ĠLeutik":12123,"ĠEmbroidery":12124,"Ġlun":12125,"Ġbobogohan":12126,"ĠIlmu":12127,"ĠDelivery":12128,"Kep":12129,"Ġditempo":12130,"ĠDaun":12131,"Ġwhen":12132,"hon":12133,"Ġseja":12134,"ĠTelp":12135,"Mil":12136,"Ã©rÃ©h":12137,"Ġkawajiban":12138,")[":12139,"ground":12140,"tag":12141,"Ġgenah":12142,"Ġsaran":12143,"uding":12144,"ĠYud":12145,"ĠBaris":12146,"Ġbiantara":12147,"Ġuta":12148,"Ban":12149,"Ġtang":12150,"ĠLes":12151,"obe":12152,"ogn":12153,"asao":12154,"Ġmoney":12155,"Gangbang":12156,"girl":12157,"Ġcari":12158,"ĠCV":12159,"ãĢĤ":12160,"ahakeun":12161,"iker":12162,"Ġfinansial":12163,"Ġkandungan":12164,"ĠMeh":12165,"Ġterbaik":12166,"Ġpastikeun":12167,"Ġnembe":12168,"Ġsual":12169,"ĠPIN":12170,"kohol":12171,"Gold":12172,"Key":12173,"iÃ©t":12174,"inat":12175,"into":12176,"ĠDarul":12177,"Eta":12178,"mis":12179,"ĠCost":12180,"ĠGPS":12181,"Ġfast":12182,"ĠTiang":12183,"BM":12184,"Ġsent":12185,"Ġparibasa":12186,"ĠRating":12187,"ĠInf":12188,"ĠEnter":12189,"Ø°":12190,"ĠkÃ©l":12191,"asal":12192,"ĠHyang":12193,"Ġinti":12194,"Ġbelakang":12195,".:":12196,"650":12197,"ĠmÃ©h":12198,"itah":12199,"ĠMÃ©m":12200,"ĠNeng":12201,"Ġwali":12202,"okter":12203,"URL":12204,"achmat":12205,"pu":12206,"Ġstud":12207,"ĠMichael":12208,"Hij":12209,"ĠBany":12210,"Ñħ":12211,"inet":12212,"Ġngari":12213,"ĠIti":12214,"Ġsignifikan":12215,"bor":12216,"Ġris":12217,"Ġstudio":12218,"ĠNyieun":12219,"ĠOrder":12220,"Ġ1996":12221,"ĠGedÃ©":12222,"Ġdaw":12223,"ĠPoint":12224,"ĠrÃ©buan":12225,"itusi":12226,"anjeng":12227,"Ngal":12228,"Ġbandara":12229,"Tin":12230,"itip":12231,"ĠDiw":12232,"Ġgabung":12233,"okerto":12234,"Ġkabudayaan":12235,"ashi":12236,"ĠDang":12237,"ĠFC":12238,"Ġatom":12239,"omotif":12240,"Ġpedah":12241,"Ġrinci":12242,"euwat":12243,"ĠEnc":12244,"Re":12245,"ĠLet":12246,"Shop":12247,"Ġnasib":12248,"æĹ¥":12249,"far":12250,"ulin":12251,"Ġcasino":12252,"ĠCategory":12253,"epikeun":12254,"Ġdipic":12255,"ĠKadua":12256,"ungu":12257,"Ġparah":12258,"Ġdibayar":12259,"ĠSquare":12260,"onc":12261,"ĠWayan":12262,"Ġbeton":12263,"Ġdeungon":12264,"Ġnyumponan":12265,"ĠLalaki":12266,"Ġbogor":12267,"ĠBintang":12268,"ĠRÃ©k":12269,"Ã©bu":12270,"\".\"":12271,"Ġbass":12272,"Ġright":12273,"erea":12274,"Ġmitra":12275,"ĠWH":12276,"Ġsaminggu":12277,"RIB":12278,"uit":12279,"ĠRub":12280,"ĠShort":12281,"Ġpakaian":12282,"kay":12283,"ĠMaca":12284,"ĠHead":12285,"ĠWIB":12286,"Ġkalangkang":12287,"Ġtatar":12288,"ĠSeg":12289,"ĠGre":12290,"Ġkaryawan":12291,"eae":12292,"135":12293,"ĠMadÃ©":12294,"bigosearch":12295,"ĠONL":12296,"ĠSembilan":12297,"Ġadult":12298,"Ġngadeukeutan":12299,"Ngeunaan":12300,"Ġterb":12301,"Ġdibarengan":12302,"Ġboa":12303,"Ġtulis":12304,"Ġsawawa":12305,"ngahubungan":12306,"dang":12307,"Ġngasupkeun":12308,"opo":12309,"Ġtaunan":12310,"aptarkeun":12311,"kuana":12312,"Ġentry":12313,"310":12314,"Ġown":12315,"andangan":12316,"emban":12317,"Ġkabayang":12318,"dia":12319,"ĠFun":12320,"Ġumurna":12321,"Ġhijian":12322,"Ġlanguage":12323,"Bahan":12324,"Nur":12325,"asm":12326,"antÃ©":12327,"Ġterl":12328,"ASS":12329,"ological":12330,"ĠPangeluaran":12331,"Ġexpl":12332,"awaban":12333,"field":12334,"Beranda":12335,"saan":12336,"Ġkanker":12337,"adna":12338,"Anjeunna":12339,"ĠNavy":12340,"PH":12341,"ĠRap":12342,"uzz":12343,"Ġditerbitkeun":12344,"Ġpraktis":12345,"ĠIstana":12346,"ì¤":12347,"agina":12348,"âĢ²":12349,"Ġkameez":12350,"ĠBrit":12351,"Ġsasih":12352,"Ġjujur":12353,"ĠMoal":12354,"ĠDer":12355,"Ã©njo":12356,"eft":12357,"ĠKodeu":12358,"ĠEmbroidered":12359,"ĠDays":12360,"ĠIM":12361,"ĠHE":12362,"paÃ±":12363,"ĠChristmas":12364,"news":12365,"Ġpendekatan":12366,"yid":12367,"inu":12368,"ĠSid":12369,"ĠPast":12370,"ĠTentang":12371,"Ġmanufactur":12372,"Ġditambah":12373,"kg":12374,"peng":12375,"ATION":12376,"ĠAsh":12377,"resi":12378,"ĠTOKO":12379,"ĠSakadang":12380,"Ġsipatna":12381,"ĠNEGERI":12382,"Refer":12383,"TE":12384,"ĠsÃ©":12385,"Ġmid":12386,"Ġlik":12387,"ĠMO":12388,"Ġpamekar":12389,"Ġsuch":12390,"Ġkandel":12391,"Henteu":12392,"oz":12393,"ĠLit":12394,"Ġngaleupaskeun":12395,"ĠSalila":12396,"ission":12397,"ĠGeneral":12398,"rum":12399,"Ġjeuet":12400,"Ġgames":12401,"Ġarab":12402,"Ġadministr":12403,"awen":12404,"ĠNe":12405,"ĠGeun":12406,"alls":12407,"azz":12408,"ĠSakali":12409,"ĠKecil":12410,"Ġlirik":12411,"daya":12412,"Ġmugi":12413,"epos":12414,"Ġfur":12415,"eusan":12416,"extra":12417,"ĠOfficial":12418,"Pap":12419,"Ġcities":12420,"ĠDalem":12421,"Ġinformation":12422,"ĠMIL":12423,"acinta":12424,"awana":12425,"ĠPrab":12426,"ournal":12427,"alui":12428,"Ġhanteu":12429,"ĠIron":12430,"Ġsarana":12431,"Ġpamayaran":12432,"?]":12433,"ĠNini":12434,"Ġdisusun":12435,"Ġ63":12436,"Ġlapangan":12437,"Wilujeng":12438,"Ġtransportasi":12439,"Bimble":12440,"itmen":12441,"ĠNight":12442,"Ġpolaris":12443,"ĠÐ¸":12444,"Ġpajeg":12445,"Ġnutupan":12446,"mot":12447,"Ãĩ":12448,"ĠCita":12449,"ĠLaju":12450,"ĠLajeng":12451,"ĠHI":12452,"ĠGuide":12453,"Off":12454,"onav":12455,"ĠGaza":12456,"udno":12457,"112":12458,"Afr":12459,"ĠPJ":12460,"ĠMÃ©n":12461,"ilding":12462,"ĠDuka":12463,"ĠRoma":12464,"ĠKabÃ©h":12465,"ĠBiasa":12466,"Ġsecond":12467,"idth":12468,"ibr":12469,"Ġags":12470,"ivasi":12471,"ĠKuta":12472,"ĠJesuse":12473,"ĠTog":12474,"ĠGudang":12475,"anyawa":12476,"ĠKosong":12477,"Ġtebih":12478,"Ġcare":12479,"uarter":12480,"ebutkeun":12481,"Ġspam":12482,"Unit":12483,"Ġpertandingan":12484,"Pen":12485,"cum":12486,"Ġsays":12487,"Ġnump":12488,"ĠSangk":12489,"utah":12490,"Ġbalong":12491,"Ġteacher":12492,"ĠmÃ©mÃ©h":12493,"categorized":12494,"Ġkeh":12495,"ĠRE":12496,"Ġkalolobaan":12497,"awanan":12498,"Ġminimum":12499,"Ġsamem":12500,"Ä±r":12501,"Ġmurag":12502,"Ukuran":12503,"ww":12504,"Ġdinding":12505,"Ġsono":12506,"asangan":12507,"Ġbewara":12508,"Ġheran":12509,"ĠJamb":12510,"ties":12511,"Ġmanufaktur":12512,"Ġforum":12513,"ĠRegion":12514,"220":12515,"ĠMulti":12516,"BO":12517,"Ġmalik":12518,"Ġbetah":12519,"figurasi":12520,"Best":12521,"Ġmean":12522,"ayer":12523,"ĠTbk":12524,"Ġcincin":12525,"ĠDia":12526,"ĠBukkake":12527,"ĠSulawesi":12528,"Ġess":12529,"ĠKM":12530,"Ġmasuk":12531,"ĠISO":12532,"view":12533,"inang":12534,"Ġ67":12535,"Ġ79":12536,"ÃŃt":12537,"GH":12538,"ampir":12539,"Ġdadduma":12540,"ycle":12541,"wis":12542,"ĠChapter":12543,"ĠAbang":12544,"Ġtransm":12545,"Ġnyusun":12546,"ĠHawa":12547,"ĠAcara":12548,"Ġkartun":12549,"Ġriwayat":12550,"ikÃ©":12551,"Ġceuli":12552,"ĠgunÃ©":12553,"icingan":12554,"Ġvi":12555,"Ġngarobih":12556,"Ġsampel":12557,"UU":12558,"Ġsanaos":12559,"ahaman":12560,"Ġcep":12561,"ocol":12562,"ÐºÐ°":12563,"ĠRose":12564,"ĠsapoÃ©":12565,"ratch":12566,"ĠSC":12567,"isika":12568,"Ġjaya":12569,"Ġrupi":12570,"ÙĦØ§":12571,"Ġtelevisi":12572,"Ġelec":12573,"$#":12574,"Ġ135":12575,"ĠPeluang":12576,"Mesin":12577,"ĠSUP":12578,"igÃ©n":12579,"unting":12580,"Ġoptim":12581,"Ġformulir":12582,"Category":12583,"Ir":12584,"ĠSL":12585,"Ġacak":12586,"App":12587,"ĠÃ©lÃ©ktronik":12588,"Ġá®":12589,"Ġteng":12590,"ĠSY":12591,"ĠPosted":12592,"rough":12593,"Ġ240":12594,"âĢł":12595,"ijay":12596,"ubahan":12597,"Ġearn":12598,"Af":12599,"AYS":12600,"ĠrÃ©aksi":12601,"Ung":12602,"ison":12603,"iliki":12604,"Ġantarvasna":12605,"Ġaktor":12606,"Ġsira":12607,"ĠSent":12608,"Ġjaba":12609,"ĠMaksud":12610,"ĠLombok":12611,"Ġteut":12612,"rees":12613,"Add":12614,"Band":12615,"Flag":12616,"ĠMoto":12617,"Ġpasualan":12618,"Ã¡t":12619,"Ġsampai":12620,"Ġclit":12621,"*:)":12622,"Ġ((:*:)":12623,"Ġmingpin":12624,"Ġlip":12625,"Ġjit":12626,"Ġcafe":12627,"Ġngadawuh":12628,"Ġbijil":12629,"Jalma":12630,"adai":12631,"ĠFOR":12632,"ĠMakeupMakeup":12633,"ease":12634,"pns":12635,"Ġpengg":12636,"Ġluk":12637,"ulture":12638,"Ġkasuks":12639,"ĠSamsung":12640,"ĠSingle":12641,"Pieces":12642,"Ġdisi":12643,"ungtun":12644,"nikahan":12645,"Ġdomba":12646,"Ġjukut":12647,"ĠCim":12648,"Ġakwi":12649,"ĠSpeed":12650,"ĠSafari":12651,"Ã©os":12652,"ikaman":12653,"ĠTest":12654,"ĠrÃ©l":12655,"Ġ((:+:":12656,"ĠURL":12657,"Ġamateur":12658,"Ġutawi":12659,"Ġ((:+:)":12660,"ĠKut":12661,"ello":12662,"ential":12663,"Ġsublim":12664,"%)":12665,"lain":12666,"zin":12667,"ekelan":12668,"Ġpria":12669,"Ġlogo":12670,"ified":12671,"ineung":12672,"Ġnir":12673,"ĠRupa":12674,"proof":12675,"Ã¢n":12676,"Ġsilaturah":12677,"ekutip":12678,"Ġstatistik":12679,"Ki":12680,"Make":12681,"lagu":12682,"neum":12683,"Ġpitu":12684,"agana":12685,"Ġngagant":12686,"akaian":12687,"Ã¼k":12688,"Ġmultip":12689,"Op":12690,"ked":12691,"Ġisi":12692,"enangkeun":12693,"ĠJew":12694,"002":12695,"ĠGuang":12696,"Ġmarketing":12697,"GGCT":12698,"ĠSabtu":12699,"Arg":12700,"Ġpublik":12701,"Ġnolak":12702,"ĠDev":12703,"ĠLem":12704,"nyanÃ©":12705,"Ġkanyahoan":12706,"xe":12707,"Ġlingk":12708,"Ġmedal":12709,"Ġbug":12710,"away":12711,"Ġgamis":12712,"Ã©rang":12713,"ries":12714,"Ġkenkuana":12715,"Ã©mbong":12716,"Ġtanya":12717,"Ġpuncak":12718,"ASAN":12719,"Ã©wang":12720,"Ġpertama":12721,"Ġsiklus":12722,"ĠpoÃ©k":12723,"Gu":12724,"Ãµ":12725,"abdi":12726,"Ġanggur":12727,"777":12728,"IKA":12729,"Ġseniman":12730,"ìķĦì¤":12731,"Pur":12732,"alasi":12733,"Ġjigana":12734,"Ġnyaman":12735,"Ant":12736,"ĠLaptop":12737,"Äįi":12738,"overnment":12739,"mati":12740,"Įë§Ī":12741,"arÃ©":12742,"Ġngu":12743,"ĠRai":12744,"ĠHijab":12745,"operas":12746,"ĠMaharashtra":12747,"Mel":12748,"Of":12749,"Ġjersey":12750,"ĠWani":12751,"ĠAlkitab":12752,"oorea":12753,"iffon":12754,"ìķĦì¤Įë§Ī":12755,"DD":12756,"wh":12757,"Ġener":12758,"ĠSumb":12759,"Ġrusiah":12760,"Ġfo":12761,"ĠCool":12762,"Ġstreaming":12763,"Ġseru":12764,"ĠKapoor":12765,"taining":12766,"iritual":12767,"Fi":12768,"arap":12769,"ĠBear":12770,"ĠLeave":12771,"Ġve":12772,"Ġdicandak":12773,"Ġujug":12774,"Dua":12775,"ĠSom":12776,"ĠPlaza":12777,"ĠSiti":12778,"arto":12779,"chan":12780,"Ġmax":12781,"Ġdikon":12782,"Ġcaina":12783,"ĠBO":12784,"ĠgÃ©n":12785,"ĠNacional":12786,"otoh":12787,"angkong":12788,"Ġtutorial":12789,"ĠAksara":12790,"Ġjangkungna":12791,"Cor":12792,"web":12793,"ĠGum":12794,"Ġberj":12795,"DJ":12796,"tg":12797,"Ġsertifikasi":12798,"ĠbÃ©dana":12799,"orator":12800,"etakan":12801,"ĠHay":12802,")))":12803,"Ġarea":12804,"ĠLogo":12805,"Pir":12806,"ĠKualitas":12807,"Ġ4000":12808,"Ġsasak":12809,"ĠTaruhan":12810,"ĠSacara":12811,"ĠRebo":12812,"ĠOF":12813,"ĠOng":12814,"ietnam":12815,"kh":12816,"ved":12817,"adir":12818,"Ġhuruf":12819,"ĠAnarkali":12820,"euweung":12821,"Ġ83":12822,"ĠPrincess":12823,"Ġulikan":12824,"ĠFortune":12825,"Ġposted":12826,"ĠKuna":12827,"ĠIsuzu":12828,"ungtungna":12829,"KAOS":12830,"Get":12831,"ĠSik":12832,"ilo":12833,"edir":12834,"ariah":12835,"Ġ***":12836,"UMI":12837,"Property":12838,"pert":12839,"tle":12840,"awu":12841,"ĠTrump":12842,"ĠGROSIR":12843,"Sang":12844,"Ġ!!":12845,"ĠTangk":12846,"uld":12847,"rix":12848,"ĠparÃ©ntah":12849,"Ġtaf":12850,"Ġngadenge":12851,"eudeung":12852,"Ġmapay":12853,"isha":12854,"utus":12855,"Ġwir":12856,"ĠRef":12857,"Ġpernyataan":12858,"Ġmisah":12859,"ĠBerkualitas":12860,"ĠmÃ©l":12861,"Ġcity":12862,"Ġinci":12863,"atures":12864,"ĠNgentot":12865,"ISA":12866,"Ġmengh":12867,"ĠmÃ©akkeun":12868,"alak":12869,"Ġhulu":12870,"ĠCNC":12871,"ĠDating":12872,"istor":12873,"known":12874,"Bur":12875,"tempat":12876,"aren":12877,"Ġtow":12878,"Ġpec":12879,"Ġngeureunkeun":12880,"Ġsaluyu":12881,"rome":12882,"ĠTeluk":12883,"Ġtolay":12884,"lacement":12885,"Ġdiffer":12886,"pus":12887,"ĠPashmina":12888,"Ġlangka":12889,"Remaja":12890,"engna":12891,"ĠFM":12892,"Ġprosedur":12893,"ĠMahasiswa":12894,"ored":12895,"Ġ205":12896,"earning":12897,"ĠarÃ©a":12898,"ĠThomas":12899,"Ġsajumlah":12900,"Ġpamajikanana":12901,"à¥Ģ":12902,"ĠHartina":12903,"Ker":12904,"pikeun":12905,"Ġdampak":12906,"ĠTank":12907,"ĠVI":12908,"angsara":12909,"bert":12910,"uv":12911,"enya":12912,"Ġaneh":12913,"elep":12914,"ĠFut":12915,"riah":12916,"Ġ1980":12917,"lies":12918,"anyoe":12919,"ĠSalam":12920,"ĠYouTube":12921,"ĠCASINO":12922,"Es":12923,"ped":12924,"Ġneundeun":12925,"eler":12926,"antang":12927,"Ġpanyal":12928,"Ġngirimkeun":12929,"Ã©visi":12930,"ĠSoviÃ©t":12931,"Cas":12932,"ĠdÃ©m":12933,"ĠPG":12934,"Ġstills":12935,"ĠElectric":12936,"face":12937,"Ġpasi":12938,"Ġngelah":12939,"apah":12940,"iha":12941,"umbira":12942,"Ġkulawargana":12943,"Ġtraffic":12944,"Ġdisababkeun":12945,"hys":12946,"ĠComment":12947,"ĠBadung":12948,"ĠRadÃ©n":12949,"entingna":12950,"ĠCrystal":12951,"Can":12952,"bangan":12953,"rahan":12954,"Ġkadali":12955,"Ġpupuh":12956,"BAR":12957,"ĠBT":12958,"ĠFe":12959,"Ġngajarkeun":12960,"Ġkawih":12961,"mand":12962,"rent":12963,"ngaran":12964,"ĠSens":12965,"etic":12966,"ipur":12967,"ĠANU":12968,"Hayu":12969,"rental":12970,"Ġbra":12971,"ĠMb":12972,"Ġotak":12973,"ysis":12974,"ĠSut":12975,"utes":12976,"Ġrail":12977,"ĠpamÃ©nta":12978,"Ġrok":12979,"ĠÃ©c":12980,"å®":12981,"Ġkg":12982,"ĠKain":12983,"Ġngabahas":12984,"Ġwarsih":12985,"Save":12986,"ĠfrÃ©kuÃ©nsi":12987,"ĠPapua":12988,"Ġmunding":12989,"Green":12990,"Ġtay":12991,"ĠStud":12992,"Ġmilari":12993,"Ġbalar":12994,"ĠManusa":12995,"ĠKaamanan":12996,"Stock":12997,"ĠInten":12998,"Ġworldsex":12999,"ĠUcapan":13000,"los":13001,"iting":13002,"ĠDagiti":13003,"Ġsakedik":13004,"Ġkaraton":13005,"ĠTaikaman":13006,"eau":13007,"áĥĲ":13008,"ĠleÃº":13009,"ĠBanglad":13010,"kata":13011,"ĠMonday":13012,"ĠDef":13013,"Ġpolah":13014,"itemap":13015,"ĠRatna":13016,"ĠyÃ©":13017,"Ġparanti":13018,"ĠMarket":13019,"Ġdigawe":13020,"Ġrelevan":13021,"ĠPurwakarta":13022,"well":13023,"ints":13024,"Ġ76":13025,"uweuh":13026,"Ġgunana":13027,"Ġbungkusan":13028,"RS":13029,"hijab":13030,"uno":13031,"Ġcang":13032,"Ġcover":13033,"ĠRasa":13034,"ĠGT":13035,"Ġrespon":13036,"Ġps":13037,"ĠMS":13038,"ĠMust":13039,"ĠFot":13040,"ĠMey":13041,"empang":13042,"#$":13043,"350":13044,"Dinten":13045,"aptaran":13046,"Ġdeb":13047,"Ġbangs":13048,"ĠDani":13049,"ĠðŁĺ":13050,"Ã©rsial":13051,"ĠtÃ©m":13052,"ĠMex":13053,"'''":13054,"Ġmovie":13055,"Ġkilometer":13056,"vens":13057,"ĠSMPN":13058,"mudahan":13059,"but":13060,"Ġngantosan":13061,"ĠRental":13062,"Ġterd":13063,"Ġsmartphone":13064,"210":13065,"Ø´":13066,"Ġkersa":13067,"Anal":13068,"ĠØª":13069,"ĠDongeng":13070,"ĠpangajÃ©n":13071,"Ġhutang":13072,"eto":13073,"Ġkala":13074,"avi":13075,"ĠAyu":13076,"Ġmaya":13077,"Ġalungan":13078,"eryogikeun":13079,"Ġberesih":13080,"eater":13081,"hos":13082,"Ġshe":13083,"Ġjat":13084,"utung":13085,"Ġtapak":13086,"Size":13087,"lami":13088,"igation":13089,"unduh":13090,"AGCC":13091,"Row":13092,"ĠMaterial":13093,"ĠmusÃ©":13094,"ensa":13095,"Ġkav":13096,"ATCT":13097,"Ġthumbs":13098,"ORD":13099,"elle":13100,"ĠJEUNG":13101,"rs":13102,"åħ":13103,"akes":13104,"Ġhebat":13105,"ĠHealth":13106,"Ã©dakeun":13107,"Ġsayogi":13108,"Ġnuduhkeun":13109,"Ġyuswa":13110,"ĠNÃ©ng":13111,"AYU":13112,"Ġyakwa":13113,"Ġmakeumakeup":13114,"RC":13115,"Ġhay":13116,"ulas":13117,"icles":13118,"ipping":13119,"Ġâĺħ":13120,"impinan":13121,"Ġkantun":13122,"ĠToday":13123,"Ġ320":13124,"Ġpanah":13125,"alametkeun":13126,"Ġudara":13127,"ĠTumbu":13128,"Ġkabeneran":13129,"jaiibcaiib":13130,"sah":13131,"nga":13132,"eger":13133,"ĠAlatan":13134,"Ġpangrojong":13135,"Ġsaurna":13136,"ĠMataram":13137,"xBet":13138,"onim":13139,"ĠNah":13140,"ĠNatal":13141,"egn":13142,"ubungkeun":13143,"ĠCic":13144,"onstr":13145,"EMP":13146,"ĠFrank":13147,"ĠDokter":13148,"JANG":13149,"trim":13150,"Ġ74":13151,"ĠPlayer":13152,"ĠCumshot":13153,"ÑģÐºÐ¸":13154,"hin":13155,"Ġkeud":13156,"ĠTos":13157,"ĠMakanan":13158,"Kol":13159,"ungguh":13160,"Ġbikin":13161,"Bo":13162,"unikasi":13163,"ĠCob":13164,"operasi":13165,"Ġvitamin":13166,"iwatan":13167,"Asian":13168,"Ġcool":13169,"ĠMans":13170,"ĠFile":13171,"Ġald":13172,"ĠAmoorea":13173,"ĠANAK":13174,"ĠBUK":13175,"upama":13176,"Ġfeat":13177,"Ġsabun":13178,"Ġdigambarkeun":13179,"laih":13180,"ĠBagus":13181,"ĠPinterest":13182,"ĠAssociation":13183,"Alan":13184,"oes":13185,"uana":13186,"unes":13187,"Ġdif":13188,"ĠMAS":13189,"Ġdipar":13190,"Ġislam":13191,"Ġlainnya":13192,"320":13193,"inese":13194,"Ġkado":13195,"Ġkakurangan":13196,"utiara":13197,"ĠSpring":13198,"ĠPon":13199,"Ġngawas":13200,"ukun":13201,"ĠLion":13202,"Ġtig":13203,"ĠVill":13204,"OND":13205,"Ġsmall":13206,"Simp":13207,"hire":13208,"Ġdemi":13209,"akak":13210,"Ġngec":13211,"utasi":13212,"ĠJep":13213,"ĠCarolina":13214,"fort":13215,"Ġjaket":13216,"ĠPanon":13217,"ĠKangjeng":13218,"Ġpembuatan":13219,"ĠPayung":13220,"sul":13221,"sari":13222,"Ġpek":13223,"ĠWr":13224,"eupna":13225,"Ġpercanten":13226,"ĠED":13227,"Ġ84":13228,"Ġinvest":13229,"ĠaspÃ©k":13230,"band":13231,"bob":13232,"Ġgejala":13233,"à¸Ļ":13234,"Ġtaktak":13235,"Ġ021":13236,"Ġsebar":13237,"Diposting":13238,"onavirus":13239,"kont":13240,"eungeut":13241,"ĠGP":13242,"empor":13243,"imbing":13244,"Dupi":13245,"Ġsehat":13246,"ĠBik":13247,"ĠBull":13248,"ĠListrik":13249,"Ġaz":13250,"Ġ1995":13251,"ĠTaikamanua":13252,"Name":13253,"yoe":13254,"ĠTÃ©mbongkeun":13255,"riw":13256,"ĠVIP":13257,"Ġdasarna":13258,"Ġjurig":13259,"ĠNetwork":13260,"ĠMori":13261,"Ġcipta":13262,"Ġditoy":13263,"Ġparameter":13264,"HOME":13265,"lal":13266,"Ġpesenan":13267,"Ġmuatan":13268,"End":13269,"Saj":13270,"hum":13271,"ĠBeb":13272,"ĠBÃ©l":13273,"ĠprÃ©sidÃ©n":13274,"Ġbalap":13275,"Ġtattao":13276,"airport":13277,"Ġsungut":13278,"720":13279,"BK":13280,"Buku":13281,"Ġmacam":13282,"ĠBÃ©bas":13283,"Ġfriend":13284,"ĠCheck":13285,"ĠManagement":13286,"ĠTermurah":13287,"Jang":13288,"ĠNaga":13289,"ĠVilla":13290,"lie":13291,"Ġmalaysia":13292,"Ġkorea":13293,"Ġorganik":13294,"ĠToyota":13295,".âĢľ":13296,"oster":13297,"artai":13298,"Ġindo":13299,",,,,":13300,"TAN":13301,"Ġsop":13302,"ĠNA":13303,"Ġmakam":13304,"190":13305,"ĠAct":13306,"ĠDrs":13307,"IMB":13308,"ingpinan":13309,"ĠCorpor":13310,"[]":13311,"lakeun":13312,"sor":13313,"Ġperman":13314,"inted":13315,"Ġpageuh":13316,"ĠAfrica":13317,"ĠAbdullah":13318,"Posts":13319,"ĠCig":13320,"Ġngawitan":13321,"oooo":13322,"Log":13323,"Ġaub":13324,"ĠEL":13325,"ĠAnj":13326,"Ġaksi":13327,"Ġdijelaskeun":13328,"ĠBUMN":13329,"tak":13330,"warna":13331,"ĠRaf":13332,"Ġjerona":13333,"ĠPresiden":13334,"sana":13335,"apÃ©":13336,"Ġpanongton":13337,"Ġcarats":13338,"ĠPangÃ©ran":13339,"Ġknow":13340,"ĠKodepos":13341,"ĠINDONES":13342,"irakeun":13343,"acter":13344,"upay":13345,"ibo":13346,"Gl":13347,"Ġjin":13348,"olongkeun":13349,"ANGOR":13350,"ization":13351,"Ġantuk":13352,"imalkeun":13353,"Nas":13354,"Ġpub":13355,"eungh":13356,"Ġprec":13357,"ĠAgus":13358,"Ġpillow":13359,"ĠMend":13360,"angku":13361,"API":13362,"Ġibukota":13363,"ĠramÃ©":13364,"unot":13365,"Ġngitung":13366,"apul":13367,"Ġsatuluyna":13368,"Ġembroid":13369,"Ġbacaan":13370,"GE":13371,"ĠDevel":13372,"integ":13373,"adow":13374,"Ġthese":13375,"Ġmais":13376,"ĠÐ½":13377,"Ġmiskin":13378,"Ġrajut":13379,"visi":13380,"ĠBayan":13381,"abak":13382,"Ġkuant":13383,"ijah":13384,"Ġromb":13385,"kecap":13386,"tit":13387,"Ġpsik":13388,"Ġnah":13389,"adÃ©":13390,"Ġnae":13391,"code":13392,"saw":13393,"ajukeun":13394,"antrÃ©n":13395,"...]":13396,"ĠYÃ©h":13397,"Ph":13398,"just":13399,"Ġneuleuman":13400,"Ġperawatan":13401,"ĠDaud":13402,"angkalih":13403,"watch":13404,"Ġkangg":13405,"Ġling":13406,"ĠMIN":13407,"Ġreureuh":13408,"trak":13409,"Ġkaleungitan":13410,"Ġpipe":13411,"SMKS":13412,"Land":13413,"ĠPA":13414,"Ġrea":13415,"ĠVen":13416,"ĠManglÃ©":13417,"Ġbes":13418,"Ġburu":13419,"eluk":13420,"ĠGround":13421,"ikanya":13422,"Inf":13423,"ĠdokumÃ©n":13424,"awanohkeun":13425,"display":13426,"ĠIslands":13427,"Ġtext":13428,"Ġdiaku":13429,"Ġreueus":13430,"ĠHayang":13431,"ĠManch":13432,"Ġulama":13433,"ĠSaham":13434,"ĠHardcore":13435,"%.":13436,"ĠKana":13437,"ĠLingkungan":13438,"ĠRs":13439,"Ġngajar":13440,"Ġmusim":13441,"ÙĲÙĳ":13442,"Ġtransaksi":13443,"Ġmaps":13444,"hol":13445,"hod":13446,"pass":13447,"ĠKy":13448,"ĠMOD":13449,"udai":13450,"deer":13451,"áĥĺ":13452,"Bas":13453,"á¸":13454,"Ġsms":13455,"trans":13456,"Ġdados":13457,"ĠtÃ©mbok":13458,"Gr":13459,"èª":13460,"Ġbusty":13461,"ayeuna":13462,"antangan":13463,"IRO":13464,"Ġnyumput":13465,"Ġnyingkahan":13466,"September":13467,"ĠBubuk":13468,"Ġkalung":13469,"ĠBible":13470,"Jal":13471,"mag":13472,"rb":13473,"Ġpeu":13474,"olution":13475,"Ġinovasi":13476,"ĠUnpad":13477,"Ġkomitmen":13478,"Ġpatalina":13479,"Ġdirections":13480,"ĠMadrid":13481,"iara":13482,"Ġalong":13483,"ĠÃĥ":13484,"Ġngaganggu":13485,"ĠtatanÃ©n":13486,"Kor":13487,"kÃ©n":13488,"ĠsÃ©p":13489,"Ġtype":13490,"Ġwakw":13491,"Ġditet":13492,"ĠZari":13493,"ĠnoÄįi":13494,"Grosir":13495,"Ġsingk":13496,"ĠbÃ©b":13497,"Ġranjang":13498,"ĠJogja":13499,"Ġsiah":13500,"ĠCancel":13501,"ĠDiamond":13502,"urt":13503,"Ġmanc":13504,"Ġ73":13505,"eunteung":13506,"Ã©ga":13507,"eresna":13508,"ĠmÃ©nÃ©":13509,"Numutkeun":13510,"Pd":13511,"metik":13512,"iluan":13513,"ĠHum":13514,"ĠIni":13515,"Ġ128":13516,"Ġopen":13517,"rt":13518,"sku":13519,"Ġ_":13520,"Ġnanj":13521,"Ġnamina":13522,"ĠBatang":13523,"Ġdiperyogikeun":13524,"acking":13525,"Ġstyle":13526,"ĠkadÃ©ngÃ©":13527,"Ġapartment":13528,"Ð¾Ð½":13529,"ĠPidato":13530,"ependent":13531,"ĠKala":13532,"ĠUT":13533,"ewah":13534,"indu":13535,"ĠKarakter":13536,"Ġkamampuan":13537,"Ġparipolah":13538,"Ġmens":13539,"ĠIsk":13540,"Val":13541,"aing":13542,"bulan":13543,"Ġmeuj":13544,"resh":13545,"Ġbawah":13546,"ĠSea":13547,"Ġ225":13548,"Ġraos":13549,"Ġrentang":13550,"Ġfa":13551,"ĠÃīditan":13552,"Dep":13553,"ĠJieun":13554,"juangan":13555,"Ġmurni":13556,"Ġcup":13557,"Ġfans":13558,"Ġpanags":13559,"Ġsaf":13560,"ĠProvinsi":13561,"Ġ97":13562,"AKK":13563,"Ġkanyataanana":13564,"Fl":13565,"kb":13566,"ĠMadu":13567,"ĠHab":13568,"indiran":13569,"Ġngalaporkeun":13570,"Ġngabuktikeun":13571,"ustunganana":13572,"Ġberl":13573,"ilihat":13574,"ĠReviewed":13575,"Dong":13576,"SK":13577,"imbar":13578,"Ġakadem":13579,"Ġplant":13580,"ĠGlass":13581,"Ger":13582,"ĠkÃ©p":13583,"Ġjung":13584,"ĠBun":13585,"Ġ(*":13586,"Ã©kat":13587,"OMB":13588,"nama":13589,"ĠtÃ¨h":13590,"aham":13591,"Ġposts":13592,"HER":13593,"life":13594,"Ġsmp":13595,"ĠtÃ©l":13596,"ĠPEL":13597,"ĠCCTV":13598,"ĠEt":13599,"ĠExpo":13600,"Ġdiwanoh":13601,"ĠCasual":13602,"operasikeun":13603,"Ġsew":13604,"Ã¨e":13605,"Ġbeban":13606,"ptoc":13607,"Ġfavorit":13608,"Ba":13609,"Ġupamana":13610,"Ġkeluarga":13611,"Ġgugur":13612,"Ġjanji":13613,"ebak":13614,"Online":13615,"ĠONLINE":13616,"Mak":13617,"Ġnil":13618,"ades":13619,"Ġsaenyana":13620,"Ġpersis":13621,"Ġremix":13622,"Ġlengan":13623,"ĠDÃ©":13624,"Ġgil":13625,"Ġdevel":13626,"Ġkawat":13627,"Ġjeruk":13628,"Ġsuplai":13629,"bir":13630,"ĠMid":13631,"Ġcalan":13632,"change":13633,"ĠShenzhen":13634,"Ġulian":13635,"Ġmetal":13636,"ĠAnalytics":13637,"Ġdor":13638,"ĠDollar":13639,"ĠRug":13640,"icine":13641,"indahan":13642,"abrics":13643,"ĠSerat":13644,"ĠPis":13645,"Ġngungk":13646,"upus":13647,"istic":13648,"ĠKurikulum":13649,"Barang":13650,"orowok":13651,"ilation":13652,"Ã©ktrum":13653,"265":13654,"hb":13655,"Ġpeug":13656,"ĠBos":13657,"omongkeun":13658,"ĠGrow":13659,"ĠWali":13660,"ĠVoos":13661,"Ġaddress":13662,"oueur":13663,"ĠParah":13664,"ULL":13665,"ĠBatara":13666,"Group":13667,"Ġkara":13668,"ĠNaz":13669,"ĠLim":13670,"ĠLowongan":13671,"ĠPros":13672,"Ġbrings":13673,"Reply":13674,"ĠMeunang":13675,"ĠBoy":13676,"anteng":13677,"ĠInformation":13678,"Che":13679,"IO":13680,"hab":13681,"ĠLei":13682,"trac":13683,"AST":13684,"Ġsawar":13685,"Ġpangguna":13686,"ĠPatih":13687,"Search":13688,"Ġjog":13689,"ĠKend":13690,"arani":13691,"ugem":13692,"loween":13693,"Ġditeundeun":13694,"Ġsasatoan":13695,"ĠPDF":13696,"Ġig":13697,"Ġscr":13698,"Ġgoal":13699,"yai":13700,"hatikeun":13701,"Bang":13702,"bin":13703,"aden":13704,"imbag":13705,"ĠtÃ©tÃ©":13706,"Loba":13707,"ngal":13708,"ĠSO":13709,"Ġacai":13710,"IRT":13711,"Ġbuana":13712,"Ġbodo":13713,"ĠlisÃ©nsi":13714,"Ġmegatkeun":13715,"rem":13716,"ĠJin":13717,"head":13718,"Ġmanjang":13719,"ooth":13720,"ĠdÃ©wÃ©k":13721,"PAN":13722,"Ġkenc":13723,"Ġcengk":13724,"Ġaset":13725,"ĠSky":13726,"Ġkepala":13727,"ĠBoh":13728,"ilit":13729,"Ġrame":13730,"osition":13731,"ĠPalace":13732,"ĠpersÃ©n":13733,"ĠpidÃ©o":13734,"Ġnetepkeun":13735,"Ġcikarang":13736,"Ġbranded":13737,"Ġmigunakeun":13738,"ĠSya":13739,"aping":13740,"Ġindah":13741,"Ġakurat":13742,"Ġnapsu":13743,"Ket":13744,"ĠGab":13745,"ompet":13746,"ĠwelÃ©h":13747,"blogspot":13748,"arÃ©n":13749,"Ġleub":13750,"Ġgusti":13751,"lov":13752,"Ġkadar":13753,"ĠTraining":13754,"Ġlemak":13755,"ĠMoney":13756,"edirectory":13757,"230":13758,"joy":13759,"Ġtema":13760,"apatan":13761,"Ġruksak":13762,"ĠLimited":13763,"tract":13764,"Ġsaling":13765,"ĠXVS":13766,"ĠÃ©tÃ©w":13767,"BAN":13768,"dasar":13769,"ĠkÃ©m":13770,"Ġbenang":13771,"ikaan":13772,"oleh":13773,"erst":13774,"Kantor":13775,"Ã©nia":13776,"ipi":13777,"Ġupdate":13778,"ĠSumatra":13779,"Ġsendiri":13780,"Ġobserv":13781,"Nagara":13782,"PE":13783,"ĠÑĤ":13784,"Ġgajah":13785,"enger":13786,"Ġmarket":13787,"Anak":13788,"ĠMedical":13789,"adhan":13790,"ĠAYA":13791,"Ġlast":13792,"Ġnaik":13793,"Ġbusiness":13794,"====":13795,"wari":13796,"ĠdÃ©s":13797,"Ġseh":13798,"Ġbanj":13799,"Ġbsd":13800,"ĠSatur":13801,"aborasi":13802,"ayaat":13803,"Ġyear":13804,"Ġterminal":13805,"ĠSarimbit":13806,"ĠKuat":13807,"video":13808,"ukin":13809,"astur":13810,"Il":13811,"Ã®":13812,"ÙĢ":13813,"urup":13814,"acu":13815,"ĠkarÃ©t":13816,"come":13817,"Ġsubuh":13818,"Ġdoes":13819,"Ġ1992":13820,"alungtikan":13821,"ĠbÃ©ja":13822,"akum":13823,"Ġngudag":13824,"Ġngokolakeun":13825,"Ã©nkeun":13826,"Ġkasih":13827,"Ġsaacan":13828,"arket":13829,"Telepon":13830,"ĠEkstra":13831,"John":13832,"Ġ×":13833,"Ġrebu":13834,"ĠEp":13835,"asiat":13836,"Ġ1994":13837,"Ġlibur":13838,"ĠWat":13839,"ĠDÃ©wan":13840,"Ġkendaraan":13841,"sunami":13842,"Mah":13843,"juna":13844,"amaan":13845,"ĠSumbang":13846,"ĠTable":13847,"Ġgreen":13848,"Ġekonomi":13849,"Kasino":13850,"à±":13851,"ģ£":13852,"ĠAlum":13853,"Ġsublimedirectory":13854,"uas":13855,"ĠBUNG":13856,"Ã©kah":13857,"stad":13858,"euÃ«n":13859,"abalin":13860,"ĠCenah":13861,"ĠRON":13862,"ĠOk":13863,"Ġbuuk":13864,"ĠPetir":13865,"Ġpeluang":13866,"Ġtaler":13867,"wo":13868,"ikh":13869,"angkah":13870,"Ġchar":13871,"awancara":13872,"ĠFurniture":13873,"ĠAnug":13874,"ĠAkun":13875,"KK":13876,"zuki":13877,"Ġdas":13878,"ASH":13879,"ĠÃ©lÃ©h":13880,"hoot":13881,"Ġpanalungtik":13882,"Ġkabupaten":13883,"Ġled":13884,"ĠGIS":13885,"udian":13886,"eheh":13887,"Ġkalina":13888,"erson":13889,"ually":13890,"Ġoray":13891,"Ġneed":13892,"ĠKeu":13893,"ĠNasi":13894,"Ġ3000":13895,"Ġdidatangan":13896,"]],":13897,"injeum":13898,"Ġngapung":13899,"Kel":13900,"Para":13901,"how":13902,"amen":13903,"ĠSanj":13904,"Ġdipang":13905,"Ġparentah":13906,"ABI":13907,"Ġkurban":13908,"ä¸Ń":13909,"Ġjejer":13910,"Ġcondong":13911,"ĠMIC":13912,"Ġnyawa":13913,"Ġaustralia":13914,"Ġparahu":13915,"Ġdituturkeun":13916,"Ġpasaran":13917,"urnal":13918,"Ġkure":13919,"visualCol":13920,"visualRow":13921,"ĠTay":13922,"ogen":13923,"Ġkabur":13924,"ĠCheat":13925,"Ġkani":13926,"Ġmaturan":13927,"andan":13928,"Ġ{\\":13929,"Ġconcert":13930,"leg":13931,"Ġ000":13932,"ahatan":13933,"Ġnget":13934,"ĠNin":13935,"Ġwhere":13936,"Ġkarang":13937,"ĠUncategorized":13938,"Ġdibagikeun":13939,"ports":13940,"Ġsolo":13941,"ĠRoom":13942,"elumnya":13943,"Ġkeukeuh":13944,"&#":13945,"lap":13946,"ä»":13947,"ĠSU":13948,"ĠVar":13949,"Ġmail":13950,"Ġteka":13951,"Ġkasaimbangan":13952,"Tingali":13953,"ĠÃ©mb":13954,"ĠAF":13955,"ĠDana":13956,"ĠDriving":13957,"Ġwawakil":13958,"eureuy":13959,"Ġ87":13960,"ĠINDONESIA":13961,"bÃ©da":13962,"ique":13963,"esir":13964,"Ġgamat":13965,"Ġcheck":13966,"ranÃ§":13967,"Ġukuranana":13968,"ĠWithdrawalExtra":13969,"ĠAzerba":13970,"balin":13971,"Ġbawa":13972,"uro":13973,"Ġtukangeun":13974,"ĠPhilip":13975,"ĠsÃ©r":13976,"Ġdiajak":13977,"ĠMerc":13978,"Ġcim":13979,"ĠDual":13980,"owder":13981,"ujuk":13982,"ĠPutu":13983,"Ġkandaraan":13984,"bed":13985,"ĠTOP":13986,"ulong":13987,"Ġalas":13988,"GGGG":13989,"akean":13990,"Ġpagelaran":13991,"lands":13992,"ajurit":13993,"ĠBM":13994,"nai":13995,"Ġstore":13996,"ðŁĺ":13997,"Ġakur":13998,"ichunter":13999,"Model":14000,"eungpeuk":14001,"Pil":14002,"ĠMarg":14003,"ĠWel":14004,"Ġrarasaan":14005,"ĠHindia":14006,"Ġlarangan":14007,"Ġjeans":14008,"VER":14009,"Wal":14010,"itos":14011,"ĠAff":14012,"oyo":14013,"Ġberp":14014,"rÃ©si":14015,"ĠGand":14016,"USA":14017,"REAM":14018,"ismo":14019,"Ġpersonal":14020,"Ġfakta":14021,"Ġnuluykeun":14022,"urai":14023,"uransi":14024,"Ã¨s":14025,"merce":14026,"èªŀ":14027,"ble":14028,"lÄ±":14029,"ski":14030,"ĠbÃ©h":14031,"ĠTulis":14032,"Ġmano":14033,"ĠNgaw":14034,"ĠngaropÃ©a":14035,"NER":14036,"ĠasÃ©t":14037,"Ġpagawe":14038,"ĠLaporan":14039,"KT":14040,"Mic":14041,"sama":14042,"Ġdaga":14043,"ĠSuw":14044,"Ġhitam":14045,"ĠJaman":14046,"ĠHill":14047,"ĠLatino":14048,"ĠkonsÃ©p":14049,"celona":14050,"English":14051,"Ġpita":14052,"Ġmuda":14053,"ĠWeek":14054,"ikanyaah":14055,"giru":14056,"Ġbudi":14057,"ĠMH":14058,"ĠIa":14059,"ĠES":14060,"ombong":14061,"Ġmikaresep":14062,"ĠRegular":14063,"Ġvolume":14064,"Ġera":14065,"Ġkanya":14066,"Ġlepat":14067,"ukti":14068,"Ġkoleksi":14069,"reh":14070,"ulao":14071,"âĢĻ.":14072,"ĠØ§ÙĦÙĦÙĩ":14073,"ĠTidur":14074,"ikipedia":14075,"gu":14076,"jakarta":14077,"Ġbeub":14078,"ĠSouvenir":14079,"ĠBEL":14080,"egaan":14081,"anganan":14082,"asilan":14083,"Ġsawarga":14084,"ICE":14085,"hsan":14086,"ĠNaked":14087,"VID":14088,"Ġï":14089,"ĠKupon":14090,"ĠDatang":14091,"Ġgobnyan":14092,"ĠHall":14093,"Ã©maan":14094,"Ġngalengkepan":14095,"à¥į":14096,"Ġngaharepkeun":14097,"Page":14098,"bahan":14099,"ĠGay":14100,"Ngad":14101,"Ġbli":14102,"ĠTarik":14103,"ande":14104,"icains":14105,"ativ":14106,"Ġilang":14107,"Ġreli":14108,"ĠSagala":14109,"Bisa":14110,"DC":14111,"Ġdollar":14112,"organ":14113,"Ġatra":14114,"ĠOri":14115,"Ġtalatah":14116,"-'":14117,"kadang":14118,"Wah":14119,"ĠCru":14120,"Ġkucing":14121,"ĠStat":14122,"eyan":14123,"Ġmaling":14124,"ungeon":14125,"otik":14126,"ĠAdv":14127,"idae":14128,"Ġdewan":14129,"ĠHindi":14130,"utbah":14131,"iai":14132,"Ġpasamoan":14133,"ĠUNTUK":14134,"ĠEksklusif":14135,"ĠKakaw":14136,"Ġsind":14137,"asak":14138,"ĠSuku":14139,"Ġjol":14140,"apkan":14141,"Ġpanulis":14142,"Ġ450":14143,"inting":14144,"Ġkabar":14145,"unggung":14146,"ĠArticle":14147,"ĠParts":14148,"Tatoueur":14149,"KabupatÃ©n":14150,"rig":14151,"Ġmalaikat":14152,"Ġbekasi":14153,"ĠPartai":14154,"ĠBakar":14155,"ĠBorder":14156,"ĠDeui":14157,"ĠLip":14158,"rio":14159,"Ġoptik":14160,"rahkeun":14161,"Ġill":14162,"Ġduw":14163,"Ġbayar":14164,"ĠSongs":14165,"ĠTeg":14166,"ĠJAMB":14167,"Ġ89":14168,"ĠChris":14169,"APP":14170,"Ġsuc":14171,"ĠpakÃ©an":14172,"ĠNomb":14173,"ambangan":14174,"Ġdisebat":14175,"ĠAmin":14176,"Ġngadatangan":14177,"................................":14178,"Dur":14179,"mil":14180,"ĠPengg":14181,"Ġnyiar":14182,"ITY":14183,"Ð½Ð¾":14184,"Ġpotong":14185,"Ġlalaunan":14186,"ĠCimahi":14187,"×Ļ×":14188,"Ġthumbzilla":14189,"Gar":14190,"jul":14191,"itin":14192,"Ġlakukeun":14193,"Ġhargana":14194,"Ġpangadilan":14195,"INC":14196,"ĠKereta":14197,"ĠDewasa":14198,"ĠHua":14199,"Ġkarep":14200,"Ġzaman":14201,"ĠFrancis":14202,"Ġtihang":14203,"ĠVirgin":14204,"450":14205,"Max":14206,"ĠTex":14207,"ĠIlo":14208,"Ġmangat":14209,"ĠStates":14210,"Ġuteuk":14211,"ĠAtikan":14212,"Ġdikirimkeun":14213,"buku":14214,"Ġjepang":14215,"Ġyat":14216,"Ġalkohol":14217,"tionary":14218,"alus":14219,"ĠdÃ©k":14220,"ĠSite":14221,"ĠPocket":14222,"Ġlek":14223,"Ġhim":14224,"Ġpasagi":14225,"iwi":14226,"Ð°Ðº":14227,"ĠGeorge":14228,"vador":14229,"zed":14230,"ĠCav":14231,"ĠFamily":14232,"IRI":14233,"Ġpadet":14234,"DR":14235,"Haber":14236,"hap":14237,"Ġdiad":14238,"ĠKlik":14239,"ĠMega":14240,"Ġwayah":14241,"Ġfed":14242,"Ġakibat":14243,"Ġkondisi":14244,"Tok":14245,"TON":14246,"Ġmugia":14247,"ĠTeam":14248,"ĠCON":14249,"ĠJog":14250,"ĠLama":14251,"ĠLokal":14252,"arai":14253,"paatna":14254,"Ġhiasan":14255,"iety":14256,"Av":14257,"cg":14258,"ĠTanggal":14259,"ĠDP":14260,"ĠRd":14261,"Ã©rgi":14262,"ells":14263,"ÐµÑĢ":14264,"Ġquant":14265,"Ġ1993":14266,"Ġcib":14267,"ĠNan":14268,"2003":14269,"ĠidÃ©al":14270,"ĠWithdrawalAdditional":14271,"October":14272,"Ġsada":14273,"lais":14274,"Ġpertumbuhan":14275,"ĠWashington":14276,"Ġungk":14277,"Ġtoday":14278,"Ġpcs":14279,"epar":14280,"à®¤":14281,"ĠValent":14282,"Sw":14283,"num":14284,"Ġgog":14285,"Ġteup":14286,"ifer":14287,"Ġ82":14288,"Ġngajamin":14289,"ABUMI":14290,"ferensi":14291,"OCK":14292,"ĠdogÃ©n":14293,"NT":14294,"tut":14295,"Ġngac":14296,"aries":14297,"Ġyoutube":14298,"overy":14299,"Ġsholat":14300,"Ġnurunkeun":14301,"ĠBengkulu":14302,"Ġjieunan":14303,"VA":14304,"ause":14305,"adid":14306,"Ġ230":14307,"Ġyears":14308,"Ġstar":14309,"Ġpuniki":14310,"Ġbubuka":14311,"tains":14312,"ĠLex":14313,"Ġpremium":14314,"allu":14315,"too":14316,"Ġrombongan":14317,"Ġ()":14318,"ĠEli":14319,"Inter":14320,"Ġdikumpulkeun":14321,"Map":14322,"Ãħ":14323,"ĠPamaÃ©n":14324,"adas":14325,"ĠKita":14326,"ĠObl":14327,"Ġpedaran":14328,"ademy":14329,"Sedengkeun":14330,"Ġgabungan":14331,"Beautiful":14332,"hid":14333,"jas":14334,"Ġani":14335,"artika":14336,"exclusive":14337,"gl":14338,"pel":14339,"atÃ©":14340,"atayo":14341,"ĠAis":14342,"Ġjabatan":14343,"Ġngahuleng":14344,"Ngaj":14345,"Ġluhurna":14346,"ĠTimes":14347,"ĠTelugu":14348,"Ġinjeuman":14349,"ĠMind":14350,"Ġngalir":14351,"Ġmaik":14352,"encies":14353,"ĠTerk":14354,"Ġparty":14355,"Ya":14356,"araja":14357,"ĠBS":14358,"Ġditanya":14359,"Ġpaduli":14360,"Ġpantun":14361,"à¤°":14362,"Ġita":14363,"ĠSaan":14364,"ĠMitra":14365,"edes":14366,"andal":14367,"ĠFast":14368,"ĠparÃ©":14369,"ĠÃ¢":14370,"Ġisin":14371,"111":14372,"Ġngahijikeun":14373,"Sok":14374,"Ġema":14375,"Ġseukeut":14376,"ĠAth":14377,"Ġfik":14378,"ĠAccess":14379,"175":14380,"ĠzÅĤ":14381,"Salian":14382,"Ġsluts":14383,"Ġpanyalindungan":14384,"ĠNAS":14385,"ĠJi":14386,"ĠIf":14387,"Ġnyerang":14388,"Ġstop":14389,"Ġdunungan":14390,"Ġdroe":14391,"ihna":14392,"Ġsabot":14393,"Ġsaham":14394,"Ġ155":14395,"Ġmeter":14396,"ĠSanta":14397,"pangna":14398,"Camak":14399,"Ġpatani":14400,"Ġngukur":14401,"Ġrendah":14402,"ĠDA":14403,"Ġgeusan":14404,"Ġngabandingkeun":14405,"Ġmiang":14406,"March":14407,"UHAN":14408,"ĠMentri":14409,"isipasi":14410,"HAR":14411,"Ġtumbu":14412,"ĠKY":14413,"Ġhik":14414,"ĠCeu":14415,"Ġrenang":14416,"ĠLady":14417,"ĠGancang":14418,"Ġperumahan":14419,"eulaan":14420,"Ġsahijina":14421,"anger":14422,"ĠMutiara":14423,"ĠTA":14424,"ĠStop":14425,"Ġngahargaan":14426,"Ġmalih":14427,"ĠSaking":14428,"Ġeleh":14429,"Ġdidamel":14430,"Dim":14431,"Ġsd":14432,"ĠTil":14433,"Ġguns":14434,"ĠHistory":14435,"Ġyamaha":14436,"chen":14437,"Ġngarana":14438,"Ã©ntaran":14439,"utera":14440,"ĠInterracial":14441,"eafood":14442,"UJ":14443,"Ġsame":14444,"Ġpamahaman":14445,"ĠDecor":14446,"Juli":14447,"lers":14448,"Ġikan":14449,"ĠSitemap":14450,"irÃ©":14451,"idaya":14452,"embur":14453,"chain":14454,"Ġngarugikeun":14455,"Ġbohong":14456,"Ġpegat":14457,"bih":14458,"Ġmess":14459,"ĠyakÃ©":14460,"Ġ[...]":14461,"Ġngawaler":14462,"adaharan":14463,"ĠATV":14464,"yun":14465,"Ġkong":14466,"ĠSAT":14467,"Ġdiet":14468,"ĠCong":14469,"upuk":14470,"...\"":14471,"ilaing":14472,"Ġpaeh":14473,"áĥĲáĥ":14474,"Cr":14475,"balik":14476,"additional":14477,"Ġcatur":14478,"Ġrot":14479,"ekarno":14480,"ĠÃ©cÃ©s":14481,"orna":14482,"Ġcint":14483,"oter":14484,"ĠRanc":14485,"harmac":14486,"Ġmalem":14487,"unjab":14488,"ĠResults":14489,"ristal":14490,"Blue":14491,"Mamada":14492,"Qur":14493,"Slot":14494,"ĠDO":14495,"uduh":14496,"uwu":14497,"ĠWithdrawalExclusive":14498,"Ġrakyat":14499,"ĠMamada":14500,"Le":14501,"Tra":14502,"ĠPor":14503,"ĠMAT":14504,"Ġkasatiaan":14505,"ondo":14506,"ingkin":14507,"ìĿ´":14508,"NE":14509,"nee":14510,"Ġngamb":14511,"Ġ5000":14512,"Ġprak":14513,"ĠPangiriman":14514,"ĠØ¥":14515,"ÐµÐº":14516,"ĠBenarasi":14517,"jamahan":14518,"has":14519,"limah":14520,"sin":14521,"Ġpeun":14522,"Ġple":14523,"ĠBrow":14524,"ĠRA":14525,"Ġmiliter":14526,"Ġbiag":14527,"Ġshare":14528,"ĠAtj":14529,"euÃ«t":14530,"ĠPOS":14531,"Ġjet":14532,"euheu":14533,"ĠApan":14534,"1200":14535,"Ġanggaran":14536,"ĠFilipino":14537,"ĠbalarÃ©a":14538,"ÃĹ":14539,"ĠAirlines":14540,"ĠMasih":14541,"ĠEdition":14542,"ucunghul":14543,"anta":14544,"ĠpÃ©ri":14545,"ĠPep":14546,"ĠLirik":14547,"Ġnyambungkeun":14548,"adium":14549,"ĠAlami":14550,"Ġmauritius":14551,"ĠsurÃ©lÃ©k":14552,"ĠSMT":14553,"etahuan":14554,"sek":14555,"Ġpp":14556,"ĠBudi":14557,"ĠDNA":14558,"Ġutamina":14559,"Ġdidaptarkeun":14560,"Ġcairan":14561,"ĠKemis":14562,"________________________________":14563,"Ġbotol":14564,"MAT":14565,"puri":14566,"Ġsuluh":14567,"Ġsanyawa":14568,"Ġneda":14569,"ĠSis":14570,"Ġngaktipkeun":14571,"ĠCharger":14572,"Ġbait":14573,"ĠPangandaran":14574,"Masehi":14575,"Ġnavigasi":14576,"Ġmolekul":14577,"kw":14578,"Ð·":14579,"Ġsofa":14580,"Ġania":14581,"Ġramah":14582,"Ġwinn":14583,"ĠGh":14584,"ehir":14585,"ĠOx":14586,"ĠAcum":14587,"ĠMass":14588,"race":14589,"He":14590,"och":14591,"zy":14592,"Ġdarah":14593,"Ġstainless":14594,"Ġnd":14595,"ĠHuman":14596,"okna":14597,"ĠWorks":14598,"Ġmantong":14599,"Ġens":14600,"orage":14601,"Ġngoj":14602,"ĠDah":14603,"emis":14604,"ĠInternÃ©t":14605,"Ġnyampeurkeun":14606,"Hijriah":14607,"Bank":14608,"Ġï¿½":14609,"Ġraks":14610,"Ġkalangan":14611,"ĠMunisip":14612,"ĠKonci":14613,"ĠbÃ©as":14614,"ĠKecantikan":14615,"ĠIpoh":14616,"Ġmertimbangkeun":14617,"Copyright":14618,"gara":14619,"Ġlay":14620,"Ġpanutup":14621,"Ġkarek":14622,"ĠPersi":14623,"duka":14624,"Ġkamus":14625,"ĠPlant":14626,"ĠSasak":14627,"ĠSports":14628,"ĠngomÃ©ntaran":14629,"bour":14630,"Ġhapunten":14631,"Ġgelas":14632,"imin":14633,"ĠWunga":14634,"ebaran":14635,"Ġthen":14636,"agiatan":14637,"Ġsekarang":14638,"ĠInterior":14639,"text":14640,"erun":14641,"ĠPAL":14642,"awut":14643,"ĠFA":14644,"ĠkalÃ©nder":14645,"Ġresiko":14646,"ĠSave":14647,"ĠArizona":14648,"Ġexc":14649,"888":14650,"Ġwarisan":14651,"ĠWalungan":14652,"ekutif":14653,"quipment":14654,"åľ":14655,"æĺ":14656,"alatan":14657,"ĠMeunangkeun":14658,"ĠBEN":14659,"ijak":14660,"Ġdisal":14661,"Ġ1960":14662,"Ġngaruksak":14663,"Ġindikator":14664,"ĠAngkutan":14665,"ĠKawasaki":14666,"IE":14667,"sol":14668,"isl":14669,"ĠBli":14670,"abur":14671,"ĠOd":14672,"Ġkalau":14673,"ĠSalve":14674,"Ġpager":14675,"Ġkutang":14676,"Ġsempet":14677,"oan":14678,"ply":14679,"rung":14680,"Ġcost":14681,"ĠDinan":14682,"oki":14683,"Ġperubahan":14684,"Ġ1970":14685,"UTOR":14686,"ĠDoel":14687,"ĠtÃ©tÃ©la":14688,"tun":14689,"ĠCy":14690,"Ġgeuwat":14691,"ĠHeb":14692,"ugjug":14693,"Ġotoritas":14694,"ĠGreg":14695,"Ġleul":14696,"ĠCep":14697,"Ġinn":14698,"Ġadina":14699,"ĠTerpercaya":14700,"De":14701,"kaca":14702,"rick":14703,"angat":14704,"Ġpangkat":14705,"elf":14706,"Ã©ni":14707,"Ġimm":14708,"Ġumah":14709,"Ġcomm":14710,"Ġtitipan":14711,"ĠBuat":14712,"Ġepis":14713,"ĠWilliam":14714,"Ġdiwanohkeun":14715,"hand":14716,"Ġsound":14717,"Ã©sis":14718,"Ġdimangpaatkeun":14719,"abrikan":14720,"Ġlowongan":14721,"Ġcampur":14722,"dha":14723,"Ġbaan":14724,"Ġhungkul":14725,"Ġrip":14726,"Ġrangk":14727,"Ġroti":14728,"agean":14729,"orse":14730,"eption":14731,"Ġwartawan":14732,"ĠKomunikasi":14733,"ĠJaguar":14734,"Ġmecengh":14735,"Resep":14736,"Ġtaj":14737,"Ġrai":14738,"Ġwap":14739,"ĠTerp":14740,"Ngag":14741,"aterangan":14742,"zip":14743,"ĠATA":14744,"Ġcahya":14745,"010":14746,"jangjian":14747,"Ġshort":14748,"buru":14749,"Ġgi":14750,"ĠNiger":14751,"ĠJatin":14752,"ĠLev":14753,"155":14754,"Ġxx":14755,"Ġserta":14756,"Catetan":14757,"cor":14758,"Ġsold":14759,"ĠSEM":14760,"Ġhijab":14761,"Ġ210":14762,"ĠHu":14763,"iplin":14764,"Ġrom":14765,"ĠDistribu":14766,"ĠManajemÃ©n":14767,"ĠEthnic":14768,"ĠVersion":14769,"tos":14770,"ayalam":14771,"Ġrenc":14772,"icara":14773,"Ġsakuduna":14774,"indonesia":14775,"ERA":14776,"âĢĻ,":14777,"145":14778,"Nyieun":14779,"Katut":14780,"Ġmaipapan":14781,"ĠChampion":14782,"Bel":14783,"Tagged":14784,"ĠngÃ¶n":14785,"Ġkaopat":14786,"amaah":14787,"Ġkasehatan":14788,"Ġ1991":14789,"Ġprivasi":14790,"Bit":14791,"ĠSimb":14792,"Ġrental":14793,"omin":14794,"ĠGading":14795,"ĠFitur":14796,"ĠKabataan":14797,"Ġlumaku":14798,"ĠmÃ©tode":14799,"November":14800,"lem":14801,"ĠAna":14802,"ĠTip":14803,"Ġwakil":14804,"opol":14805,"Ġacrylic":14806,"ĠPolo":14807,"Ġberbagai":14808,"ĠkasuksÃ©san":14809,"ĠPit":14810,"ĠCute":14811,"ĠFa":14812,"ried":14813,"Ġ#:":14814,"Ġdefin":14815,"ĠAbd":14816,"Ġserial":14817,"ĠKeluarga":14818,"ĠpancÃ©n":14819,"Î»":14820,"ĠALAT":14821,"Ġngariung":14822,"Kiwari":14823,"Ġold":14824,"ĠDoc":14825,"III":14826,"ĠÃ©nda":14827,"Ġdirojong":14828,"ordinat":14829,"ĠElectronics":14830,"Ġseng":14831,"Ġnek":14832,"adesh":14833,"ĠKB":14834,"ĠâĤ¹":14835,"azÄĥ":14836,"ÃŃa":14837,"Ġclose":14838,"uncak":14839,"Ġideas":14840,"Camp":14841,"Ġarg":14842,"ĠPahlawan":14843,"Ġhp":14844,"Ġalg":14845,"Ġtelat":14846,"Ð¾ÑĤ":14847,"ĠIsraÃ©l":14848,"Kecap":14849,"jer":14850,"Ã¸":14851,"esian":14852,"ĠLarge":14853,"asieun":14854,"Ġyamba":14855,"ĠpaÃ©h":14856,"apatkan":14857,"plies":14858,"ĠUdara":14859,"abola":14860,"eden":14861,"ĠRab":14862,"ĠFiji":14863,"Ġngadu":14864,"ĠiPad":14865,"Ġkue":14866,"Ġmuseurkeun":14867,"enggeus":14868,"Ġpuluhan":14869,"ĠKapala":14870,"Conto":14871,"Ġfunction":14872,"Med":14873,"Ġboys":14874,"eunangan":14875,"ench":14876,"Ġkena":14877,"uksakan":14878,"Ġsateuacanna":14879,"DP":14880,"¤Ù":14881,"Ġpajak":14882,"Ġmuh":14883,"Ġlengkah":14884,"ĠRid":14885,"Ġsarwa":14886,"Ġujung":14887,"CR":14888,"jemahan":14889,"erapa":14890,"ĠSET":14891,"ĠGamis":14892,"antren":14893,"stick":14894,"inditan":14895,"Sag":14896,"Ġbentang":14897,"ĠPEM":14898,"ĠCast":14899,"icipal":14900,"Ġngaji":14901,"Ġmilyar":14902,"165":14903,"Ġmantra":14904,"ĠSUKABUMI":14905,"ĠMawar":14906,"odor":14907,"Ġbets":14908,"Ġpersen":14909,"ĠmodÃ©rn":14910,"eungharan":14911,"Ġdiputer":14912,"ĠGratuit":14913,"ugao":14914,"ĠJammu":14915,"asonic":14916,"Temp":14917,"Ġdeg":14918,"Ġrej":14919,"ĠNev":14920,"Ġwould":14921,"275":14922,"Ġpublic":14923,"Ġjilbab":14924,"ungkusan":14925,"ĠBuktina":14926,"Ġjandela":14927,"ĠSound":14928,"aceae":14929,"ipati":14930,"ibadi":14931,"Ġlatar":14932,"stop":14933,"estion":14934,"asahiji":14935,"ĠBengal":14936,"Ġpahlawan":14937,"apun":14938,"Ġfungs":14939,"Ġtalaga":14940,"Ġpermukaan":14941,"MM":14942,"ĠMerd":14943,"Ġhati":14944,"ĠJOH":14945,"Ġkain":14946,"traf":14947,"ĠSeti":14948,"Ġnapas":14949,"Ġbeungkeut":14950,"uesday":14951,"ikon":14952,"ĠLos":14953,"ĠHas":14954,"ĠFi":14955,"owe":14956,"Ã©mica":14957,"Ġchicks":14958,"ĠkomÃ©rsial":14959,"xxx":14960,"ĠGoreng":14961,"TO":14962,"nar":14963,"Ġseungit":14964,"ĠSitu":14965,"mirat":14966,"ĠBirds":14967,"Ġjeng":14968,"Ġhariwang":14969,"Ġngilu":14970,"Ġwanda":14971,"ĠUang":14972,"asifik":14973,"indow":14974,"ĠAwal":14975,"ĠSalveazÄĥ":14976,"ĠDistribuie":14977,"inna":14978,"ĠMaga":14979,"ĠTu":14980,"toran":14981,"Ġtekenan":14982,"ĠwandÃ©ka":14983,"PreÅ£":14984,"false":14985,"ansi":14986,"Ġtug":14987,"unungan":14988,"Ġngawanohkeun":14989,"emas":14990,"Ġfood":14991,"yeon":14992,"Ġtopik":14993,"ĠMixer":14994,"Ġhu":14995,"ĠIwan":14996,"Ġkolam":14997,"ĠSerial":14998,"Ġbayi":14999,"screen":15000,"Lokasi":15001,"tas":15002,"estik":15003,"Ġ720":15004,"eresan":15005,"Ãªs":15006,"ĠEndÃ©mica":15007,"kus":15008,"rary":15009,"Ġmenang":15010,"Ġmojang":15011,"jak":15012,"Ġpt":15013,"unna":15014,"ĠJah":15015,"ĠJambi":15016,"ically":15017,"ĠWayang":15018,"ĠWhat":15019,"Ġsakitar":15020,"Ġkatutup":15021,"GGA":15022,"ĠTamanna":15023,"Ġbrowser":15024,"Katutubong":15025,"tayo":15026,"ĠMOT":15027,"ĠSakumaha":15028,"ĠGaun":15029,"arjo":15030,"ĠPENG":15031,"roy":15032,"ĠJAM":15033,"ektif":15034,"Ġperbaikan":15035,"Ġdiperk":15036,"uyuban":15037,"Ġsuara":15038,"ĠPanther":15039,"GO":15040,
[...]
